<unk>	0
<s>	0
</s>	0
,	-2.91634
。	-3.05213
▁	-3.58449
的	-3.92718
和	-4.61544
、	-4.78919
在	-5.04587
?	-5.43675
了	-5.51569
是	-5.61775
年	-5.62351
对	-5.80955
(	-5.85188
与	-5.8991
)	-5.90446
中	-5.97851
:	-6.09396
;	-6.10704
我	-6.15177
为	-6.16187
月	-6.21621
》	-6.28139
或	-6.29407
《	-6.30965
你	-6.34714
有	-6.37762
将	-6.37855
他	-6.43609
!	-6.48406
上	-6.48448
时	-6.5034
并	-6.55033
▁我	-6.55078
人	-6.5699
我们	-6.59046
以	-6.63306
而	-6.63414
▁在	-6.65061
以及	-6.67417
不	-6.68228
就	-6.7382
一个	-6.74585
从	-6.77868
来	-6.78185
说	-6.79363
问题	-6.80137
-	-6.81024
日	-6.81091
及	-6.8157
到	-6.82885
他们	-6.8709
第	-6.8807
地	-6.88372
被	-6.90415
其	-6.90927
进行	-6.91087
也	-6.91768
”	-6.93185
/	-6.93186
包括	-6.93734
.	-6.96402
“	-6.97328
工作	-6.97862
...	-6.99812
向	-7.01903
都	-7.01916
"	-7.02374
她	-7.02448
会	-7.02663
a	-7.03567
吗	-7.03656
但	-7.06133
关于	-7.0711
国家	-7.07796
1	-7.07816
后	-7.08261
性	-7.09263
▁他	-7.09932
提供	-7.10321
通过	-7.1083
没有	-7.11421
要	-7.11758
▁你	-7.13268
这些	-7.14079
去	-7.17133
这	-7.17677
它	-7.17869
用	-7.19565
个	-7.19799
▁我们	-7.215
等	-7.22584
可	-7.23409
大	-7.23692
可以	-7.23983
里	-7.24947
于	-7.25136
3	-7.26138
需要	-7.26284
2	-7.27544
下	-7.30869
把	-7.3333
还	-7.36042
方面	-7.36272
·	-7.36306
使用	-7.36572
这个	-7.37316
所	-7.37373
5	-7.37524
已经	-7.38227
系统	-7.3833
委员会	-7.38439
6	-7.38545
政府	-7.38689
一	-7.40131
由	-7.40416
能	-7.40971
有关	-7.41293
法	-7.41748
者	-7.42902
4	-7.43504
研究	-7.43573
的人	-7.45625
该	-7.47046
要求	-7.48658
公司	-7.49504
已	-7.50864
内	-7.5092
10	-7.51632
新	-7.52701
活动	-7.53004
7	-7.5317
所有	-7.54498
多	-7.54768
支持	-7.55275
应	-7.55595
作为	-7.55691
一些	-7.5587
报告	-7.55885
12	-7.57207
前	-7.57545
那	-7.58889
使	-7.59251
技术	-7.5953
先生	-7.59601
c	-7.59786
比	-7.60094
小	-7.60216
联合国	-7.60317
发展	-7.61522
着	-7.61613
方案	-7.61704
国际	-7.61849
中国	-7.6231
▁(	-7.63363
因为	-7.64078
可能	-7.65705
这种	-7.66518
根据	-7.66899
▁她	-7.6693
点	-7.68068
9	-7.68502
组织	-7.68515
▁-	-7.68656
执行	-7.69093
公约	-7.69593
好	-7.69683
给	-7.69843
项目	-7.69921
吧	-7.71146
自己	-7.71424
服务	-7.7207
过	-7.72543
开始	-7.72862
管理	-7.73052
处理	-7.73671
水	-7.74282
名	-7.7449
认为	-7.7516
更	-7.75613
计划	-7.75691
美国	-7.75839
8	-7.76041
必须	-7.76346
建议	-7.76639
得	-7.77165
)。	-7.77719
继续	-7.78084
呢	-7.78684
分析	-7.79522
经济	-7.79872
b	-7.80499
之	-7.80631
条	-7.80971
的时候	-7.81916
这一	-7.82299
高	-7.82983
会议	-7.83101
方法	-7.83191
情况	-7.8356
出	-7.83596
时间	-7.84566
具有	-7.86333
▁但是	-7.87329
同	-7.87709
但是	-7.8807
能够	-7.88461
做	-7.88591
11	-7.88715
决定	-7.88915
并且	-7.89023
而且	-7.89316
妇女	-7.90067
又	-7.90223
合作	-7.90245
就是	-7.90551
▁如果	-7.91153
段	-7.91808
获得	-7.91983
最	-7.92793
保护	-7.92857
无	-7.93023
机构	-7.93386
代表	-7.93745
子	-7.93808
如	-7.93906
建立	-7.94008
表示	-7.94033
社会	-7.94159
其他	-7.94915
任何	-7.96082
▁但	-7.96138
你的	-7.96471
让	-7.96772
行动	-7.96864
那些	-7.97338
之后	-7.97501
一样	-7.97791
信息	-7.97891
正在	-7.98101
中的	-7.99683
实现	-7.99687
本	-8.00184
促进	-8.00251
美元	-8.00582
安全	-8.00634
政策	-8.00757
控制	-8.00761
现在	-8.00768
或者	-8.01414
它们	-8.01594
自	-8.01836
努力	-8.02166
增加	-8.02264
▁因此	-8.02589
你们	-8.02881
教育	-8.02962
法律	-8.03316
s	-8.03347
影响	-8.03525
对于	-8.03653
▁他们	-8.03804
利用	-8.04669
至	-8.04711
措施	-8.0476
得到	-8.04897
主要	-8.05504
参与	-8.0556
数据	-8.05864
什么	-8.06055
成为	-8.06129
外	-8.0613
式	-8.06241
请	-8.06333
想	-8.06333
机	-8.06482
新的	-8.06491
很	-8.07484
确保	-8.07714
再	-8.07785
设计	-8.07807
啊	-8.07853
30	-8.07863
应该	-8.07939
世界	-8.08674
提出	-8.08833
长	-8.08922
20	-8.0911
因此	-8.09128
实施	-8.09621
如果	-8.09741
化	-8.09809
拉	-8.10115
的影响	-8.10211
解决	-8.10223
能力	-8.10336
之前	-8.10377
即	-8.10972
及其	-8.11323
分	-8.1274
头	-8.12746
规定	-8.12804
家	-8.12859
e	-8.13081
不能	-8.13285
选择	-8.13701
中心	-8.13885
程序	-8.14132
因	-8.14263
还是	-8.14524
不同	-8.14711
区域	-8.14729
当	-8.14878
地区	-8.15052
文件	-8.15119
发现	-8.15182
号决议	-8.15331
部分	-8.15346
目标	-8.15347
方式	-8.16107
加强	-8.16741
环境	-8.17169
正	-8.17482
标准	-8.17986
号	-8.18238
减少	-8.18315
儿童	-8.18584
斯	-8.18743
由于	-8.18777
看	-8.18857
各	-8.19076
资源	-8.19138
区	-8.19362
▁此外	-8.19409
调查	-8.19652
d	-8.1983
确定	-8.20569
之间	-8.20758
企业	-8.20904
特	-8.2096
市场	-8.21224
这样	-8.21262
非	-8.21316
讨论	-8.21455
审查	-8.21501
全球	-8.21805
机制	-8.21987
一种	-8.22071
天	-8.22075
结构	-8.22326
参加	-8.23128
型	-8.23143
采取	-8.23402
l	-8.2361
则	-8.23661
特别	-8.23759
人们	-8.24132
采用	-8.24354
提高	-8.24416
们	-8.24638
非常	-8.24763
却	-8.24775
许多	-8.24868
他的	-8.24901
的工作	-8.24977
三	-8.251
期间	-8.25742
打	-8.25953
15	-8.26515
希望	-8.26588
带	-8.26904
战略	-8.26932
像	-8.26957
我的	-8.27099
用于	-8.27168
如何	-8.27385
人员	-8.27452
行为	-8.27493
接受	-8.27504
不是	-8.27932
成	-8.27959
指出	-8.28045
的问题	-8.28076
产品	-8.28233
开展	-8.28508
同时	-8.28782
器	-8.29116
的话	-8.29706
其中	-8.3022
网络	-8.30502
车	-8.307
只	-8.30851
目前	-8.31197
生活	-8.31807
各种	-8.31948
是否	-8.32238
受	-8.32353
领域	-8.32433
学	-8.33136
是一个	-8.33316
卡	-8.33603
起	-8.34189
▁然而	-8.34265
线	-8.34481
▁这	-8.34622
这是	-8.34825
说明	-8.35171
作	-8.36034
特别是	-8.36252
发生	-8.36372
政治	-8.36627
都是	-8.36681
德	-8.36743
国	-8.36873
p	-8.36903
帮助	-8.37088
开	-8.37462
拥有	-8.37536
治疗	-8.38045
负责	-8.38192
走	-8.38343
那么	-8.38395
花	-8.3844
生产	-8.38622
没	-8.3876
相关	-8.39132
作用	-8.40207
生	-8.40224
心	-8.40299
行	-8.40538
评估	-8.41177
马	-8.41731
关系	-8.41747
以便	-8.42027
受到	-8.42032
18	-8.42201
缔约国	-8.42505
投资	-8.42582
制定	-8.4267
光	-8.4298
部	-8.43014
发	-8.43093
的报告	-8.43165
考虑	-8.43207
大会	-8.43402
家庭	-8.43592
完成	-8.43663
▁对	-8.44012
进行了	-8.44271
见	-8.44368
还有	-8.44413
结果	-8.44721
两个	-8.45152
西	-8.45414
无法	-8.45454
面	-8.45568
称	-8.45777
只有	-8.45777
应当	-8.45787
设备	-8.45835
未	-8.45953
山	-8.46209
加	-8.46248
和其他	-8.46405
进一步	-8.46497
个人	-8.46506
改变	-8.4691
▁它	-8.46979
----	-8.47137
运动	-8.47249
文化	-8.47727
制度	-8.47896
大学	-8.48354
之一	-8.48387
涉及	-8.48439
部门	-8.48482
▁“	-8.48728
利	-8.49048
然后	-8.49433
的国家	-8.4963
完全	-8.4963
进入	-8.49881
了解	-8.49891
▁这些	-8.49906
来自	-8.49909
▁当	-8.50029
出现	-8.50266
秘书处	-8.50385
共同	-8.50789
量	-8.50864
数	-8.50916
银行	-8.51213
的情况	-8.51365
作出	-8.51456
城市	-8.51677
表	-8.51821
审议	-8.51837
门	-8.52029
事	-8.52129
直接	-8.52177
按	-8.52195
学习	-8.5295
低	-8.52965
19	-8.53257
处	-8.5327
▁从	-8.53387
不会	-8.53775
自己的	-8.5382
爱	-8.53925
人权	-8.53983
手	-8.54108
一直	-8.5411
费用	-8.54382
科	-8.54477
体	-8.54496
产生	-8.5504
成员	-8.55193
业务	-8.55193
▁不过	-8.55275
协调	-8.55959
款	-8.56342
别	-8.56459
金	-8.56462
安排	-8.56565
2008	-8.56996
各国	-8.57006
才	-8.57146
二	-8.57261
▁不	-8.57279
2010	-8.57295
达	-8.57443
16	-8.57466
强调	-8.57685
管	-8.57887
您	-8.57888
吃	-8.57914
组	-8.58482
提交	-8.58615
小组	-8.59008
那个	-8.59156
鼓励	-8.59388
气	-8.5953
培训	-8.59576
空间	-8.59577
经	-8.59601
工作人员	-8.59801
道	-8.59854
克	-8.5986
2005	-8.60215
重	-8.60428
仍然	-8.60473
图	-8.60536
资料	-8.6059
市	-8.60716
存在	-8.61182
总	-8.6125
一起	-8.61271
条件	-8.6143
......	-8.61483
协助	-8.61492
支助	-8.61765
次	-8.61917
按照	-8.61981
▁由于	-8.61984
热	-8.62077
流	-8.62103
有效	-8.62247
模式	-8.62297
类	-8.62333
一次	-8.62352
力	-8.62527
更加	-8.62556
也是	-8.62614
来说	-8.6263
承认	-8.63015
很多	-8.63075
一项	-8.63171
显示	-8.63189
原则	-8.6324
2009	-8.63253
举行	-8.63372
间	-8.63516
风	-8.63778
模型	-8.63785
万	-8.6403
17	-8.64195
太	-8.64214
自由	-8.64358
保证	-8.64449
为了	-8.64707
的一个	-8.64845
援助	-8.64876
14	-8.64976
任务	-8.64999
只是	-8.65116
改革	-8.65215
重新	-8.65445
约	-8.65533
内容	-8.65655
改善	-8.65786
25	-8.65868
期	-8.65897
过程	-8.66024
阿	-8.66152
人民	-8.66262
提供了	-8.66393
全	-8.66411
针对	-8.66554
基	-8.66906
资金	-8.66954
材料	-8.66988
准备	-8.67036
13	-8.67074
2000	-8.67118
保持	-8.67173
他们的	-8.67293
——	-8.67335
度	-8.6752
率	-8.6756
造成	-8.67617
路	-8.67945
所以	-8.68182
文	-8.68197
单	-8.68237
两	-8.68252
开发	-8.68258
:“	-8.68285
主席	-8.68463
工作组	-8.68617
▁好吧	-8.68764
权利	-8.68783
工具	-8.6886
学校	-8.68947
跟	-8.69025
快	-8.69073
海	-8.69109
表明	-8.69152
回	-8.69163
位	-8.69183
最后	-8.6926
尽管	-8.6933
承诺	-8.6943
知道	-8.69511
限制	-8.69741
学生	-8.69881
评价	-8.69887
地方	-8.69905
比较	-8.69974
上的	-8.70017
2007	-8.70375
2006	-8.70431
口	-8.70798
应用	-8.70854
尼	-8.71082
油	-8.71245
预算	-8.71261
记录	-8.71412
相	-8.71462
死	-8.71565
非洲	-8.71573
专家	-8.71685
日至	-8.71834
联合	-8.71971
一下	-8.72268
物	-8.72326
具体	-8.7252
检查	-8.72862
▁根据	-8.72998
网	-8.73149
值	-8.73197
24	-8.73353
31	-8.73384
钱	-8.73436
基金	-8.73582
方	-8.73633
注意到	-8.74115
书	-8.74401
。”	-8.74477
权	-8.74502
场	-8.74777
框架	-8.74859
导致	-8.75098
警察	-8.75307
水平	-8.75354
的能力	-8.75478
工程	-8.75722
例如	-8.7575
变化	-8.75802
事件	-8.75857
长期	-8.75921
重要	-8.76096
秘书长	-8.76162
规则	-8.76573
理论	-8.76624
看到	-8.76759
▁因为	-8.76778
最近	-8.7685
过去	-8.76993
同意	-8.7715
科学	-8.77221
整个	-8.77269
孩子	-8.77359
我们的	-8.77518
白	-8.77538
21	-8.77572
甚至	-8.77601
2004	-8.77722
全面	-8.77858
f	-8.77908
条约	-8.77956
球	-8.7822
纳	-8.78299
协议	-8.78597
的权利	-8.78693
监测	-8.78839
恢复	-8.79067
▁*	-8.79116
机会	-8.79128
曾	-8.79203
的研究	-8.79286
起来	-8.79476
找到	-8.7951
▁该	-8.79528
方面的	-8.79661
办公室	-8.79679
四	-8.79725
项	-8.79749
成功	-8.79904
人口	-8.79954
人类	-8.79988
缺乏	-8.80055
以色列	-8.80385
测试	-8.8043
2011	-8.80549
达到	-8.80551
不要	-8.806
语言	-8.80635
▁为了	-8.80675
神	-8.8081
贸易	-8.80842
法院	-8.80889
主	-8.81049
日本	-8.8111
一切	-8.81203
▁所以	-8.8123
岁	-8.81467
价值	-8.8165
总统	-8.81706
▁如果你	-8.81836
虽然	-8.81879
的是	-8.8189
离开	-8.81898
加入	-8.81918
板	-8.81932
健康	-8.81973
办法	-8.81999
包	-8.82085
理事会	-8.82136
2003	-8.82218
需求	-8.82259
进	-8.82294
安	-8.82336
米	-8.82433
布	-8.82644
此	-8.82921
女士	-8.82997
推动	-8.83082
老	-8.83178
而言	-8.8319
风险	-8.83191
关注	-8.83214
之间的	-8.83511
基于	-8.83564
变	-8.83604
干	-8.83669
欢迎	-8.83701
社区	-8.83707
g	-8.83818
均	-8.83846
增长	-8.83851
一般	-8.83921
节	-8.84256
罗	-8.8436
基本	-8.8438
真	-8.84467
代表团	-8.84497
价格	-8.84512
种	-8.84517
先	-8.84585
▁2.	-8.84616
▁现在	-8.84622
喜欢	-8.84694
证明	-8.84754
用户	-8.84886
改进	-8.84952
试验	-8.84976
经常	-8.85065
是在	-8.8507
声	-8.85095
入	-8.85131
23	-8.85449
以下	-8.85532
从而	-8.85689
介绍	-8.85763
和平	-8.85802
电	-8.85988
工业	-8.86273
▁别	-8.86519
);	-8.86686
合同	-8.86995
如此	-8.87112
且	-8.87121
功能	-8.87205
塔	-8.87206
综合	-8.87207
计算	-8.87215
更多	-8.8764
的方式	-8.87718
建设	-8.87735
细胞	-8.8775
空	-8.87857
2012	-8.87998
皮	-8.88014
▁当然	-8.88166
红	-8.88513
美	-8.88557
制	-8.88601
▁尽管	-8.88727
挑战	-8.88743
2002	-8.88747
x	-8.88751
允许	-8.88807
放	-8.88852
每	-8.88918
女性	-8.88952
批准	-8.89003
的地方	-8.89028
通常	-8.89054
给我	-8.89077
巴	-8.89133
片	-8.8916
亚	-8.89343
队	-8.89359
反应	-8.89426
全国	-8.89573
选举	-8.89623
的情况下	-8.89642
调整	-8.89817
仍	-8.90039
因素	-8.90042
的方法	-8.90267
特派团	-8.90644
严重	-8.90678
消除	-8.90912
转	-8.90918
取得	-8.91073
▁虽然	-8.91096
▁关于	-8.91164
状况	-8.91212
实际	-8.91226
阶段	-8.91465
确认	-8.91478
协会	-8.9151
的主要	-8.91566
过程中	-8.91591
28	-8.91603
独立	-8.91636
交易	-8.91644
会员国	-8.91735
叫	-8.9174
欧洲	-8.91949
超过	-8.91972
才能	-8.9209
反	-8.92142
的建议	-8.9218
尤其是	-8.92205
设立	-8.92216
进程	-8.92256
22	-8.92332
解释	-8.92332
似乎	-8.9237
请求	-8.92561
国内	-8.92664
局	-8.92728
降低	-8.92936
防止	-8.93059
最终	-8.93079
五	-8.93171
内部	-8.93297
层	-8.93355
电子	-8.93384
宪法	-8.93548
收入	-8.93759
27	-8.93814
禁止	-8.93969
规划	-8.94029
不断	-8.94044
危机	-8.94238
形式	-8.94449
访问	-8.94497
相信	-8.94527
▁我想	-8.94802
积极	-8.95004
住	-8.95179
26	-8.952
听	-8.95292
并不	-8.95339
结束	-8.95507
保障	-8.95553
联系	-8.95745
有些	-8.95745
至少	-8.95963
▁你们	-8.95966
日第	-8.9597
一点	-8.95996
2001	-8.96067
质量	-8.96366
充分	-8.96391
有关的	-8.96466
威胁	-8.96518
再次	-8.96569
写	-8.96741
的所有	-8.96751
法庭	-8.96822
▁哦	-8.96842
扩大	-8.96961
某些	-8.97005
出口	-8.97019
▁1.	-8.97041
持续	-8.97094
格	-8.97145
波	-8.97172
林	-8.97185
40	-8.97377
宣布	-8.9754
不过	-8.9775
占	-8.97873
病	-8.97936
尔	-8.97947
原因	-8.97988
上述	-8.98002
将会	-8.98071
50	-8.98116
谁	-8.98134
亿美元	-8.98288
”。	-8.98295
给予	-8.9833
谈判	-8.98336
压	-8.98462
效果	-8.98507
出来	-8.98545
精神	-8.98797
费	-8.98839
媒体	-8.98847
语	-8.9886
▁是的	-8.98872
范围	-8.98935
符合	-8.98968
▁3.	-8.99024
今天	-8.99157
台	-8.99328
英国	-8.99344
就会	-8.99363
以来	-8.9947
协定	-8.99481
t	-8.99511
动	-8.9955
那样	-8.997
支付	-8.99787
压力	-8.99941
一名	-9.00056
安全理事会	-9.00186
剂	-9.00392
电话	-9.00497
核	-9.00498
专业	-9.00561
是一种	-9.00609
每个	-9.00626
拿	-9.00698
信	-9.00816
属于	-9.00973
的东西	-9.01048
▁这个	-9.01187
冲突	-9.01206
的事	-9.01296
双	-9.01418
近	-9.01648
而不是	-9.01734
指标	-9.01759
装	-9.01766
国际社会	-9.01797
论坛	-9.02012
让我	-9.02014
发展中国家	-9.02237
商业	-9.02285
朋友	-9.02317
鱼	-9.02406
反对	-9.02496
色	-9.02531
立法	-9.0254
历史	-9.02555
我会	-9.02643
▁最后	-9.02676
便	-9.02882
稳定	-9.02936
这样的	-9.02942
农业	-9.02943
可能会	-9.02952
半	-9.03073
汽车	-9.03095
▁好	-9.03239
当局	-9.03307
例	-9.03336
提出了	-9.03336
一位	-9.03359
制订	-9.03553
探讨	-9.03561
成本	-9.0361
29	-9.03611
派	-9.03681
理解	-9.03787
状态	-9.03802
州	-9.04189
案件	-9.04272
责任	-9.04374
客户	-9.04492
石	-9.04515
黑	-9.04616
知识	-9.04704
强	-9.04804
她们	-9.04898
感到	-9.0496
的新	-9.05211
武器	-9.05304
传统	-9.05362
形成	-9.0547
问	-9.05558
我想	-9.05578
为什么	-9.05598
工	-9.05892
以前	-9.05991
原	-9.05999
大量	-9.06061
医生	-9.06072
特征	-9.06372
以后	-9.06415
供	-9.06476
1999	-9.06602
船	-9.06643
经验	-9.06674
发言	-9.06925
南	-9.07028
有一个	-9.07138
眼	-9.07141
课程	-9.07155
连	-9.07249
▁对于	-9.07303
保留	-9.07452
k	-9.07456
软件	-9.07496
一份	-9.07514
员	-9.077
死亡	-9.0771
万美元	-9.07757
单位	-9.08382
训练	-9.08473
注意	-9.08494
申请	-9.08534
火	-9.08597
合	-9.08609
设施	-9.08649
困难	-9.08666
维持	-9.08708
销售	-9.08846
成果	-9.08853
▁通过	-9.0891
当地	-9.09077
女	-9.09085
1998	-9.09141
的活动	-9.09173
新闻	-9.09206
法官	-9.09227
的时间	-9.09282
▁有	-9.09297
提	-9.0956
装置	-9.09581
▁4.	-9.09753
平	-9.09757
n	-9.09828
▁我要	-9.09972
手段	-9.10031
站	-9.10053
操作	-9.10187
十分	-9.10307
做出	-9.10311
▁中国	-9.10508
预防	-9.10559
带来	-9.10588
h	-9.10767
从事	-9.10808
犯罪	-9.10882
艺术	-9.10932
m	-9.11045
库	-9.11123
部队	-9.11232
履行	-9.11297
级	-9.11314
系	-9.1133
印度	-9.11545
制造	-9.11546
是个	-9.11636
正式	-9.11642
现有	-9.11771
军事	-9.1184
现象	-9.12163
未来	-9.12229
呼吁	-9.1243
性能	-9.12444
的发展	-9.12644
城	-9.12649
体系	-9.12683
明确	-9.12864
应对	-9.12963
到了	-9.12984
飞	-9.13109
打击	-9.13116
土地	-9.13134
经过	-9.13146
省	-9.13188
▁这是	-9.13357
报	-9.13377
满足	-9.13395
军	-9.13427
买	-9.13579
运行	-9.13584
伊拉克	-9.13595
边	-9.13629
药	-9.13735
业	-9.1379
迅速	-9.13875
更多的	-9.13945
适当	-9.13959
明	-9.14272
不仅	-9.14516
▁美国	-9.14519
i	-9.14557
基础	-9.14732
总是	-9.14849
将在	-9.14879
法国	-9.14909
司法	-9.15027
的作用	-9.15028
树	-9.15057
根	-9.15212
通知	-9.1529
遵守	-9.15428
交流	-9.15437
联盟	-9.15711
也许	-9.15757
的机会	-9.15758
实行	-9.15789
感	-9.15796
每年	-9.15921
集团	-9.15982
教	-9.16011
的行为	-9.16163
草案	-9.16178
雷	-9.16256
公民	-9.16268
条款	-9.1636
令人	-9.16417
▁嘿	-9.16444
纳入	-9.16446
酒	-9.16525
非政府组织	-9.1653
定	-9.16576
儿	-9.16699
100	-9.16709
角	-9.16743
同样	-9.16814
增强	-9.16872
数量	-9.16957
的一部分	-9.16962
自然	-9.17173
程度	-9.17198
觉得	-9.17256
共	-9.1739
提出的	-9.17444
这里	-9.17465
她的	-9.17475
调	-9.17486
意见	-9.17507
建筑	-9.17566
▁5.	-9.17714
生物	-9.17843
议会	-9.18013
2013	-9.1813
拒绝	-9.18172
托	-9.18302
接触	-9.18437
]	-9.18494
通	-9.18565
几乎	-9.186
讲	-9.18718
身	-9.18724
资产	-9.18927
民主	-9.18939
试图	-9.1901
别人	-9.19093
自动	-9.19165
观察	-9.19454
铁	-9.19495
的目标	-9.19526
词	-9.1954
危险	-9.19627
组成	-9.19636
检测	-9.19732
全部	-9.19753
在其	-9.19854
能源	-9.19929
血	-9.19951
迪	-9.20017
我国	-9.20024
的信息	-9.20074
话	-9.20198
损失	-9.20201
大多数	-9.20284
旨在	-9.2047
给你	-9.20597
真的	-9.20707
有人	-9.20781
恩	-9.20848
位于	-9.20908
医院	-9.20913
木	-9.2095
这么	-9.20964
年度	-9.2108
▁这种	-9.21086
落实	-9.2109
生命	-9.21119
清	-9.21138
酒店	-9.21157
60	-9.2117
使得	-9.21211
▁例如	-9.2139
▁嗯	-9.21485
该国	-9.21598
行政	-9.21792
网站	-9.21842
特别报告员	-9.21851
数字	-9.21882
非法	-9.21885
就业	-9.21909
运输	-9.21945
创造	-9.22007
差	-9.22075
重申	-9.22298
集	-9.22523
动物	-9.22524
我要	-9.22632
行业	-9.22694
常	-9.22719
享有	-9.22748
就像	-9.22752
东西	-9.22765
年的	-9.22823
感觉	-9.22888
收到	-9.23262
并在	-9.23367
么	-9.23471
担任	-9.23504
构成	-9.2367
丝	-9.23859
适用	-9.23983
测量	-9.23988
担心	-9.2407
不同的	-9.2409
青年	-9.24147
沙	-9.24331
三个	-9.24364
各项	-9.24673
明显	-9.24699
王	-9.24717
德国	-9.24733
平衡	-9.24779
有助于	-9.2488
状	-9.24926
并没有	-9.24965
寻求	-9.24967
股	-9.25096
义务	-9.2515
采购	-9.2515
成员国	-9.25162
战争	-9.25227
质	-9.25342
缔约方	-9.25344
攻击	-9.25351
河	-9.25427
活	-9.25484
倡议	-9.25504
食品	-9.25508
奥	-9.2552
实验	-9.25577
进展	-9.25601
现代	-9.25608
官员	-9.25781
特性	-9.258
伊	-9.25821
公开	-9.2598
处于	-9.26189
对话	-9.26333
维	-9.26373
森	-9.26445
掉	-9.26512
东	-9.26561
避免	-9.26654
这次	-9.26816
•	-9.26869
案	-9.269
取	-9.26947
维护	-9.27022
较	-9.27306
分配	-9.27336
普遍	-9.27402
其中包括	-9.27472
出去	-9.27494
▁6.	-9.27555
▁《	-9.2761
预测	-9.27645
估计	-9.27717
身体	-9.2772
事务	-9.27747
破坏	-9.27778
音乐	-9.27792
▁在这方面	-9.27824
停止	-9.27874
找	-9.27895
加拿大	-9.27948
卫生	-9.27972
酸	-9.28021
游戏	-9.28049
些	-9.28132
古	-9.28223
指导	-9.2839
愿意	-9.28504
第一次	-9.28515
补充	-9.28594
证据	-9.28668
形	-9.28693
律师	-9.28698
▁而	-9.28805
难民	-9.28866
令	-9.28883
品	-9.28888
画	-9.28921
一个人	-9.28927
真正	-9.28984
不足	-9.29019
商	-9.29069
送	-9.2909
.1	-9.29115
哈	-9.29134
想要	-9.29172
塞	-9.29241
加以	-9.29372
离	-9.29402
叶	-9.2943
除了	-9.29484
奇	-9.29504
▁把	-9.29537
职业	-9.29552
统计	-9.29644
比赛	-9.29765
的重要性	-9.29855
仅	-9.29879
所有的	-9.30039
张	-9.30086
公共	-9.30099
领导	-9.30209
修改	-9.30245
此类	-9.30256
怎么	-9.30323
件	-9.30494
在这里	-9.30505
这项	-9.30508
六	-9.30519
纸	-9.30578
几	-9.30607
让你	-9.30827
方向	-9.30935
穿	-9.30974
宗教	-9.3107
除	-9.31074
选	-9.31136
少	-9.31147
当时	-9.31199
传播	-9.31284
骨	-9.31286
往往	-9.31305
连接	-9.31314
萨	-9.31321
回来	-9.31328
交	-9.31443
其它	-9.31453
室	-9.31486
的规定	-9.31563
监督	-9.31593
指	-9.31727
接	-9.31741
土	-9.31788
速度	-9.31851
思想	-9.31933
块	-9.31962
诺	-9.31981
及时	-9.3202
这类	-9.32051
目的	-9.32075
玩	-9.32213
患者	-9.32247
员额	-9.3229
它的	-9.32346
认识到	-9.32351
超	-9.32416
v	-9.3249
类型	-9.32536
违反	-9.32565
购买	-9.3263
第一	-9.3274
下列	-9.32885
一条	-9.3292
暴力	-9.33027
之中	-9.33205
父母	-9.3323
有点	-9.33258
份	-9.33291
尚未	-9.33329
毛	-9.33333
战	-9.33424
办事处	-9.33487
源	-9.33559
享受	-9.33627
列	-9.33744
班	-9.33793
坐	-9.33831
电视	-9.33935
英语	-9.33959
部署	-9.34009
女人	-9.34161
华	-9.34215
在一起	-9.34288
▁同时	-9.34294
元	-9.34318
的结果	-9.34398
规范	-9.34434
远	-9.3444
大约	-9.34445
统一	-9.34468
认识	-9.34476
本身	-9.34477
竞争	-9.34537
一家	-9.3458
▁我知道	-9.34627
了一个	-9.34719
深	-9.34734
瓦	-9.34782
阿富汗	-9.34783
象	-9.34872
临时	-9.34873
问题的	-9.34889
致力于	-9.3493
疾病	-9.3497
地位	-9.34997
极	-9.35018
做法	-9.35046
重大	-9.35065
那里	-9.35095
兰	-9.35272
伙伴	-9.35306
事情	-9.35399
移民	-9.35425
[	-9.35455
职能	-9.35488
好的	-9.35546
位置	-9.35581
支出	-9.35607
素	-9.35636
了吗	-9.35715
膜	-9.35757
概念	-9.35759
予以	-9.35816
数据库	-9.35819
电影	-9.35847
关键	-9.35873
障碍	-9.35882
实体	-9.3597
食物	-9.36009
下降	-9.3606
好吗	-9.36139
倒	-9.36149
情	-9.36151
力量	-9.36167
枪	-9.36223
解	-9.36266
协商	-9.36333
很难	-9.36352
经营	-9.36452
尊重	-9.36488
灯	-9.36528
安装	-9.36607
时期	-9.36638
一定	-9.36823
价	-9.36854
若干	-9.36879
受害者	-9.36893
放在	-9.36989
收集	-9.37033
轮	-9.37063
相比	-9.37141
快速	-9.37184
草	-9.37191
物质	-9.37195
面临	-9.37441
j	-9.37487
残疾人	-9.37497
以确保	-9.37532
表达	-9.37547
的要求	-9.37553
肉	-9.37606
龙	-9.37651
信号	-9.37707
司	-9.37781
底	-9.37854
▁一个	-9.37938
之外	-9.37946
艾滋病	-9.37947
▁7.	-9.37955
准则	-9.38021
联邦	-9.38032
的原因	-9.38231
森林	-9.38267
金融	-9.38407
登记	-9.38409
表现	-9.38487
微	-9.38494
定义	-9.38508
字	-9.3853
的关系	-9.38536
恐怖主义	-9.38643
男人	-9.38702
都有	-9.38705
获取	-9.38772
很好	-9.38833
举行的	-9.38857
读	-9.38974
▁我是	-9.38977
团体	-9.39008
定期	-9.3903
普	-9.39043
相关的	-9.39051
告诉我	-9.39143
变得	-9.39217
加工	-9.3925
▁目前	-9.39309
盘	-9.39389
参数	-9.3964
冷	-9.39653
适应	-9.39666
几个	-9.39669
计算机	-9.39752
脚	-9.39785
的事情	-9.39942
厂	-9.39977
▁你知道	-9.4
周	-9.40182
双方	-9.40197
是什么	-9.40227
提交人	-9.40271
的努力	-9.40335
黄	-9.40382
提议	-9.40405
飞机	-9.40449
坚持	-9.4049
安理会	-9.40513
不得	-9.40695
女孩	-9.40747
引起	-9.40752
收	-9.40756
直	-9.40785
立即	-9.40878
环	-9.40945
当然	-9.41076
算法	-9.41128
考虑到	-9.41175
重点	-9.4125
药物	-9.41288
寻找	-9.41296
人的	-9.41337
▁本文	-9.41367
情况下	-9.41418
难以	-9.41445
▁委员会	-9.41615
植物	-9.41617
错误	-9.41644
排	-9.41648
而是	-9.41657
监狱	-9.41668
不可	-9.4171
有着	-9.41764
对其	-9.41772
吉	-9.41791
宣传	-9.41859
广泛	-9.4191
人数	-9.41928
代	-9.41931
当前	-9.41969
靠	-9.41988
论	-9.42111
妈妈	-9.4213
大家	-9.42205
只能	-9.42216
启动	-9.42239
承担	-9.42319
总部	-9.42517
切	-9.42595
授权	-9.426
工艺	-9.42618
赛	-9.42668
群	-9.42672
最高	-9.42756
难	-9.42764
钢	-9.42825
包含	-9.42858
星	-9.42993
教学	-9.43035
特殊	-9.43054
脑	-9.43079
学院	-9.43173
利益	-9.43175
房	-9.4318
邀请	-9.43207
不再	-9.43269
权力	-9.43311
勒	-9.4334
移动	-9.43454
过来	-9.43702
的重要	-9.43719
随着	-9.43768
满	-9.43821
指定	-9.43893
结合	-9.44034
假	-9.44037
八	-9.44092
的法律	-9.44179
版	-9.44236
朝	-9.44256
料	-9.44307
提到	-9.44396
简单	-9.4463
▁目的	-9.4478
教师	-9.44803
领导人	-9.44819
行动计划	-9.44861
分别	-9.44941
艾滋病毒	-9.44955
上帝	-9.44964
只要	-9.44964
告诉	-9.45073
▁8.	-9.45108
弄	-9.45145
更新	-9.45152
最大的	-9.45157
相当	-9.45176
设置	-9.45275
▁另外	-9.45296
打算	-9.4531
落	-9.45329
修订	-9.45332
add	-9.45406
夫	-9.4543
短	-9.45565
▁今天	-9.45583
以上	-9.45607
介绍了	-9.45663
r	-9.4567
曾经	-9.45712
谈	-9.45715
索	-9.45729
分享	-9.45733
往	-9.4575
性别	-9.4578
我就	-9.45958
广告	-9.4602
第二	-9.46072
宣言	-9.46117
贷款	-9.4616
保健	-9.462
平台	-9.46235
工人	-9.46238
洛	-9.46246
亚洲	-9.46439
适用于	-9.46504
▁噢	-9.46585
▁为什么	-9.46627
财务	-9.46658
电脑	-9.46675
主义	-9.46708
看看	-9.46816
1997	-9.46825
外国	-9.46869
开放	-9.46873
手术	-9.46929
▁那	-9.46962
联合国系统	-9.46994
感谢	-9.46999
说话	-9.47013
供应	-9.47015
跑	-9.47153
公众	-9.47241
采取行动	-9.47256
平均	-9.47332
▁基于	-9.47345
世	-9.47362
圣	-9.47369
也会	-9.47392
自我	-9.47415
保险	-9.47458
一场	-9.47754
直到	-9.47774
35	-9.47797
是由	-9.4781
音	-9.47833
财产	-9.4784
类似	-9.47849
岛	-9.47967
座	-9.47969
怎样	-9.47972
返回	-9.48226
列入	-9.48254
的任何	-9.4826
医疗	-9.4836
,“	-9.48366
专门	-9.48389
▁他说	-9.48428
预计	-9.48464
狗	-9.48517
遭受	-9.48524
县	-9.48568
乐	-9.48626
肯定	-9.48655
免费	-9.48661
另一个	-9.48693
一年	-9.48713
博	-9.48719
液	-9.48761
管制	-9.48774
审计	-9.48933
需	-9.49069
旅游	-9.49088
莫	-9.49152
有可能	-9.4919
的基础上	-9.49288
失	-9.49313
旅行	-9.49326
系统的	-9.49723
产	-9.49769
化学	-9.49825
步骤	-9.4985
金属	-9.49926
相互	-9.50076
民族	-9.50106
盖	-9.50123
有必要	-9.50213
▁好的	-9.5024
联	-9.50274
罪	-9.50324
▁9.	-9.50473
这样做	-9.50533
▁请	-9.50586
创新	-9.50593
两年期	-9.50603
决策	-9.50904
公	-9.50909
平等	-9.5092
群体	-9.50988
伙伴关系	-9.51019
▁为	-9.51037
主题	-9.51076
首先	-9.51096
换	-9.51116
姆	-9.51145
看起来	-9.51152
查	-9.5119
高级	-9.51192
海洋	-9.51414
命令	-9.51443
事实	-9.51513
抗	-9.51578
架	-9.51713
如下	-9.51721
编写	-9.51755
澳大利亚	-9.51776
石油	-9.51786
运用	-9.51816
温	-9.5183
工作的	-9.51891
跳	-9.51914
早	-9.51929
伤	-9.5199
意味着	-9.52123
编制	-9.52131
每天	-9.52274
军队	-9.52281
分子	-9.523
卖	-9.52321
o	-9.5234
声明	-9.52353
北京	-9.5236
得到了	-9.52395
今后	-9.52409
顾问	-9.52588
地点	-9.52588
须	-9.52631
员工	-9.52701
都会	-9.52879
意义	-9.5289
卫星	-9.52921
气候变化	-9.5297
党	-9.53037
属	-9.53062
正常	-9.53197
的意见	-9.5322
温度	-9.53225
产业	-9.5323
居民	-9.53268
资本	-9.53342
事项	-9.53404
曼	-9.53445
清单	-9.5347
决议草案	-9.53479
有效的	-9.53521
待	-9.53538
俄罗斯	-9.53698
趋势	-9.53739
45	-9.53788
顿	-9.53847
放弃	-9.53917
普通	-9.54041
确实	-9.5413
食	-9.5413
条例	-9.54215
七	-9.54236
地球	-9.54237
端	-9.54246
▁随着	-9.54335
表面	-9.54465
创建	-9.54481
我是	-9.54486
喝	-9.54514
错	-9.5452
举措	-9.54614
一系列	-9.54715
基础设施	-9.54786
机械	-9.54801
财政	-9.54808
32	-9.54864
实	-9.54871
拟订	-9.54975
住房	-9.54988
刀	-9.55006
性质	-9.55069
茶	-9.55208
商品	-9.5524
核心	-9.55279
做了	-9.55418
团	-9.55473
的生活	-9.55492
的第	-9.55507
▁10.	-9.55551
依然	-9.55704
冲	-9.55736
你会	-9.55741
策略	-9.55746
适当的	-9.55807
举办	-9.55843
失去	-9.55962
店	-9.56039
糖	-9.56079
这一点	-9.56101
'	-9.56121
歧视	-9.56128
w	-9.56207
有权	-9.56263
母亲	-9.56394
消费者	-9.56518
感染	-9.56611
紧急	-9.56686
基因	-9.56758
▁是啊	-9.56858
消息	-9.56938
al	-9.56964
的决定	-9.56983
尝试	-9.56991
▁作为	-9.57132
来了	-9.57199
北	-9.5723
面对	-9.57252
▁结论	-9.57271
的资料	-9.57347
2014	-9.57377
在内的	-9.57428
课	-9.57443
税	-9.57478
房间	-9.57493
▁我可以	-9.57561
特点	-9.57621
对此	-9.57665
制作	-9.57695
结	-9.57697
防	-9.57724
差异	-9.57779
理由	-9.57876
议程	-9.57882
即使	-9.58014
技能	-9.58036
不可能	-9.5808
80	-9.581
纽约	-9.58123
身份	-9.58131
若	-9.58154
冰	-9.58157
哦	-9.58382
最大	-9.58388
额	-9.58391
如果你	-9.58445
审判	-9.58455
分类	-9.5848
职位	-9.58494
云	-9.58495
伤害	-9.58504
--	-9.58736
通信	-9.58822
赔偿	-9.5883
世纪	-9.58931
议定书	-9.58958
将其	-9.58992
号决定	-9.59023
日益	-9.59057
▁据	-9.59078
债务	-9.59131
发出	-9.59178
也没有	-9.59261
关	-9.59291
作了	-9.5931
▁我在	-9.59354
不知道	-9.59509
本国	-9.59585
理	-9.59587
回家	-9.59597
交通	-9.59679
也有	-9.59707
建	-9.59716
具	-9.59738
呀	-9.59739
留	-9.59767
巴西	-9.59791
分布	-9.59799
90	-9.59821
意大利	-9.59959
科技	-9.59977
发挥	-9.6014
增加了	-9.60166
70	-9.6035
你可以	-9.60419
私人	-9.60427
y	-9.60447
脱	-9.60521
污染	-9.60664
报道	-9.60715
今年	-9.60755
卷	-9.60857
贝	-9.60859
神经	-9.60963
的其他	-9.61041
年龄	-9.61059
墨西哥	-9.61117
求	-9.61268
言	-9.61275
▁11.	-9.61325
题为	-9.61346
各国政府	-9.61389
各方	-9.6139
粉	-9.61418
效应	-9.61433
的政策	-9.61535
培养	-9.61551
记者	-9.61564
套	-9.61577
高度	-9.61608
族	-9.61613
一张	-9.61623
一天	-9.61674
任	-9.61783
也不	-9.61883
既	-9.61895
结婚	-9.6197
把它	-9.61995
流动	-9.62154
洗	-9.62158
莱	-9.62191
对象	-9.62209
村	-9.62236
巴勒斯坦	-9.62239
至关重要	-9.62254
值得	-9.62264
缔约方会议	-9.6235
票	-9.62394
教授	-9.62397
下来	-9.62439
的做法	-9.62534
200	-9.62552
希	-9.62571
男性	-9.62634
手机	-9.62644
副	-9.62693
未能	-9.62767
刚	-9.62769
建立了	-9.62795
玻璃	-9.62948
体制	-9.62982
师	-9.6307
桥	-9.63213
另外	-9.63259
并非	-9.63264
农村	-9.63301
比如	-9.6334
特定	-9.63579
让我们	-9.63654
病毒	-9.63656
复杂	-9.63668
孔	-9.63676
描述	-9.63768
首次	-9.63771
立	-9.63858
标	-9.6391
依据	-9.63947
配	-9.64004
页	-9.64009
消费	-9.64013
模拟	-9.64038
货	-9.64042
有个	-9.6405
▁本	-9.64058
相对	-9.6406
最好	-9.64105
一只	-9.64153
的小	-9.64182
开发署	-9.64239
次会议	-9.64244
中的应用	-9.64272
或是	-9.64275
听到	-9.64363
的任务	-9.64391
来源	-9.64476
进口	-9.64545
投资者	-9.64663
计	-9.64664
转移	-9.64765
在这	-9.64771
图像	-9.64801
病人	-9.64845
劳动	-9.64945
视	-9.64958
展开	-9.64999
人士	-9.65054
年期间	-9.65069
照	-9.65096
连续	-9.65106
分钟	-9.65187
回到	-9.65211
反映	-9.6523
时代	-9.65247
▁但我	-9.65249
边界	-9.65249
随	-9.65267
贫困	-9.65309
阻止	-9.65438
大型	-9.6546
遭到	-9.65551
的一种	-9.65569
圆	-9.6561
▁12.	-9.65655
啦	-9.65673
香	-9.65691
释放	-9.65806
菜	-9.65871
更为	-9.65883
顶	-9.65897
发布	-9.6598
兹	-9.65981
打开	-9.65986
组合	-9.66009
伯	-9.66011
货物	-9.66088
效率	-9.66128
有限公司	-9.66169
告诉你	-9.66177
1996	-9.66263
让他	-9.66303
给他	-9.66323
附近	-9.66376
▁就	-9.66417
最不发达国家	-9.66455
z	-9.66458
比例	-9.66483
床	-9.66543
怎么样	-9.66783
易	-9.668
外部	-9.66813
的一些	-9.66869
他说	-9.66878
工厂	-9.66894
常常	-9.67002
古巴	-9.6705
梅	-9.67101
次会议上	-9.67131
越来越	-9.67132
一致	-9.67144
随后	-9.67157
元素	-9.67223
的责任	-9.67247
多个	-9.67338
记	-9.67372
怀疑	-9.6738
团队	-9.67448
伊朗	-9.67469
预期	-9.67496
小时	-9.67526
拍	-9.67552
轻	-9.67562
明白	-9.67627
局势	-9.67639
附件	-9.67756
袭击	-9.67759
是为了	-9.67783
决议	-9.67784
试	-9.67811
提供的	-9.67828
的基本	-9.67859
意	-9.68034
投入	-9.68072
太阳	-9.68165
史	-9.68191
讲习班	-9.68191
性的	-9.68234
货币	-9.68249
容易	-9.68332
输入	-9.68338
应用程序	-9.68493
巴基斯坦	-9.68524
异	-9.68536
敦促	-9.68542
现场	-9.68558
现	-9.68625
牛	-9.68648
研究所	-9.68811
推	-9.68822
果	-9.68898
指数	-9.68931
到达	-9.68934
▁这一	-9.68951
实践	-9.68993
游	-9.69025
首	-9.69033
越	-9.69099
旧	-9.69132
体育	-9.69201
年以来	-9.69232
笑	-9.6925
我知道	-9.69261
牌	-9.69267
等等	-9.69277
大部分	-9.69344
岁的	-9.69366
蒂	-9.69386
▁听着	-9.69421
此种	-9.6943
任命	-9.69477
提升	-9.69493
实际上	-9.69505
咨询	-9.69518
混合	-9.69541
成立	-9.69554
国际法	-9.69565
在那里	-9.6959
建立一个	-9.69704
领	-9.69709
乱	-9.69717
吸引	-9.69735
步	-9.69856
某	-9.69895
欧盟	-9.69897
尤其	-9.69937
算	-9.6996
永远	-9.69986
经费	-9.69992
进行的	-9.70022
▁我不知道	-9.70046
合理	-9.70118
▁13.	-9.70174
损害	-9.70197
▁结果	-9.70256
让人	-9.7026
也可以	-9.70362
是因为	-9.70376
—	-9.70453
跟踪	-9.70486
循环	-9.70492
整体	-9.70498
在这方面	-9.70511
明天	-9.70557
的数据	-9.70587
并将	-9.70593
▁什么	-9.70638
▁当我	-9.707
松	-9.71046
变成	-9.71095
雪	-9.71103
配置	-9.71226
上升	-9.7123
镇	-9.7125
2015	-9.71253
33	-9.71395
笔	-9.71396
有限	-9.71437
地震	-9.71482
故事	-9.7154
起诉	-9.71631
突然	-9.71642
印	-9.71684
37	-9.71752
服务器	-9.71779
刺激	-9.71779
夜	-9.71834
弹	-9.71855
还在	-9.71911
界	-9.71913
奖	-9.71969
黎巴嫩	-9.72076
34	-9.7211
1995	-9.72117
的行动	-9.72127
百	-9.72131
周期	-9.7214
结论	-9.72166
本组织	-9.72251
指南	-9.72347
优先	-9.72434
老师	-9.72449
然而	-9.7246
贸发会议	-9.72486
雨	-9.7252
付	-9.72541
必要的	-9.72588
爸爸	-9.7269
贫穷	-9.72702
欧洲联盟	-9.7271
的需求	-9.7272
绝对	-9.72797
证	-9.72855
楼	-9.72867
有什么	-9.72868
集中	-9.72964
客	-9.72972
千年发展目标	-9.73028
修正	-9.73049
用来	-9.73059
范围内	-9.73234
背景	-9.73262
36	-9.73284
固定	-9.73427
大会第	-9.73433
合并	-9.73464
不应	-9.73529
九	-9.73544
分离	-9.73549
治理	-9.73577
运作	-9.73595
完	-9.73702
亿	-9.73726
民	-9.73754
办	-9.73754
接近	-9.73779
命	-9.73783
的措施	-9.73783
有时	-9.73791
▁14.	-9.73817
精	-9.73907
博士	-9.73919
提及	-9.73953
圈	-9.7406
汉	-9.74065
痛	-9.74104
亲	-9.74128
个国家	-9.74162
湖	-9.74251
500	-9.74288
条第	-9.74326
品牌	-9.74328
男女	-9.74381
动态	-9.74408
途径	-9.7443
鸟	-9.7451
主管	-9.74522
纤维	-9.74568
境内	-9.74569
研讨会	-9.74611
中央	-9.74613
快乐	-9.74761
您的	-9.74765
良好	-9.74796
相同	-9.74844
鞋	-9.74847
很大	-9.74918
重建	-9.74942
最佳	-9.74949
意识	-9.74959
函数	-9.75056
真正的	-9.75222
西方	-9.75229
可能是	-9.75263
的代表	-9.75329
翻译	-9.75357
男子	-9.7538
▁它们	-9.75387
传	-9.75443
含量	-9.75472
保	-9.75485
的内容	-9.75517
含	-9.75534
轴	-9.75599
识别	-9.7565
兵	-9.75697
重视	-9.75739
面前	-9.75742
多少	-9.75908
父亲	-9.75924
公平	-9.76024
特别是在	-9.76047
有利于	-9.761
的变化	-9.76113
改	-9.76155
零	-9.76171
逐渐	-9.76196
声称	-9.76232
心理	-9.76254
争取	-9.76266
现实	-9.76301
西班牙	-9.76324
规模	-9.7635
紧	-9.76359
个月	-9.7636
燃料	-9.76381
埃及	-9.76469
道德	-9.76509
衣	-9.76543
▁然后	-9.76553
诊断	-9.7658
营养	-9.76603
发射	-9.76605
很少	-9.76621
车辆	-9.76718
▁我觉得	-9.76786
指控	-9.76855
他在	-9.76958
死了	-9.77011
通过了	-9.77012
母	-9.77045
现金	-9.77172
的支持	-9.77214
索马里	-9.77305
都在	-9.77334
倍	-9.77346
代码	-9.77358
是我	-9.77371
下午	-9.77445
▁呃	-9.7746
中间	-9.77473
并不是	-9.77497
蛋白	-9.77524
紧张	-9.77575
烟	-9.77676
诸如	-9.77724
走了	-9.77754
将于	-9.77826
年代	-9.77836
方便	-9.77878
害怕	-9.77885
共和国	-9.77939
的经济	-9.77974
还要	-9.78034
气候	-9.78047
答复	-9.78082
睡	-9.78184
▁你要	-9.78215
样	-9.78249
观点	-9.7837
修	-9.78389
唱	-9.78423
探索	-9.78494
运	-9.78524
所需的	-9.78525
▁15.	-9.78545
阅读	-9.78641
章	-9.78705
重复	-9.78712
兄弟	-9.78721
多数	-9.78732
威	-9.78749
儿童基金会	-9.78763
可是	-9.78767
或许	-9.78776
得以	-9.78961
麦	-9.78964
▁因为我	-9.79008
照顾	-9.79032
不到	-9.79055
一套	-9.79193
》(	-9.79195
巨大的	-9.79316
软	-9.79355
支	-9.7938
38	-9.79416
俱乐部	-9.79445
自身	-9.7946
造成的	-9.79462
多种	-9.79477
人道主义	-9.79511
是谁	-9.79523
十年	-9.79541
的关键	-9.79541
将继续	-9.7962
症	-9.79655
盐	-9.79717
犯	-9.79725
杯	-9.79766
▁用	-9.79769
侵犯	-9.79815
系列	-9.79852
依照	-9.79908
机场	-9.79945
岩	-9.79973
思考	-9.80047
cn	-9.80135
贡献	-9.8014
十	-9.80204
好像	-9.80208
仪	-9.80283
行使	-9.80305
里面	-9.80326
英	-9.80423
生效	-9.80457
一直在	-9.8049
意识到	-9.80578
带着	-9.80616
1990	-9.80677
推进	-9.80848
整	-9.80881
的项目	-9.80923
合成	-9.80928
胶	-9.8105
还没有	-9.81091
失败	-9.81182
井	-9.81224
校	-9.81296
▁一些	-9.81301
生长	-9.81318
的可能性	-9.81349
工资	-9.81385
去年	-9.81398
归	-9.8143
查明	-9.81457
交换	-9.81491
一旦	-9.81497
复	-9.81535
签署	-9.81549
重要的	-9.8159
箱	-9.81603
真是	-9.81606
不需要	-9.81637
优化	-9.81651
39	-9.81651
投票	-9.81695
你要	-9.81733
实验室	-9.8176
吸收	-9.81782
晚上	-9.81789
取消	-9.81833
过渡	-9.81891
日期	-9.81999
两种	-9.82081
证实	-9.82083
▁自	-9.82116
资助	-9.82136
谢谢	-9.82183
坐在	-9.82217
港	-9.82224
机关	-9.82257
尽	-9.82259
可持续发展	-9.8228
动力	-9.82312
能量	-9.82329
官	-9.82363
婚姻	-9.82389
▁以	-9.82395
即将	-9.82411
青	-9.8243
李	-9.82538
丽	-9.8256
早期	-9.82581
男	-9.82624
正确	-9.82625
儿子	-9.82627
核武器	-9.82639
粮食	-9.82676
自愿	-9.82736
各个	-9.82746
不了	-9.82756
▁除了	-9.82782
协作	-9.82799
核准	-9.8284
因而	-9.82899
福	-9.82921
鉴于	-9.82966
医学	-9.82974
著	-9.82978
苏丹	-9.83045
商定	-9.83049
在一个	-9.83055
作业	-9.83069
代理	-9.83129
伦	-9.83149
▁当你	-9.83161
我在	-9.83196
最好的	-9.83228
破	-9.83292
减	-9.83334
▁16.	-9.83372
致	-9.83385
没有任何	-9.83401
延长	-9.83466
模	-9.83473
评论	-9.83534
文书	-9.83555
领土	-9.83587
驻	-9.83753
痛苦	-9.83761
院	-9.8379
的各种	-9.83812
▁你的	-9.83813
聚	-9.83814
态度	-9.83882
在第	-9.83918
的合作	-9.83937
48	-9.8396
土著人民	-9.84044
发表	-9.84069
包装	-9.84074
有很多	-9.8411
专家组	-9.84173
就能	-9.84176
衣服	-9.84178
全世界	-9.84187
咖啡	-9.84212
▁你想	-9.84215
不想	-9.84215
蓝	-9.84236
参加了	-9.84287
的安全	-9.84287
事故	-9.84314
瑞	-9.84321
锁	-9.84348
推广	-9.84413
第三	-9.84418
存	-9.8442
一级	-9.84474
转让	-9.84503
适合	-9.84518
照片	-9.84553
左右	-9.84559
这位	-9.8456
身上	-9.84612
规定的	-9.84616
毒品	-9.8464
月份	-9.84671
为此	-9.84769
士	-9.8478
住在	-9.84792
专题	-9.84848
单独	-9.84863
房子	-9.84909
活动的	-9.84995
关心	-9.85008
种族	-9.85017
好了	-9.85067
飞行	-9.85122
背	-9.85151
看见	-9.8532
检验	-9.85327
所涉	-9.85368
任择议定书	-9.8537
参考	-9.85446
幸福	-9.85448
齐	-9.85499
就可以	-9.85514
事业	-9.85535
杀	-9.85578
搞	-9.85629
生存	-9.85794
补偿	-9.85849
部长	-9.85915
▁17.	-9.85929
保存	-9.85989
土耳其	-9.8606
那是	-9.86079
铜	-9.86166
300	-9.862
经历	-9.86278
空气	-9.86291
索赔	-9.86326
某种	-9.86334
公布	-9.86375
▁啊	-9.86396
视频	-9.86404
香港	-9.86425
义	-9.86517
细	-9.86528
促使	-9.86545
达成	-9.86555
私营部门	-9.86562
护理	-9.86575
绿色	-9.86576
街	-9.86657
矿	-9.86694
距离	-9.86754
杂志	-9.86759
注册	-9.86764
并对	-9.86833
观	-9.8698
关闭	-9.8701
看来	-9.87029
学会	-9.87049
后果	-9.8709
发生的	-9.87167
麻烦	-9.87188
鲁	-9.87256
这个问题	-9.87289
的基础	-9.87302
针	-9.87311
):	-9.87328
去了	-9.87329
清楚	-9.87339
回答	-9.87406
之下	-9.8751
仅仅	-9.87606
革命	-9.87673
散	-9.87683
?-	-9.87727
依赖	-9.87743
文学	-9.87761
的设计	-9.87773
哪些	-9.87822
生态	-9.87831
佛	-9.87856
丁	-9.87865
苏	-9.87935
刚刚	-9.87946
77	-9.88078
▁18.	-9.88079
展示	-9.88101
尽快	-9.88145
地图	-9.88146
福利	-9.88252
建造	-9.88257
的风险	-9.88279
你知道	-9.88281
定位	-9.88302
玛	-9.88338
开发计划署	-9.88371
帕	-9.88466
▁"	-9.88487
下去	-9.88522
农	-9.88529
罪行	-9.88555
初	-9.88579
人口基金	-9.88603
是不是	-9.88639
掌握	-9.88671
伦敦	-9.88741
公园	-9.88776
考试	-9.88815
所需	-9.88891
硬	-9.88918
▁不是	-9.88988
有所	-9.88993
夫人	-9.89073
曲	-9.89074
荷兰	-9.8924
断	-9.89245
侧	-9.89261
前往	-9.89283
赞扬	-9.89314
工发组织	-9.89348
道路	-9.89435
以为	-9.89495
土壤	-9.89519
削减	-9.89653
蒙	-9.89659
杜	-9.89703
预	-9.89732
第一个	-9.89801
减轻	-9.89826
后来	-9.89827
拘留	-9.89834
逐步	-9.89998
足够	-9.9
的原则	-9.90016
表演	-9.90027
领域的	-9.90061
站在	-9.90133
与会者	-9.90139
加快	-9.90162
▁19.	-9.90224
年轻	-9.90273
现有的	-9.90308
甲	-9.90428
▁你得	-9.90438
做的	-9.90473
采取措施	-9.90507
公司的	-9.90518
图书馆	-9.90537
显然	-9.90558
养	-9.90568
供应商	-9.90604
法案	-9.90612
的一项	-9.90612
在这儿	-9.90706
扩展	-9.90732
引	-9.90806
两次	-9.90853
期望	-9.90868
测定	-9.90898
)、	-9.90949
民众	-9.91015
腿	-9.91038
灵	-9.91095
依	-9.91185
42	-9.91203
使其	-9.91229
猫	-9.9126
成了	-9.91304
上海	-9.91314
替代	-9.91422
登	-9.91492
国际组织	-9.91492
可持续	-9.91502
指示	-9.91558
术	-9.91573
全球化	-9.91581
的具体	-9.91584
不用	-9.91729
孩子们	-9.91885
更好的	-9.91888
良好的	-9.91913
追求	-9.9192
苦	-9.91927
进步	-9.9193
墙	-9.91934
互联网	-9.91934
难民署	-9.91939
成就	-9.91962
把他	-9.91963
翻	-9.92033
截至	-9.92056
▁20.	-9.92087
终于	-9.9209
以外	-9.92117
的声音	-9.92132
并未	-9.92267
名单	-9.92275
斯特	-9.9229
会计	-9.92317
诗	-9.92347
集体	-9.9236
通讯	-9.92367
取决于	-9.92386
足	-9.92407
居	-9.92426
亦	-9.92446
辐射	-9.92467
我也	-9.92584
坏	-9.92591
然	-9.92615
主要是	-9.92708
左	-9.92728
无论	-9.92768
不好	-9.9277
链	-9.92776
否则	-9.92815
等待	-9.92824
叙利亚	-9.92848
周围	-9.92987
秘密	-9.93013
强度	-9.93041
日在	-9.93077
菲	-9.93093
载	-9.931
约翰	-9.93103
鸡	-9.93198
在于	-9.93209
必	-9.93431
▁第	-9.93505
平民	-9.93567
辩论	-9.93614
康	-9.93644
青少年	-9.9368
停	-9.93705
角色	-9.93794
1.	-9.93839
作品	-9.93846
▁鉴于	-9.93856
下的	-9.93895
艾	-9.93917
酶	-9.93942
婴儿	-9.93949
银	-9.93974
深入	-9.94014
总理	-9.94027
希腊	-9.94196
捐款	-9.94204
▁所有	-9.9425
富	-9.9425
法规	-9.94297
▁而且	-9.94298
千	-9.94326
这两个	-9.94342
思	-9.94355
脸	-9.94441
那种	-9.94464
埃	-9.94494
43	-9.94507
宝	-9.94573
机器	-9.94654
苹果	-9.94655
与其他	-9.94702
负	-9.94713
暗	-9.94717
有机会	-9.94731
)(	-9.94777
不得不	-9.94809
单元	-9.94827
手册	-9.94827
节目	-9.94845
发生了	-9.94963
彻底	-9.94996
好吧	-9.95007
称为	-9.95094
0	-9.95138
▁我是说	-9.9541
的政治	-9.95438
投	-9.95495
的承诺	-9.955
呼吸	-9.95512
一道	-9.95514
袋	-9.95531
数额	-9.95567
▁事实上	-9.95581
储存	-9.95644
挺	-9.95652
地区的	-9.95701
▁首先	-9.95702
江	-9.95915
国民	-9.95954
四个	-9.95968
碳	-9.95977
临床	-9.9599
来的	-9.95996
的核心	-9.96115
▁21.	-9.9614
升	-9.96145
充满	-9.96172
农民	-9.96232
巨大	-9.96276
杆	-9.96302
眼睛	-9.96311
监管	-9.96393
里的	-9.96433
官方	-9.9644
磋商	-9.96455
爆炸	-9.96486
耳	-9.96495
来到	-9.96605
搜索	-9.96679
加速	-9.96747
皮肤	-9.96748
马上	-9.96785
▁他在	-9.96852
文本	-9.96858
哪	-9.9687
赋予	-9.96882
速	-9.96989
尾	-9.97012
来看	-9.97049
有机	-9.97073
经理	-9.97074
\	-9.97081
吸	-9.9712
分析了	-9.97128
诉讼	-9.9713
让他们	-9.9714
本报告	-9.97247
优势	-9.97265
其实	-9.97275
关切	-9.97294
55	-9.97379
初步	-9.97466
射	-9.97493
绿	-9.97513
晚	-9.97515
讨论了	-9.97531
他是	-9.97547
q	-9.97549
47	-9.9756
雅	-9.97604
举行了	-9.97668
用途	-9.97725
▁嗨	-9.97739
借	-9.97762
以期	-9.97809
密	-9.97902
可以在	-9.97937
同一	-9.97965
回顾	-9.97981
▁为此	-9.97994
合作伙伴	-9.98044
杰	-9.98067
鬼	-9.98124
把我	-9.98192
滑	-9.98232
情绪	-9.98294
垃圾	-9.9831
阿拉伯	-9.98327
除非	-9.98331
44	-9.98331
回去	-9.9836
展	-9.98368
的妇女	-9.98397
留下	-9.98441
融资	-9.98604
及其他	-9.98604
起草	-9.98611
或其他	-9.98611
一块	-9.98621
突出	-9.98633
沟通	-9.98645
基金会	-9.98718
信托基金	-9.98721
镜	-9.98797
柱	-9.98798
而已	-9.9881
优先事项	-9.98913
安保	-9.99042
雇员	-9.99072
声音	-9.99101
航空	-9.99121
娜	-9.99204
俄罗斯联邦	-9.99218
资格	-9.99226
排放	-9.99227
始终	-9.9928
编辑	-9.99316
毒	-9.99382
嘛	-9.99412
嗯	-9.9944
详细	-9.99462
生成	-9.99511
低于	-9.9952
属性	-9.99647
▁23.	-9.99682
的同时	-9.997
出席	-9.99742
发达国家	-9.9975
女儿	-9.99764
贴	-9.99887
小组委员会	-10.0001
提醒	-10.0004
酷刑	-10.0008
出现了	-10.0008
设	-10.0013
服	-10.0017
人权委员会	-10.0017
虫	-10.0019
▁只是	-10.0032
输出	-10.0033
▁22.	-10.0041
▁如	-10.0041
因为它	-10.0042
尽可能	-10.0043
与其	-10.0044
阀	-10.0046
一件	-10.0048
物品	-10.0054
封	-10.0055
▁你在	-10.0055
今晚	-10.0058
程	-10.0064
土著	-10.0066
具备	-10.0067
出售	-10.0072
彼此	-10.0077
期待	-10.0079
当中	-10.0079
▁不要	-10.0085
召开	-10.0089
考	-10.0089
总体	-10.0093
科威特	-10.0094
警方	-10.0103
塑料	-10.0104
拟	-10.0113
信任	-10.0114
已有	-10.0115
炉	-10.0116
有效地	-10.0119
便利	-10.012
欧	-10.0121
的办法	-10.0123
瑞士	-10.0125
会议上	-10.0134
田	-10.0138
嘴	-10.0154
影	-10.0158
覆盖	-10.0159
年轻人	-10.0167
煤	-10.0167
是指	-10.0168
的费用	-10.0171
宽	-10.0171
国王	-10.0173
救	-10.0173
克服	-10.0174
能力建设	-10.0177
男孩	-10.0178
产生的	-10.0184
余	-10.0187
国家的	-10.0191
显著	-10.0193
净	-10.0197
其他人	-10.0202
更大	-10.0204
复合	-10.0206
付款	-10.0212
提案	-10.0214
小型	-10.0214
的经验	-10.0215
收益	-10.0219
必要	-10.0224
赫	-10.023
候选人	-10.0231
判决	-10.0235
每一个	-10.0239
&	-10.0248
6.	-10.0251
在美国	-10.0255
奥巴马	-10.0256
对待	-10.0256
战斗	-10.0257
两年	-10.0261
绝	-10.0263
地面	-10.0267
制裁	-10.0273
人物	-10.0274
不错	-10.0279
的国际	-10.028
数目	-10.028
会有	-10.0281
.2	-10.0287
增	-10.0288
配合	-10.0291
多边	-10.0294
主任	-10.0297
另一	-10.0297
▁我有	-10.03
工作方案	-10.0303
▁许多	-10.0306
消失	-10.0306
的观点	-10.0313
46	-10.0313
习惯	-10.0316
混	-10.0316
条件下	-10.0319
▁一	-10.032
持	-10.0323
出版	-10.0324
8.	-10.0337
供资	-10.0338
朝鲜	-10.034
决心	-10.0349
经济及社会理事会	-10.0351
愿	-10.0353
采取了	-10.0359
年前	-10.0375
的社会	-10.0375
主张	-10.0377
面积	-10.0381
的儿童	-10.0381
牙	-10.0386
炎	-10.0387
依靠	-10.0388
士兵	-10.0389
夏	-10.0389
检察官	-10.039
阿根廷	-10.0391
咨询委员会	-10.0395
残疾	-10.0402
出了	-10.0405
据	-10.0412
大使	-10.0413
修复	-10.0413
你是	-10.0417
切实	-10.0418
专	-10.042
发现了	-10.0421
▁25.	-10.0423
任何人	-10.0429
挂	-10.0431
7.	-10.0432
开支	-10.0436
抓	-10.0437
休息	-10.0444
句	-10.0445
天气	-10.0446
瑞典	-10.0446
来文	-10.0447
▁他是	-10.0448
穿着	-10.0448
存储	-10.0451
在中国	-10.0452
味	-10.0456
中有	-10.046
匹配	-10.0462
刑法	-10.0464
遇到	-10.0466
▁24.	-10.0478
腐败	-10.0478
调节	-10.0486
▁如果我	-10.0487
提交的	-10.0487
施工	-10.0503
严重的	-10.0503
49	-10.0504
就要	-10.0505
5.	-10.0512
雇主	-10.0515
老板	-10.0515
不够	-10.0516
流行	-10.0521
it	-10.0522
洞	-10.0523
co	-10.0524
有了	-10.0525
进去	-10.0526
进来	-10.0526
拟议	-10.0526
根本	-10.0532
梦	-10.0539
忙	-10.054
终止	-10.0548
」	-10.0554
灰	-10.0556
都要	-10.0558
▁同样	-10.0559
缺陷	-10.0573
所述	-10.0574
▁我也	-10.0577
1994	-10.0578
磁	-10.0582
每一	-10.0587
共享	-10.0592
气体	-10.0594
本文	-10.0601
都没有	-10.0602
藏	-10.0603
产出	-10.0614
u	-10.0615
出生	-10.0615
名称	-10.0615
野	-10.063
职责	-10.0633
双边	-10.0634
菌	-10.0645
舞	-10.0647
颜色	-10.0651
南非	-10.0658
re	-10.0667
歌	-10.0669
合法	-10.0675
韩国	-10.0682
▁可	-10.0682
议程项目	-10.0683
地址	-10.0683
的概念	-10.0697
猪	-10.07
询问	-10.0706
de	-10.071
测	-10.0714
un	-10.0715
谴责	-10.0716
2.	-10.0729
转换	-10.0737
的标准	-10.0738
挪威	-10.0743
▁只有	-10.0743
ac	-10.0743
的各项	-10.0746
辅助	-10.0748
击	-10.0761
短期	-10.0762
人权理事会	-10.0765
乳	-10.0773
▁你能	-10.0778
9.	-10.0779
很快	-10.0781
惩罚	-10.0782
抑制	-10.0783
获得了	-10.0785
共有	-10.0788
本地	-10.0792
在此	-10.0797
电力	-10.0798
对吧	-10.0803
唯一	-10.0804
扎	-10.0805
还将	-10.0808
事实上	-10.0812
判断	-10.0813
五个	-10.0819
问题上	-10.0819
严格	-10.082
上面	-10.082
拟定	-10.0821
尼日利亚	-10.0822
4.	-10.0823
公路	-10.0824
民间社会	-10.0825
名字	-10.0826
的形式	-10.0833
批评	-10.0839
后面	-10.0844
损伤	-10.0848
3.	-10.0849
应在	-10.085
施	-10.0852
磨	-10.0855
异常	-10.0855
粗	-10.0855
教会	-10.0855
退	-10.0859
▁26.	-10.0862
氧	-10.0865
响应	-10.0866
成长	-10.0868
英文	-10.0872
我可以	-10.0879
泰	-10.0879
▁要	-10.0891
外交	-10.0892
它们的	-10.0892
能否	-10.0895
设法	-10.0895
哥伦比亚	-10.0898
此外	-10.0907
目的是	-10.091
执行局	-10.0914
角度	-10.0915
的孩子	-10.0916
▁我们要	-10.0918
证人	-10.0919
这么做	-10.092
强化	-10.0921
仍然是	-10.0927
裁军	-10.0929
湿	-10.0936
降	-10.0941
版本	-10.0942
删除	-10.0952
真实	-10.0953
上了	-10.0953
产生了	-10.0954
的故事	-10.0957
生活在	-10.0961
戴	-10.0962
科学家	-10.0963
的世界	-10.0963
和发展	-10.0964
毫无	-10.0966
▁正如	-10.0968
情报	-10.0968
原理	-10.0968
.4	-10.0968
联络	-10.0971
他人	-10.0972
正是	-10.0972
它是	-10.0974
的大	-10.0981
账户	-10.0982
正如	-10.0984
许可	-10.0986
公正	-10.0987
但我	-10.0988
亲爱的	-10.0988
望	-10.0989
态	-10.0998
类别	-10.0999
一边	-10.1002
构建	-10.1012
接收	-10.1013
经济增长	-10.1015
知	-10.1015
信贷	-10.102
怪	-10.1026
英里	-10.1028
造	-10.1029
在线	-10.1033
国会	-10.1033
域	-10.104
我们可以	-10.1041
电路	-10.1045
从未	-10.1045
取代	-10.1067
阻碍	-10.1068
逻辑	-10.1071
作为一个	-10.1074
原子能机构	-10.1089
▁可是	-10.109
▁即使	-10.1091
观察员	-10.1101
团结	-10.1118
的技术	-10.1122
警告	-10.1124
▁我认为	-10.1125
干预	-10.1127
视为	-10.1129
科特迪瓦	-10.1129
小姐	-10.1131
家里	-10.1135
的目的	-10.1145
球员	-10.1147
印度尼西亚	-10.1153
厅	-10.1155
扩散	-10.1156
一段	-10.1157
格式	-10.1158
为你	-10.1158
数学	-10.1163
蛋	-10.1163
呃	-10.1173
海地	-10.1175
衡量	-10.1178
性和	-10.118
le	-10.1186
层面	-10.1191
透明	-10.1197
报告中	-10.1198
你就	-10.1202
400	-10.1206
财富	-10.1207
的历史	-10.121
如今	-10.1211
不受	-10.1214
的认识	-10.1219
种植	-10.1219
动作	-10.122
妻子	-10.1221
耶	-10.1225
很容易	-10.1227
老年人	-10.1227
要素	-10.1234
免疫	-10.1235
了一些	-10.1236
的一切	-10.1241
壁	-10.1242
文明	-10.1246
发行	-10.1249
吹	-10.1256
顺	-10.1263
物理	-10.1264
丰富	-10.1265
铁路	-10.1267
法治	-10.1272
丈夫	-10.1273
主动	-10.1275
人力资源	-10.1275
乌	-10.1278
曲线	-10.1278
贩运	-10.128
美国人	-10.1281
环境署	-10.1282
宁	-10.1288
的资金	-10.129
抽	-10.1292
氏	-10.1294
世界上	-10.1297
年至	-10.1298
干事	-10.1311
到底	-10.1312
编	-10.1314
补贴	-10.1315
铝	-10.1316
约会	-10.1316
目前的	-10.132
▁快	-10.1325
改造	-10.1325
被视为	-10.1327
流程	-10.1332
想象	-10.1334
意外	-10.1336
采	-10.1341
审计委员会	-10.1341
加上	-10.1356
逮捕	-10.1364
子女	-10.1374
利比里亚	-10.1375
国籍	-10.138
记忆	-10.1383
系数	-10.1386
▁就像	-10.1388
呈	-10.1391
各自	-10.1393
制止	-10.1398
偷	-10.1399
赢得	-10.1404
通道	-10.1404
届	-10.1404
这些国家	-10.1406
上诉	-10.1416
增进	-10.1419
含有	-10.1421
科索沃	-10.1422
中国的	-10.1423
对方	-10.1426
的感觉	-10.1429
构造	-10.1429
产量	-10.1431
为基础	-10.1431
装备	-10.1432
故障	-10.1433
的计划	-10.1436
喷	-10.1437
某个	-10.1437
to	-10.1438
基地	-10.1438
一座	-10.1446
▁27.	-10.1446
捐助者	-10.1446
伙计	-10.1448
右	-10.1448
▁联合国	-10.1448
的看法	-10.1454
的资源	-10.1454
居住	-10.1455
▁28.	-10.1459
一片	-10.1461
过度	-10.1463
把你	-10.1467
你能	-10.147
▁实际上	-10.1473
案文	-10.1473
▁采用	-10.1476
记得	-10.1478
添加	-10.1478
标记	-10.148
总结	-10.1482
融合	-10.1485
工作队	-10.1487
棒	-10.1487
的理由	-10.1488
日和	-10.149
.3	-10.1491
条规定	-10.1493
伊斯兰	-10.1507
摩洛哥	-10.1509
纯	-10.1509
善	-10.151
灾难	-10.1512
导弹	-10.1515
国外	-10.1516
实质性	-10.1517
职	-10.1521
41	-10.1524
刺	-10.153
看着	-10.1531
内的	-10.1533
码	-10.1534
守	-10.1534
露	-10.1539
模糊	-10.1543
不太	-10.1545
股票	-10.1545
营	-10.1548
升级	-10.1551
两国	-10.1553
胡	-10.1564
in	-10.1566
同样的	-10.1568
失业	-10.1568
国际合作	-10.1572
注重	-10.1574
立场	-10.1577
哥	-10.1583
汤	-10.1589
厚	-10.1589
渠道	-10.1591
哭	-10.1592
▁没有	-10.1593
两性平等	-10.1595
带有	-10.1596
用品	-10.1597
成熟	-10.1598
变革	-10.1599
经济发展	-10.1601
劳	-10.1603
将来	-10.1608
组成的	-10.1615
▁您	-10.1615
他们在	-10.1621
燃烧	-10.1627
最初	-10.1628
不管	-10.1628
大规模	-10.1633
信仰	-10.1636
体验	-10.165
取得了	-10.1652
泵	-10.1656
餐厅	-10.166
▁30.	-10.1661
带来了	-10.1665
帮	-10.1666
也在	-10.1666
验证	-10.1672
埃塞俄比亚	-10.1676
报纸	-10.1676
盛	-10.1681
恐怖	-10.1681
是你	-10.1682
持有	-10.1683
偏	-10.1685
屋	-10.1685
获	-10.1686
-1	-10.1688
最新	-10.1689
其他国家	-10.1689
堆	-10.1693
澄清	-10.1695
补	-10.1696
所有人	-10.1697
浅	-10.1697
缺少	-10.1698
的确	-10.1699
会议室	-10.1704
载于	-10.1709
顾客	-10.1713
▁29.	-10.1725
武装冲突	-10.1726
传统的	-10.1726
更好地	-10.1732
工会	-10.174
缅甸	-10.174
后的	-10.1741
梁	-10.1744
这儿	-10.1746
旁	-10.1748
并为	-10.1749
的位置	-10.1751
家人	-10.1753
筹资	-10.1757
的名字	-10.1759
混凝土	-10.1761
北部	-10.1761
互相	-10.1764
▁人们	-10.1766
氧化	-10.1766
▁我的	-10.1773
风格	-10.1782
▁小	-10.1783
负担	-10.1785
的文件	-10.1785
肿瘤	-10.1793
利率	-10.18
传输	-10.1803
的想法	-10.1804
设定	-10.1813
血管	-10.1816
实例	-10.1818
亮	-10.1826
都能	-10.1827
什么时候	-10.1838
▁最近	-10.1843
65	-10.1847
审理	-10.1849
被迫	-10.1852
招	-10.1854
兼	-10.1856
横	-10.1859
.5	-10.186
高速	-10.1862
的学生	-10.1868
追	-10.1872
答案	-10.1872
的义务	-10.1873
危害	-10.1875
胃	-10.1875
核查	-10.1877
的利益	-10.1878
st	-10.188
应付	-10.1886
瓶	-10.1886
静	-10.1887
更大的	-10.1891
-2	-10.1892
特别委员会	-10.1893
打电话	-10.1895
戈	-10.1895
▁新	-10.1901
回应	-10.1902
假设	-10.1904
还没	-10.1912
▁他的	-10.1913
更好	-10.1914
证书	-10.1914
发放	-10.1916
做什么	-10.1918
时刻	-10.1924
1992	-10.1931
▁a	-10.1933
转向	-10.1933
形象	-10.1934
第二次	-10.1941
▁31.	-10.1948
化学品	-10.1954
es	-10.1961
家庭暴力	-10.1962
复杂的	-10.1963
我们要	-10.1965
敏感	-10.1968
准确	-10.1975
而非	-10.198
邦	-10.1981
的成员	-10.1987
肺	-10.1987
防治	-10.1988
三年	-10.1989
简化	-10.1989
首脑会议	-10.1992
慢	-10.1994
纪念	-10.1994
ta	-10.1995
卢旺达	-10.1995
这些问题	-10.2
博物馆	-10.2008
烧	-10.201
放松	-10.2012
助理	-10.2013
分发	-10.2015
后者	-10.2017
▁像	-10.2018
举	-10.202
跨	-10.202
大小	-10.2023
何	-10.2025
利润	-10.2025
凯	-10.2027
就在	-10.2027
现状	-10.2027
下面	-10.2028
受害人	-10.203
模块	-10.203
我们会	-10.203
商店	-10.203
最低	-10.2034
出现在	-10.2035
干扰	-10.2037
人工	-10.2039
设立了	-10.2042
在哪里	-10.2042
交付	-10.2046
署	-10.2048
新西兰	-10.2049
赞赏	-10.2051
准	-10.2052
1991	-10.2059
跟我	-10.206
梦想	-10.2062
移	-10.2062
载有	-10.2067
激光	-10.2068
尚	-10.2069
庆祝	-10.207
解决方案	-10.2074
赞同	-10.2076
弗	-10.2081
发生在	-10.2084
出发	-10.2086
治	-10.2088
相同的	-10.209
恶	-10.209
所作的	-10.2091
队伍	-10.2091
南部	-10.2094
观念	-10.2095
夹	-10.2098
广泛的	-10.2099
着手	-10.2103
众多	-10.2114
旋转	-10.2118
他会	-10.2125
不行	-10.2126
人才	-10.2131
广	-10.2134
ma	-10.2139
▁33.	-10.214
技巧	-10.2142
的数量	-10.2144
一部分	-10.2147
波兰	-10.2149
寄	-10.215
作者	-10.2159
作出了	-10.2162
在这个	-10.2164
虐待	-10.2166
反映了	-10.2171
以及在	-10.2172
欧元	-10.2173
每次	-10.2174
印刷	-10.2183
的价值	-10.2183
小孩	-10.2183
认真	-10.2185
的方案	-10.2195
占领	-10.2198
不应该	-10.2198
房屋	-10.22
乌克兰	-10.2209
泰国	-10.221
征聘	-10.2214
研究了	-10.2217
细节	-10.2218
势	-10.2223
申诉人	-10.2224
刑事	-10.2224
你想	-10.2227
丹	-10.2227
天然	-10.223
凡	-10.2232
各级	-10.2235
的执行情况	-10.2236
常规	-10.2237
1993	-10.2237
而不	-10.225
首都	-10.225
清洁	-10.2252
南方	-10.2256
警	-10.2257
弱	-10.2258
号决议第	-10.2261
信息技术	-10.2261
缓解	-10.2261
插	-10.2264
▁32.	-10.2273
▁因为你	-10.2274
药品	-10.2274
客人	-10.2277
阳光	-10.2279
废物	-10.2283
一支	-10.2284
多次	-10.2284
各类	-10.2287
政党	-10.2287
仿真	-10.2287
想法	-10.2287
驱动	-10.229
找出	-10.2292
教堂	-10.2298
理想	-10.2301
肯尼亚	-10.2303
完美	-10.2304
58	-10.2304
「	-10.2307
看法	-10.2314
续	-10.232
小说	-10.232
分散	-10.2326
乔	-10.2327
开展了	-10.2327
大量的	-10.234
两名	-10.2343
的战略	-10.2356
景	-10.2366
彩	-10.2377
网上	-10.2378
▁利用	-10.238
的朋友	-10.239
联合王国	-10.2393
划	-10.2395
承受	-10.2395
is	-10.2396
完善	-10.2397
债券	-10.2398
自杀	-10.2399
▁我不想	-10.24
莉	-10.2408
丹麦	-10.2409
昨天	-10.2413
的需要	-10.2413
我觉得	-10.2416
认证	-10.2417
使用的	-10.2424
潮	-10.2424
服装	-10.2426
睡觉	-10.2427
机器人	-10.2427
的工作人员	-10.2428
够	-10.243
发送	-10.2432
ra	-10.2434
还可以	-10.2435
ro	-10.2435
霍	-10.2436
1000	-10.2444
高于	-10.2447
业绩	-10.2453
宝贝	-10.2461
红色	-10.2461
礼	-10.2468
太多	-10.2469
基础上	-10.2469
设想	-10.2474
解决办法	-10.2474
武装	-10.2475
▁其中	-10.2476
非洲联盟	-10.2482
练习	-10.2483
智利	-10.2485
每月	-10.2487
户	-10.2489
确立	-10.2489
涵盖	-10.249
台湾	-10.2492
现行	-10.2492
以往	-10.2493
成分	-10.2496
75	-10.2502
领袖	-10.2504
宪章	-10.2515
乘	-10.252
独	-10.252
春	-10.2521
裁决	-10.2528
se	-10.2532
宇宙	-10.2533
抓住	-10.2546
者的	-10.2547
浮	-10.2553
档案	-10.2553
社	-10.2555
尖	-10.2555
囚犯	-10.2556
我们在	-10.2557
的态度	-10.2561
好好	-10.257
但在	-10.257
规律	-10.2571
耐	-10.2581
的讨论	-10.2582
可靠	-10.2584
巩固	-10.2586
佩	-10.2586
活性	-10.2592
频率	-10.2593
这件事	-10.2595
刚果民主共和国	-10.2597
我们将	-10.2597
当你	-10.2601
你们的	-10.2604
功	-10.2607
隆	-10.261
▁再	-10.261
爱尔兰	-10.2611
管道	-10.2612
提名	-10.2613
开关	-10.2614
有一些	-10.262
谢	-10.2621
还会	-10.2626
制定了	-10.2627
有许多	-10.2631
利比亚	-10.2633
妇女在	-10.2633
制品	-10.2634
66	-10.2635
控	-10.2635
▁34.	-10.2637
累	-10.2638
哲学	-10.2643
海关	-10.2643
一周	-10.2647
阳	-10.2648
什	-10.2651
浓度	-10.2652
ka	-10.2652
菲律宾	-10.2652
64	-10.2652
暂时	-10.2658
这种情况	-10.266
卢	-10.2663
过了	-10.2667
恐惧	-10.2668
所有国家	-10.267
灾害	-10.2673
对我	-10.2678
差距	-10.2679
娱乐	-10.2682
硅	-10.2683
克斯	-10.2683
同时也	-10.2685
目	-10.2686
因为他们	-10.2692
的程序	-10.2694
遵循	-10.2695
执法	-10.2695
我能	-10.2696
作家	-10.2698
执行情况	-10.27
▁政府	-10.2705
▁她说	-10.2706
棉	-10.2709
申诉	-10.2711
泡	-10.2712
园	-10.2715
潜在	-10.272
富有	-10.2723
津贴	-10.2726
调动	-10.2728
迷	-10.2731
胸	-10.2734
接口	-10.2737
家族	-10.2741
形态	-10.2742
观众	-10.2743
的价格	-10.2745
地雷	-10.2748
广播	-10.2749
餐	-10.2752
同步	-10.2752
联合会	-10.2753
议员	-10.2755
环保	-10.2757
导	-10.2761
急	-10.2762
传感器	-10.2765
贵	-10.2765
认可	-10.2766
担保	-10.2768
陈	-10.2772
发动机	-10.2773
▁如果我们	-10.2775
提取	-10.2776
图片	-10.2785
恶化	-10.2786
的范围	-10.2793
56	-10.2793
已成为	-10.2793
剧	-10.2795
开车	-10.2798
维修	-10.2799
胜	-10.28
穷人	-10.2804
诉	-10.2805
传递	-10.2805
渴望	-10.2807
▁我去	-10.2809
被告	-10.281
通报	-10.2812
▁有人	-10.2813
康复	-10.2815
本人	-10.2816
想到	-10.2822
冲击	-10.2827
联合国宪章	-10.283
你在	-10.2833
美利坚合众国	-10.2833
头发	-10.2841
53	-10.2841
并确保	-10.2843
轨道	-10.2845
的过程	-10.2849
议题	-10.285
创作	-10.285
大大	-10.2851
大脑	-10.2855
人生	-10.2856
秘书长关于	-10.2857
给我们	-10.2858
54	-10.2863
穆斯林	-10.2863
对策	-10.2868
氯	-10.287
有多	-10.287
标志	-10.2871
空中	-10.2877
潜力	-10.2878
沉	-10.288
公里	-10.288
▁但你	-10.2881
书面	-10.2883
筹备	-10.2885
般	-10.2887
一辆	-10.2887
布隆迪	-10.2887
邮件	-10.289
▁与此同时	-10.2891
na	-10.2896
堂	-10.29
撒	-10.29
美洲	-10.2906
盒	-10.2908
额外	-10.2909
体现	-10.2913
监控	-10.2914
更改	-10.2917
可以通过	-10.2919
巴黎	-10.292
滚	-10.2921
订	-10.2923
谷	-10.2923
奥地利	-10.2925
怕	-10.2925
▁抱歉	-10.2926
装饰	-10.2929
所属行业	-10.2929
▁35.	-10.2934
目录	-10.2935
强奸	-10.2937
查询	-10.2938
并向	-10.2941
戏	-10.2942
五年	-10.2946
某人	-10.2947
海外	-10.2949
我不知道	-10.295
人权高专办	-10.2954
成绩	-10.2957
的唯一	-10.2961
的产品	-10.2965
敌人	-10.2965
电池	-10.297
但他	-10.297
酌情	-10.2972
引导	-10.2973
之间的关系	-10.2978
务	-10.298
整合	-10.2984
对你	-10.2985
不必	-10.2987
粒	-10.299
密度	-10.299
东帝汶	-10.2991
键	-10.2992
转变	-10.2993
尽量	-10.2997
语文	-10.2998
▁我不	-10.3
花费	-10.3003
的目的是	-10.3005
某一	-10.3007
留在	-10.3009
豆	-10.3012
报告说	-10.3019
sa	-10.3023
怀孕	-10.303
谈谈	-10.3031
完成了	-10.3031
的特点	-10.3034
很重要	-10.3037
清除	-10.304
不喜欢	-10.304
_	-10.3045
爆发	-10.3047
以及其他	-10.3049
正义	-10.3049
.1)	-10.3062
室内	-10.3063
格鲁吉亚	-10.3064
让她	-10.3067
穿过	-10.3069
附	-10.307
将是	-10.3073
职务	-10.3077
太空	-10.3079
阐述	-10.3081
下一个	-10.3082
港口	-10.3082
性别平等	-10.3084
细菌	-10.3089
变形	-10.3095
收购	-10.3097
对抗	-10.3098
争议	-10.3099
边境	-10.3105
西部	-10.3105
学术	-10.3109
暂停	-10.3113
跟你	-10.3118
忘记	-10.3121
肌	-10.3122
为何	-10.3123
造成了	-10.3125
离婚	-10.3125
相应的	-10.313
谱	-10.3135
▁我来	-10.3135
边缘	-10.3135
看上去	-10.314
▁还有	-10.3143
随机	-10.315
创	-10.3155
文章	-10.3156
塞拉利昂	-10.3157
久	-10.3167
尺寸	-10.3167
容	-10.3171
发育	-10.3173
救济	-10.3173
的存在	-10.3174
man	-10.3174
扫描	-10.3177
桑	-10.3178
受伤	-10.3183
太平洋	-10.3193
武	-10.3193
薄	-10.3195
▁好了	-10.3196
壳	-10.3197
强迫	-10.3202
面包	-10.3207
超级	-10.3211
出来的	-10.3216
见到	-10.3227
敢	-10.3228
电流	-10.3229
乡	-10.323
密切合作	-10.3232
600	-10.3234
赢	-10.3236
还需要	-10.3237
区别	-10.3239
航	-10.324
和谐	-10.3241
客观	-10.3241
聪明	-10.325
必须在	-10.3252
不稳定	-10.3254
▁36.	-10.3255
人群	-10.3263
池	-10.3265
追踪	-10.3266
59	-10.3269
沃	-10.327
57	-10.3276
68	-10.3277
52	-10.3277
带来的	-10.3279
存在着	-10.3279
我们必须	-10.3283
碎	-10.3283
智能	-10.3287
心脏	-10.3288
的立场	-10.329
▁也许	-10.3291
身边	-10.3292
董事会	-10.3294
折	-10.3294
文档	-10.3296
故	-10.3296
录	-10.3297
标签	-10.3297
遭	-10.3301
罗马	-10.3305
▁一旦	-10.3306
的请求	-10.3306
等方面	-10.331
▁我已经	-10.3311
▁委员会还	-10.3312
日内瓦	-10.3313
嘿	-10.3315
这一问题	-10.3316
的力量	-10.332
移徙	-10.3321
真相	-10.3322
舍	-10.3323
的挑战	-10.3325
大概	-10.3326
有能力	-10.3328
最多	-10.333
总额	-10.333
随时	-10.3334
行动纲领	-10.3337
太太	-10.3339
撞	-10.334
反恐	-10.3342
羊	-10.3342
?”	-10.3343
目前正在	-10.3344
的执行	-10.3344
互动	-10.3348
因为我	-10.335
组织的	-10.3352
滴	-10.3353
这些人	-10.3355
▁37.	-10.3355
默	-10.3358
组件	-10.3359
也将	-10.3365
斜	-10.3366
被认为是	-10.3368
web	-10.3369
框架内	-10.3374
应力	-10.3375
槽	-10.338
脂肪	-10.3381
砂	-10.3382
对他	-10.3392
之处	-10.3397
铺	-10.3401
拖	-10.3404
设立一个	-10.3406
简单的	-10.3407
麻	-10.3407
提前	-10.3408
症状	-10.3415
id	-10.3416
没什么	-10.3418
振动	-10.3418
的危险	-10.3419
安全理事会第	-10.3421
佳	-10.3428
一半	-10.343
冠军	-10.3434
所谓的	-10.3438
实地	-10.3439
和平与安全	-10.344
地下	-10.3441
开展工作	-10.3441
我们就	-10.3444
高兴	-10.3445
品质	-10.3446
教科文组织	-10.3446
耶稣	-10.3448
都不	-10.3448
沿	-10.3448
800	-10.3449
▁日本	-10.3452
表现出	-10.3453
地理	-10.3453
▁我们的	-10.3455
独立的	-10.3457
▁去	-10.3457
▁其他	-10.3465
面向	-10.3467
给她	-10.3468
的案件	-10.3472
球队	-10.3474
胜利	-10.3477
对这些	-10.3481
几天	-10.3487
基准	-10.3488
武装部队	-10.3488
引起的	-10.3489
编码	-10.349
管理局	-10.3491
多年	-10.3493
单一	-10.3494
摆脱	-10.3497
玉米	-10.3497
许可证	-10.3503
的定义	-10.3504
肝	-10.3504
破产	-10.3505
颁布	-10.3512
技术和	-10.3515
类似的	-10.3516
0.	-10.3521
氢	-10.3521
赶	-10.3522
这是一个	-10.3523
帐户	-10.3529
种族歧视	-10.3534
另	-10.3536
抱怨	-10.3537
阿塞拜疆	-10.354
mo	-10.3544
商务	-10.3551
近期	-10.3552
级别	-10.3552
的条件	-10.3552
惯例	-10.3554
最为	-10.3557
运动员	-10.3558
芬兰	-10.3558
志	-10.3561
机构间	-10.3563
礼物	-10.3565
失去了	-10.3569
最高法院	-10.3574
▁目的探讨	-10.3577
出于	-10.3589
no	-10.359
对付	-10.3593
白色	-10.3593
竞选	-10.3595
妮	-10.3602
少数民族	-10.3604
前面	-10.3606
新加坡	-10.3606
泥	-10.3607
en	-10.3609
妨碍	-10.3613
扣	-10.3613
非正式	-10.3616
剑	-10.3619
的应用	-10.3619
置	-10.3621
el	-10.3624
强制	-10.3625
找到了	-10.3627
▁39.	-10.3628
强烈	-10.3628
大鼠	-10.363
自然资源	-10.3633
极为	-10.3634
日期间	-10.3636
▁我能	-10.3637
一定要	-10.3638
显得	-10.3643
注射	-10.3644
推荐	-10.3648
任意	-10.3648
死刑	-10.3649
mi	-10.3653
念	-10.3653
极端	-10.3657
的比例	-10.3658
才会	-10.3661
弹性	-10.3665
癌症	-10.3666
▁我喜欢	-10.3673
▁这样	-10.3673
批	-10.3678
他们会	-10.3683
的实际	-10.3683
密码	-10.3685
退休	-10.3686
略	-10.3686
帮忙	-10.3687
已被	-10.3688
每周	-10.369
区分	-10.3691
回收	-10.3691
全体	-10.3691
主权	-10.3691
吨	-10.3694
也能	-10.3695
的家庭	-10.3697
和第	-10.3705
融入	-10.3707
中东	-10.3708
’	-10.3711
陷入	-10.3719
走向	-10.3723
库存	-10.3728
运营	-10.3729
待遇	-10.3732
滥用	-10.3732
摩	-10.3734
得出	-10.3738
界定	-10.3738
69	-10.3743
因为他	-10.3746
我不	-10.3749
舱	-10.3749
原始	-10.3749
移植	-10.3752
围	-10.3755
那儿	-10.3757
激励	-10.3757
我认为	-10.3763
雇用	-10.3769
理念	-10.3769
非洲国家	-10.3769
▁40.	-10.3772
段中	-10.3776
穆	-10.378
帮我	-10.3781
钟	-10.3781
▁有些	-10.3782
号文件	-10.3784
sr	-10.3786
则是	-10.3788
智慧	-10.3788
的精神	-10.3792
▁三	-10.3792
专业人员	-10.3793
仍在	-10.3796
熟悉	-10.3802
▁38.	-10.3804
▁2008	-10.3807
混乱	-10.3808
的会议	-10.3813
珠	-10.3815
-3	-10.3819
原子	-10.3819
积	-10.3821
处罚	-10.3822
发言人	-10.3827
发起	-10.3829
等级	-10.3832
▁方法	-10.3834
抢	-10.3837
正确的	-10.3841
仲裁	-10.3842
休	-10.3844
爱情	-10.3846
汇报	-10.3846
的环境	-10.3847
67	-10.3848
品种	-10.3848
间的	-10.3849
辛	-10.385
最重要的	-10.3852
哪个	-10.3855
▁国际	-10.3855
政府间	-10.3861
▁你好	-10.3865
减少了	-10.3873
专用	-10.3873
效力	-10.3873
出版物	-10.3878
色彩	-10.388
尼泊尔	-10.3883
船舶	-10.3883
大陆	-10.3891
应该是	-10.3891
▁多	-10.3893
表示关切	-10.3893
di	-10.3896
所示	-10.3899
该项	-10.3902
调解	-10.3903
统治	-10.3903
齿	-10.3903
鼻	-10.3904
繁荣	-10.3904
引渡	-10.3905
▁针对	-10.3906
提高了	-10.3907
种族主义	-10.3909
劳工	-10.3909
的决议草案	-10.391
才是	-10.3911
前景	-10.3913
灵活	-10.3913
氮	-10.3914
罪犯	-10.3917
永久	-10.3921
题	-10.3921
51	-10.3921
税收	-10.3923
酒吧	-10.3927
已在	-10.3928
是如何	-10.3933
失踪	-10.3933
演	-10.3935
友好	-10.3938
监督厅	-10.3938
▁所以我	-10.3938
少数	-10.3938
所列	-10.3939
饭	-10.3945
服务的	-10.3945
相应	-10.3947
老人	-10.3947
com	-10.3957
未来的	-10.3959
外地	-10.3959
捐助	-10.396
擦	-10.3963
约旦	-10.3963
兴趣	-10.3969
仔细	-10.397
一个新的	-10.397
秒	-10.3977
立刻	-10.3977
-4	-10.3978
时候	-10.3981
的个人	-10.3981
形势	-10.3985
文字	-10.3991
众	-10.3991
解除	-10.3992
阿尔	-10.3995
教育和	-10.3997
的地位	-10.3998
da	-10.3999
▁大	-10.4003
缺	-10.4003
和社会	-10.4007
发展的	-10.4008
抗议	-10.4009
实现千年发展目标	-10.4016
所做的	-10.4019
秘鲁	-10.4024
输	-10.4028
傻	-10.4029
宗	-10.4034
是对	-10.4036
me	-10.4039
局部	-10.404
做到	-10.4041
甘	-10.4044
与发展	-10.4045
面临的	-10.4045
执行主任	-10.4047
火车	-10.4053
城镇	-10.4054
▁又	-10.4054
季	-10.4056
液体	-10.4059
提供援助	-10.4059
相似	-10.4061
缘	-10.4061
过于	-10.4062
作物	-10.4066
独特的	-10.4073
▁介绍了	-10.4073
马来西亚	-10.4076
演员	-10.4077
事物	-10.4077
透	-10.4078
举办了	-10.4083
谈论	-10.4084
上涨	-10.4084
复制	-10.4085
变量	-10.4086
▁41.	-10.4094
前进	-10.4098
审议了	-10.4099
摆	-10.4099
▁此	-10.41
种子	-10.4102
电压	-10.4102
可在	-10.4105
效益	-10.4106
临	-10.4107
助	-10.4108
主持	-10.4111
馆	-10.4111
信心	-10.4112
简	-10.4112
不在	-10.4114
帮你	-10.4114
较为	-10.4115
私	-10.4117
修正案	-10.4125
相当于	-10.4127
窗	-10.4128
销	-10.413
和管理	-10.4131
钻石	-10.4132
靠近	-10.4133
推迟	-10.4136
阿拉伯叙利亚共和国	-10.4137
约束	-10.414
收到了	-10.414
▁截至	-10.4141
/2	-10.4143
远程	-10.4143
玉	-10.4144
是一项	-10.4145
被称为	-10.4147
第四	-10.4148
包括在	-10.4158
劳动力	-10.4159
玩具	-10.416
那就是	-10.416
信息和通信技术	-10.4161
许多国家	-10.4165
汇率	-10.4167
高效	-10.417
癌	-10.4174
吊	-10.4181
友	-10.4185
成为一个	-10.4191
那就	-10.4198
的投资	-10.4198
刚果	-10.4198
政权	-10.42
清理	-10.4205
不平等	-10.4206
推出	-10.4207
63	-10.4209
▁b	-10.4211
指令	-10.4215
▁一种	-10.4219
质疑	-10.4219
汞	-10.4224
新闻部	-10.4227
长官	-10.4231
维持和平行动	-10.4236
影响到	-10.4237
黑暗	-10.424
的选择	-10.4244
告	-10.4247
.6	-10.4249
这就是	-10.4251
确定了	-10.4254
一些国家	-10.4255
美丽的	-10.4258
每个人都	-10.4265
的分析	-10.4265
醇	-10.4267
看到了	-10.4268
会在	-10.427
虚拟	-10.427
▁结果表明	-10.4276
隔	-10.428
秀	-10.4281
大楼	-10.4283
还能	-10.4283
专家小组	-10.4284
该公司	-10.4286
一本	-10.4288
稳定性	-10.4289
饮料	-10.429
是我们	-10.4292
推行	-10.4295
年底	-10.4298
平面	-10.4301
也不会	-10.4302
都可以	-10.4302
永	-10.4302
压缩	-10.4304
认定	-10.4304
只会	-10.4305
项目厅	-10.4305
秩序	-10.4306
我已经	-10.4307
对不起	-10.4308
拍摄	-10.4309
在我	-10.4313
合金	-10.4313
杂	-10.4315
工程师	-10.4316
浪费	-10.4318
并与	-10.4318
的质量	-10.4319
父	-10.4319
▁我不是	-10.4321
兴奋	-10.4321
阿尔及利亚	-10.4324
垫	-10.4325
企图	-10.433
通用	-10.4331
▁今年	-10.4333
的速度	-10.4334
着重	-10.4335
▁妈妈	-10.4335
物种	-10.4337
十二	-10.434
肯	-10.4342
剪	-10.4343
时尚	-10.4344
逃	-10.4348
争端	-10.4351
好处	-10.4354
该区域	-10.4354
我喜欢	-10.4356
牺牲	-10.4361
的人数	-10.4361
该地区	-10.4361
万人	-10.4363
宫	-10.4365
黄金	-10.4365
▁今晚	-10.4366
▁43.	-10.4367
尤其是在	-10.4367
拯救	-10.4372
发展中国家的	-10.4373
同事	-10.4374
欲	-10.4376
分为	-10.4379
兴	-10.4383
;;	-10.4383
家具	-10.4384
一部	-10.4386
扬	-10.4387
得多	-10.4394
▁42.	-10.4394
的贡献	-10.4397
缓慢	-10.4398
la	-10.4401
比利时	-10.4401
架构	-10.4402
干什么	-10.4407
机理	-10.441
规定了	-10.441
柬埔寨	-10.441
期限	-10.4417
狂	-10.4419
感情	-10.4421
案例	-10.4421
不知	-10.4427
尿	-10.443
参	-10.4431
▁我就	-10.4433
材	-10.4435
讲话	-10.4435
对比	-10.4436
流量	-10.4438
的相关	-10.444
ne	-10.4446
成功的	-10.4448
你自己	-10.4449
我都	-10.4455
的过程中	-10.4456
实时	-10.4457
极其	-10.446
表格	-10.4461
下跌	-10.4466
这场	-10.4467
住宅	-10.4468
啤酒	-10.4469
▁你可以	-10.4469
是从	-10.4475
厄立特里亚	-10.4477
鉴定	-10.4478
大众	-10.4479
页面	-10.448
快点	-10.4481
很可能	-10.4483
节省	-10.4495
摘要	-10.4495
建筑物	-10.4497
排除	-10.4501
三种	-10.4502
▁等等	-10.4505
脆弱	-10.4506
每个人	-10.4506
护	-10.4507
斗争	-10.4509
尤	-10.4509
的区域	-10.4509
备	-10.4512
中学	-10.4523
150	-10.4523
恐怖分子	-10.4524
女童	-10.4524
选项	-10.4527
当事人	-10.4528
结束了	-10.4528
华盛顿	-10.4533
未经	-10.4536
足球	-10.4536
现代化	-10.454
学者	-10.4542
消耗	-10.4543
关联	-10.4544
鼓	-10.4545
一组	-10.4547
唐	-10.4548
近年来	-10.4548
桩	-10.455
的状况	-10.4552
观测	-10.4554
世界银行	-10.4554
家长	-10.4557
技术援助	-10.4559
差不多	-10.4565
的最佳	-10.4566
附近的	-10.4567
▁2006	-10.4567
购	-10.457
漂亮	-10.4577
那时	-10.4579
汇编	-10.4584
但它	-10.4588
利益攸关方	-10.4588
先前	-10.4589
和平进程	-10.4592
一群	-10.4592
存在的	-10.4595
▁我把	-10.4596
冒险	-10.4596
er	-10.46
免	-10.4601
非常重要	-10.4605
场所	-10.4609
黑色	-10.4613
成功地	-10.4615
末	-10.462
说道	-10.4621
的部分	-10.4625
记住	-10.4627
乐观	-10.463
交给	-10.463
驱逐	-10.4631
害	-10.4633
并通过	-10.4634
否认	-10.4637
这方面的	-10.4638
人体	-10.4639
任期	-10.4639
伟大的	-10.4639
分开	-10.464
裁谈会	-10.4641
积极参与	-10.4645
蛋白质	-10.4647
仪器	-10.4649
核裁军	-10.4655
新型	-10.4659
电子邮件	-10.4659
▁或许	-10.466
反射	-10.4661
也要	-10.4662
淡	-10.4665
因子	-10.4665
马里	-10.4667
的不同	-10.4669
重组	-10.4675
心里	-10.4675
电信	-10.4677
肌肉	-10.4681
脂	-10.4683
美国的	-10.4685
ti	-10.469
引入	-10.4692
▁45.	-10.4693
乌干达	-10.4695
贾	-10.4696
呆	-10.47
的威胁	-10.4702
告诉他	-10.4703
薪	-10.4706
狼	-10.471
开心	-10.4712
渔业	-10.4714
的成果	-10.4715
的钱	-10.4715
该项目	-10.4717
没错	-10.4718
政	-10.4719
指责	-10.472
生态系统	-10.472
显	-10.4723
去做	-10.4723
层次	-10.4725
os	-10.4729
叫做	-10.4731
建设和平	-10.4734
拜	-10.4737
ba	-10.4745
▁按照	-10.4745
险	-10.4747
葡萄牙	-10.4753
越来越多的	-10.4753
经济和社会	-10.4753
她说	-10.4757
继续努力	-10.4762
扩张	-10.4766
谋杀	-10.4766
基督教	-10.477
早上	-10.477
法定	-10.4774
▁当时	-10.4775
个别	-10.4777
绑架	-10.4779
裂	-10.4779
弯	-10.4779
bo	-10.4784
窗口	-10.4786
做好	-10.4786
北方	-10.4787
不扩散条约	-10.4788
高级别	-10.4789
没有什么	-10.4791
上午	-10.4792
喜	-10.4792
在联合国	-10.4792
部件	-10.4794
当代	-10.4795
▁英国	-10.4796
活力	-10.4797
术语	-10.4798
ed	-10.4798
海上	-10.4803
要么	-10.4807
失望	-10.4808
▁我知道你	-10.4812
回归	-10.4812
的未来	-10.4818
不愿	-10.482
证券	-10.482
支撑	-10.4827
▁我们会	-10.4829
咬	-10.483
的公司	-10.4834
视觉	-10.4834
一步	-10.4834
频	-10.4839
10%	-10.4843
见过	-10.4843
监视	-10.4844
邻国	-10.4846
离子	-10.4848
为其	-10.4849
▁你觉得	-10.4851
艺术家	-10.4854
生气	-10.4854
一段时间	-10.4859
将军	-10.486
丰富的	-10.486
民主党	-10.486
批准了	-10.486
仪式	-10.4864
熊	-10.4867
销毁	-10.4867
的证据	-10.4867
发展和	-10.4881
密封	-10.4881
委	-10.4882
具体的	-10.4886
ga	-10.4887
外国人	-10.4888
颗粒	-10.489
租	-10.4892
隐	-10.4895
▁去年	-10.4897
脉冲	-10.4897
这事	-10.4898
是吗	-10.4899
迫使	-10.4901
消	-10.4903
线性	-10.4904
限	-10.4904
外面	-10.4906
浆	-10.4906
会谈	-10.4909
▁44.	-10.4916
疫苗	-10.4917
披露	-10.4919
的成功	-10.492
以促进	-10.4922
水果	-10.4923
谷歌	-10.4931
特别代表	-10.4933
热情	-10.4934
囊	-10.4936
矛盾	-10.4936
石头	-10.4937
告诉我们	-10.4937
之时	-10.4937
花园	-10.4938
一体化	-10.4939
do	-10.4941
高中	-10.4942
rev	-10.4946
指挥	-10.495
事先	-10.495
下载	-10.4952
吃饭	-10.4955
的女人	-10.4956
变动	-10.4958
应用于	-10.4958
顺利	-10.4962
生意	-10.4962
强调了	-10.4963
▁他还	-10.4963
隔离	-10.4964
脱离	-10.4965
产品的	-10.4967
管理和	-10.4968
拿到	-10.497
拖延	-10.4974
▁你知道吗	-10.4975
斑	-10.4981
泽	-10.4986
实现了	-10.4987
生活的	-10.4989
告知	-10.499
问题是	-10.499
lo	-10.4992
第五	-10.4993
自然灾害	-10.4994
与联合国	-10.4996
在纽约	-10.4999
遭遇	-10.5
把她	-10.5002
距	-10.5003
偿还	-10.5009
在执行	-10.5012
专利	-10.5017
经济体	-10.5017
我只是	-10.5018
之内	-10.5019
见面	-10.5019
开展的	-10.5022
患	-10.5022
的现象	-10.5027
使他们	-10.5029
si	-10.503
农场	-10.5032
62	-10.5034
裁军谈判会议	-10.5036
湾	-10.5038
提供服务	-10.5038
中国人	-10.5041
▁我没	-10.5041
促请	-10.5041
房地产	-10.5043
英雄	-10.5043
引发	-10.5044
不愿意	-10.5051
乡村	-10.5052
购物	-10.5055
▁你应该	-10.5056
弹药	-10.5058
就此	-10.5059
到处	-10.5067
回报	-10.5068
熟	-10.5072
那边	-10.5074
村庄	-10.5076
退出	-10.5077
▁2009	-10.5077
▁我国	-10.508
误差	-10.5081
延迟	-10.5084
的人们	-10.5085
达尔富尔	-10.5089
茨	-10.5091
as	-10.5093
▁2007	-10.5095
能在	-10.5097
奶	-10.5099
劳工组织	-10.5099
接受了	-10.5103
杀人	-10.5103
塞浦路斯	-10.5103
方程	-10.5104
纠正	-10.5106
唯一的	-10.5108
最近的	-10.511
ct	-10.511
▁46.	-10.511
写作	-10.5113
罐	-10.5114
在所有	-10.5118
‘	-10.5119
我们都	-10.5122
的那样	-10.5124
原因是	-10.5126
了他	-10.5129
毒品和犯罪问题办公室	-10.513
政策和	-10.5131
主席团	-10.5142
提供支助	-10.5143
.7	-10.5144
肠	-10.5147
蛇	-10.515
女子	-10.5157
幸运	-10.5161
橡胶	-10.5163
沿着	-10.5163
讨论会	-10.5169
营销	-10.517
个体	-10.5173
整理	-10.5178
丧失	-10.5183
99	-10.5183
可用	-10.5184
继承	-10.5186
on	-10.5186
▁我不能	-10.5186
说过	-10.5187
的儿子	-10.5191
他就	-10.5196
牛奶	-10.5196
疯狂	-10.5198
延	-10.5198
毕业	-10.5202
赞成	-10.5205
帽	-10.5205
火箭	-10.5206
▁47.	-10.5207
几个月	-10.5207
的组织	-10.5208
是以	-10.5211
没人	-10.5211
的效果	-10.5215
咱们	-10.5216
▁或者	-10.522
委员会成员	-10.5221
口头	-10.5222
驾驶	-10.5224
孟加拉国	-10.5225
钙	-10.5225
第二个	-10.5225
杀了	-10.5226
足以	-10.5227
冬	-10.5228
国际贸易	-10.5228
搭	-10.523
这一切	-10.5233
较高	-10.5235
的男人	-10.5238
▁每	-10.5239
的趋势	-10.5242
委员会注意到	-10.5246
的人员	-10.5251
》、《	-10.5252
在国家一级	-10.5254
客房	-10.5259
xml	-10.526
海岸	-10.5262
在他	-10.5263
炸弹	-10.5265
超越	-10.5265
耶和华	-10.5266
的角度	-10.5266
-5	-10.5267
ms	-10.5267
查看	-10.5268
开采	-10.5269
在哪	-10.5269
电源	-10.5269
天堂	-10.5274
该组织	-10.5283
涂	-10.5285
▁不管	-10.5288
误	-10.5292
吻	-10.5292
交叉	-10.5293
准备好	-10.5294
必然	-10.5295
基本上	-10.5298
项目的	-10.5301
早餐	-10.5302
隐藏	-10.5302
法令	-10.5304
读者	-10.5308
峰	-10.5308
危地马拉	-10.5313
*	-10.5315
的意义	-10.5315
婚	-10.5316
探	-10.5317
买了	-10.5318
我没有	-10.5321
很有	-10.5322
陈述	-10.5323
寒	-10.5323
反馈	-10.533
小心	-10.533
合适的	-10.5335
满意	-10.5335
的结构	-10.5337
迄今	-10.5337
苯	-10.5339
泡沫	-10.5343
所在	-10.5345
至今	-10.5345
旅馆	-10.5346
缩小	-10.5346
相反	-10.5346
的参与	-10.5352
腹	-10.5352
竞争力	-10.5354
枝	-10.5354
部落	-10.5356
小学	-10.5356
作战	-10.5357
保密	-10.5359
筒	-10.536
例外	-10.5361
遗传	-10.5361
路径	-10.5362
阐述了	-10.5362
去找	-10.5367
▁49.	-10.5368
列出	-10.5369
白俄罗斯	-10.537
想知道	-10.5371
76	-10.5372
教练	-10.5375
的照片	-10.5377
我没	-10.5381
该委员会	-10.5381
等问题	-10.5382
阴	-10.5382
的样子	-10.5393
1%	-10.5396
舒适	-10.5397
豁免	-10.5397
要去	-10.5398
月至	-10.5403
斯里兰卡	-10.5407
完整	-10.5409
炮	-10.541
▁后来	-10.5413
爆	-10.5415
组成部分	-10.5419
金钱	-10.542
的表现	-10.542
派对	-10.5424
▁很好	-10.5426
节点	-10.5427
各位	-10.543
干燥	-10.5432
锡	-10.5435
得不到	-10.5436
钻	-10.5436
和技术	-10.5438
巨	-10.544
论文	-10.5441
的管理	-10.5448
巴勒斯坦人	-10.5449
游客	-10.545
接到	-10.5453
vi	-10.5453
调用	-10.5455
呼	-10.546
不论	-10.5463
机构的	-10.5466
be	-10.5466
文献	-10.5468
控制系统	-10.5472
裁定	-10.5473
填	-10.5473
设有	-10.5474
应急	-10.5478
呈现	-10.548
听着	-10.548
鼠	-10.5482
息	-10.5493
▁我们在	-10.5496
缩	-10.5496
的最	-10.5497
违反了	-10.5499
负债	-10.5506
有时候	-10.5511
明星	-10.5518
黑人	-10.5521
链接	-10.5523
大的	-10.5525
无关	-10.5527
试着	-10.5528
灵魂	-10.5534
优惠	-10.5536
一颗	-10.5536
的日子	-10.5536
给出了	-10.5542
宣称	-10.5545
更高	-10.5545
强大的	-10.5545
手中	-10.5546
据称	-10.5547
涉及到	-10.5548
是由于	-10.5548
芯	-10.5548
感受	-10.555
粮农组织	-10.5551
波动	-10.5558
地质	-10.5559
汇	-10.5559
远离	-10.556
甜	-10.5562
取得进展	-10.5562
不存在	-10.5567
▁48.	-10.5567
很高	-10.5567
饼	-10.557
注	-10.557
不是吗	-10.5572
两人	-10.5572
砖	-10.5575
参与者	-10.5576
列表	-10.5577
睡眠	-10.5581
刻	-10.5583
在那儿	-10.5585
腰	-10.5585
是不	-10.5586
的因素	-10.5588
在你	-10.559
晶	-10.5591
辩护	-10.5593
给他们	-10.5596
足够的	-10.5597
混蛋	-10.5597
演出	-10.5599
周末	-10.5601
谨慎	-10.5603
我现在	-10.5608
的消息	-10.5611
光学	-10.5615
监禁	-10.5616
深度	-10.5617
对手	-10.562
该国政府	-10.562
水泥	-10.562
轻松	-10.562
的使用	-10.5624
有没有	-10.5625
框	-10.5626
85	-10.5627
▁这项	-10.5627
▁我刚	-10.5627
司机	-10.5629
▁我们认为	-10.5631
烤	-10.5633
的反应	-10.5635
办公	-10.5636
堡	-10.5639
▁这位	-10.5644
碱	-10.5646
▁那些	-10.5646
巧克力	-10.5647
缝	-10.5647
围绕	-10.5649
加剧	-10.5652
全面的	-10.5653
持久	-10.5653
fi	-10.5655
透露	-10.5658
杀死	-10.5659
竹	-10.5662
被捕	-10.5663
ic	-10.5669
处置	-10.5673
我自己	-10.5673
阵	-10.5673
伊朗伊斯兰共和国	-10.5677
小岛屿发展中国家	-10.5677
海军	-10.5682
中文	-10.5682
▁你不能	-10.5684
自信	-10.5684
引用	-10.5685
和解	-10.5685
厨房	-10.5687
共识	-10.569
▁2010	-10.5691
旁边	-10.5692
突尼斯	-10.5692
干嘛	-10.5693
代替	-10.5694
符号	-10.5694
副主席	-10.5696
的机构	-10.5698
焊接	-10.5701
禁	-10.5701
形状	-10.5702
研究人员	-10.5703
制备	-10.5703
却是	-10.5709
的全球	-10.571
魔	-10.571
会员	-10.5711
维持和平	-10.5711
和加强	-10.5715
98	-10.5717
技术合作	-10.5717
忘了	-10.5718
▁使用	-10.572
广场	-10.572
所载	-10.5723
分裂	-10.5723
78	-10.5729
尽力	-10.573
的培训	-10.5734
▁你看	-10.5735
不符合	-10.5738
▁如今	-10.5741
和非	-10.5745
当我	-10.5753
▁51.	-10.5755
大家都	-10.5755
碰	-10.5756
大力	-10.5759
爱你	-10.5765
直至	-10.5766
▁第二	-10.5771
优质	-10.5772
韦	-10.5773
东部	-10.5773
近东救济工程处	-10.5774
受到了	-10.5775
警官	-10.5775
情感	-10.5784
解放	-10.5786
合理的	-10.5787
和执行	-10.5787
影片	-10.5788
饮食	-10.5792
改为	-10.5793
欠	-10.5794
谈话	-10.5794
物体	-10.5797
考察	-10.5798
更容易	-10.5802
收费	-10.5803
仁	-10.5804
成人	-10.5809
讨厌	-10.5809
▁若	-10.5811
▁她的	-10.5811
72	-10.5812
▁2005	-10.5817
肾	-10.5818
的进展	-10.5819
的指控	-10.582
有害	-10.5822
▁你说	-10.5823
▁大会	-10.5824
妇女的	-10.5824
审查了	-10.5828
制造商	-10.583
生物多样性	-10.5831
ing	-10.5832
虎	-10.5832
住了	-10.5832
次区域	-10.5835
不良	-10.5835
卡车	-10.5836
ja	-10.5838
79	-10.5839
除其他外	-10.5841
一会儿	-10.5843
原料	-10.5845
征	-10.5845
欣赏	-10.5845
根据第	-10.5846
一把	-10.5848
抵达	-10.5848
集成	-10.5849
奇怪	-10.5851
大韩民国	-10.5851
的保护	-10.5857
的调查	-10.5859
铅	-10.5859
50%	-10.586
思维	-10.5862
作出的	-10.5867
▁我没有	-10.5868
▁主席	-10.5871
祈祷	-10.5872
漏	-10.5872
伴	-10.5875
pc	-10.5878
付出	-10.5881
族裔	-10.5882
物资	-10.5885
已经在	-10.5886
700	-10.5886
积极的	-10.5887
74	-10.5889
但却	-10.5889
幼	-10.5891
历史上	-10.5894
饥饿	-10.5895
过的	-10.5896
啥	-10.5896
怀	-10.5898
提交给	-10.5899
日常	-10.5905
怎么了	-10.5906
乔治	-10.5907
暗示	-10.5908
一定会	-10.5909
腔	-10.5909
序列	-10.591
使我们	-10.5913
己	-10.5918
儿童权利	-10.5919
自治	-10.5921
日的	-10.5923
历	-10.5928
安全和	-10.5933
稍	-10.5935
的必要性	-10.5941
此次	-10.5944
奥运会	-10.5946
该方案	-10.5946
流离失所	-10.5948
忽视	-10.5949
争论	-10.595
做过	-10.595
桌	-10.5951
很高兴	-10.5954
医	-10.5955
▁阿	-10.5958
的地区	-10.5958
宠物	-10.5961
越南	-10.5963
行事	-10.5964
晚餐	-10.5965
许多人	-10.5965
探讨了	-10.5968
拨款	-10.5968
管理人员	-10.597
密切	-10.597
▁它还	-10.597
工作计划	-10.5971
以及对	-10.5973
入侵	-10.5973
找不到	-10.5974
差别	-10.5975
设计的	-10.5979
祖	-10.598
跳舞	-10.598
的程度	-10.5982
莎	-10.5984
比率	-10.5986
招聘	-10.5987
强大	-10.5992
疼痛	-10.5992
的生命	-10.5994
的压力	-10.6
天使	-10.6001
机遇	-10.6006
帐	-10.6007
在哪儿	-10.6008
亚美尼亚	-10.6009
吃了	-10.6009
参照	-10.6014
▁无论	-10.6014
提示	-10.6014
急性	-10.6015
方针	-10.6023
对吗	-10.6023
现已	-10.6023
不像	-10.6024
引擎	-10.6028
的事实	-10.603
开了	-10.6032
瑟	-10.6042
给出	-10.6045
li	-10.6047
▁那么	-10.6048
cp	-10.6051
替	-10.6057
岩石	-10.6059
一类	-10.6061
订正	-10.6062
路线	-10.6063
评	-10.6066
这么说	-10.6069
于是	-10.6071
斗	-10.6071
营地	-10.6075
的增长	-10.6078
▁每个	-10.609
股东	-10.609
提交了	-10.6091
签	-10.6091
俄	-10.6092
也就是	-10.6092
确信	-10.6093
95	-10.6099
所谓	-10.61
▁双	-10.61
20%	-10.6103
环境中	-10.6104
无线电	-10.6107
基督	-10.6108
效	-10.611
道歉	-10.6113
磷	-10.6117
▁这里	-10.612
开枪	-10.6123
东道国	-10.6123
很好的	-10.6127
疗法	-10.6128
年来	-10.6129
克罗地亚	-10.6129
怎么办	-10.613
的许多	-10.6131
org	-10.6133
由此	-10.6137
人道主义援助	-10.6138
提供支持	-10.6139
护士	-10.6139
奖励	-10.614
是通过	-10.6141
积累	-10.6142
蔬菜	-10.6143
慢慢	-10.6144
协调员	-10.6147
我不会	-10.6148
从来没有	-10.6154
之所以	-10.6157
发明	-10.6163
有两个	-10.6163
固	-10.6164
审	-10.6164
▁在我	-10.6167
病例	-10.6173
不少	-10.6178
安静	-10.6178
较低	-10.6179
88	-10.6182
年初	-10.6182
和其它	-10.6182
封锁	-10.6183
▁50.	-10.6184
虚	-10.6186
捐助方	-10.6189
说服	-10.6191
▁有时	-10.6192
▁我们还	-10.6193
ip	-10.6193
附加	-10.6193
一直是	-10.6195
天然气	-10.6196
携带	-10.6198
自动化	-10.62
少数群体	-10.6201
明年	-10.6203
体重	-10.6204
公务员	-10.6207
那天	-10.6208
雷达	-10.6208
接着	-10.6211
的身份	-10.6213
上学	-10.6215
社会发展	-10.6215
臂	-10.6217
委员会的	-10.6218
而且还	-10.6219
次级方案	-10.6221
▁52.	-10.6221
用作	-10.6222
的最大	-10.6223
120	-10.6225
厄瓜多尔	-10.6225
支援	-10.6226
坦	-10.6227
原来	-10.6231
大学生	-10.6232
管辖权	-10.6238
秋	-10.624
一贯	-10.6242
吐	-10.6242
是否有	-10.6242
主流	-10.6245
是吧	-10.6246
布什	-10.6247
踢	-10.6248
我有	-10.6248
爬	-10.6249
剂量	-10.6252
87	-10.6253
填补	-10.6257
可见	-10.626
谈到	-10.6261
us	-10.6261
了我	-10.6263
自行车	-10.6266
请秘书长	-10.6269
朱	-10.6271
沟	-10.6273
树脂	-10.6275
签名	-10.6278
设在	-10.6279
坚定	-10.6284
敌	-10.6287
不满	-10.6287
动机	-10.6288
+	-10.6289
席	-10.6289
宾	-10.6291
行驶	-10.6292
我不能	-10.6292
号码	-10.6294
金融危机	-10.6304
的业务	-10.6306
因特网	-10.6307
倡导	-10.6317
il	-10.6317
的预算	-10.6318
▁我说	-10.6319
触	-10.632
一台	-10.632
例子	-10.6321
son	-10.6323
当选	-10.6323
概述	-10.6324
雄	-10.6325
经历了	-10.6326
照料	-10.633
名为	-10.6335
焊	-10.6337
吁请	-10.6338
区的	-10.634
▁当我们	-10.6344
the	-10.6349
履行其	-10.635
敬	-10.6356
会导致	-10.6357
公寓	-10.6357
61	-10.6359
▁对不起	-10.6364
的服务	-10.6364
参观	-10.6365
说明了	-10.6366
▁53.	-10.6367
杨	-10.637
闻	-10.637
定于	-10.6372
▁我只是	-10.6376
后续	-10.6376
化合物	-10.6377
瘤	-10.6377
美丽	-10.6378
提供资金	-10.6378
朗	-10.638
常见	-10.6381
社会保障	-10.6394
样品	-10.6396
柜	-10.6399
生育	-10.6402
选民	-10.6405
委员会在	-10.6405
巡逻	-10.6407
dna	-10.641
血液	-10.6411
所需要的	-10.6418
仅仅是	-10.6421
打破	-10.6421
最佳做法	-10.6421
纹	-10.6423
任职	-10.6428
震	-10.6428
的限制	-10.6429
自主	-10.643
了很多	-10.643
美好	-10.6431
▁公司	-10.6433
秘书长的报告	-10.6435
响	-10.6436
估计数	-10.6439
聚会	-10.6445
的性质	-10.6446
剥削	-10.6447
广大	-10.6451
当作	-10.6451
提请	-10.6452
就必须	-10.6453
冷却	-10.6454
的某些	-10.6455
如同	-10.6455
老鼠	-10.6456
的人口	-10.6459
暴力行为	-10.646
的人权	-10.6462
无线	-10.6465
管辖	-10.6465
我们需要	-10.6466
加强了	-10.6468
自从	-10.6468
89	-10.6473
把他们	-10.6481
摇	-10.6483
复苏	-10.6483
财务报表	-10.6484
▁这次	-10.6485
▁但是我	-10.6486
舞蹈	-10.6486
这样一个	-10.6489
系统中	-10.6495
的立法	-10.6497
民事	-10.6498
侵略	-10.6498
的权力	-10.6498
此项	-10.6499
侧重于	-10.65
年间	-10.6505
补救	-10.6506
游泳	-10.651
恨	-10.6514
签证	-10.652
置于	-10.6521
儿童权利公约	-10.6524
主体	-10.6524
姑娘	-10.6526
apos	-10.6529
采取的	-10.653
金融机构	-10.653
▁一位	-10.6531
pe	-10.6531
稿	-10.6535
播	-10.6535
还应	-10.6537
夏天	-10.6541
委员	-10.6543
的说法	-10.6544
转递	-10.6544
索赔人	-10.6544
粮食安全	-10.6547
的长期	-10.6547
杰克	-10.6548
真空	-10.6548
举办的	-10.6549
投诉	-10.655
没有人	-10.655
明确的	-10.655
似的	-10.6551
金额	-10.6553
的文化	-10.6553
结束后	-10.6554
和联合国	-10.6555
学科	-10.6555
天空	-10.6561
灭	-10.6565
似	-10.6566
方案的	-10.6566
几年	-10.6572
采用了	-10.6575
委托	-10.6576
收到的	-10.658
争	-10.6584
互	-10.6586
知识产权	-10.6586
突破	-10.6587
信用	-10.6588
器官	-10.6592
▁希望	-10.6594
翼	-10.6595
ch	-10.6596
都没	-10.6597
婚礼	-10.66
渣	-10.6602
900	-10.6602
透明度	-10.6603
动力学	-10.6603
杀害	-10.6605
平静	-10.6605
凭	-10.6609
73	-10.661
说他	-10.6611
▁至于	-10.6614
演讲	-10.6615
股市	-10.6618
虽	-10.6621
闪	-10.6623
的结论	-10.6625
墨	-10.6626
wi	-10.6629
安哥拉	-10.663
术后	-10.663
的答复	-10.6633
长度	-10.6633
or	-10.6637
粘	-10.6638
储蓄	-10.6641
进攻	-10.6645
止	-10.6646
承	-10.6647
将要	-10.6651
肥	-10.6651
资	-10.6653
防护	-10.6654
不仅仅是	-10.6656
ha	-10.6659
的条款	-10.6659
中的作用	-10.6661
▁2011	-10.6662
外交部	-10.6664
(1)	-10.6665
有用	-10.6668
这么多	-10.6672
一生	-10.6672
也不能	-10.6674
妇女和儿童	-10.6677
烂	-10.668
领取	-10.6682
–	-10.6686
撤销	-10.6686
国家安全	-10.6687
是最	-10.6689
使他	-10.669
汁	-10.669
圣经	-10.6692
▁54.	-10.6693
▁但他	-10.6695
东方	-10.6698
类型的	-10.6699
或者是	-10.6701
少年	-10.6701
4%	-10.6701
离开了	-10.6702
上班	-10.6703
5%	-10.6704
丢	-10.6706
插入	-10.6707
高等教育	-10.6708
展览	-10.6709
一词	-10.671
维尔	-10.671
人权问题	-10.6718
摄影	-10.672
作出决定	-10.672
性别问题	-10.6721
老年	-10.6722
残	-10.6723
拔	-10.6727
木材	-10.6728
六个	-10.6733
精度	-10.6735
样本	-10.6736
蛋糕	-10.6738
图形	-10.6742
蒙古	-10.6746
没收	-10.6748
酯	-10.675
别的	-10.6752
今	-10.6757
分歧	-10.676
不允许	-10.6763
刚才	-10.6764
经常预算	-10.6767
研发	-10.6768
普及	-10.6768
96	-10.6768
一架	-10.6769
▁55.	-10.677
噢	-10.6772
错了	-10.6775
变成了	-10.6776
40%	-10.678
臭	-10.6781
▁怎么	-10.6783
te	-10.6784
84	-10.6787
报酬	-10.6788
我得	-10.6788
月底	-10.6788
瓜	-10.6789
该报告	-10.679
纳米	-10.6793
多样化	-10.6797
改变了	-10.6797
额外的	-10.6799
▁就在	-10.6799
塞尔维亚	-10.68
秘书	-10.68
其余	-10.6802
年轻的	-10.6804
几种	-10.6807
一切都	-10.6809
国家机构	-10.6809
移交	-10.6813
97	-10.6814
有义务	-10.6815
清洗	-10.6816
职等	-10.6817
感兴趣	-10.682
蓝色	-10.6822
后续行动	-10.6824
法律规定	-10.6825
崩溃	-10.6827
惊	-10.6828
噪声	-10.6828
和你	-10.683
洋	-10.6832
控制器	-10.6833
居住在	-10.6834
观看	-10.6834
特色	-10.6835
首席	-10.6835
休闲	-10.6837
储备	-10.6837
大气	-10.6838
绕	-10.6841
甚	-10.6842
焦	-10.6848
三维	-10.6848
探测	-10.6848
加纳	-10.685
能够在	-10.685
粒子	-10.685
▁你还	-10.6851
的手段	-10.6851
紧密	-10.6853
面临着	-10.6856
胺	-10.6856
一笔	-10.6858
5000	-10.6859
干涉	-10.686
强调指出	-10.6861
紧迫	-10.6862
检	-10.6863
关税	-10.6863
多久	-10.6864
英格兰	-10.6865
办理	-10.6865
中断	-10.6866
六个月	-10.6869
败	-10.6871
哪里	-10.6873
订立	-10.6874
波斯尼亚和黑塞哥维那	-10.6879
条草案	-10.688
的一个重要	-10.6881
漆	-10.6881
顺序	-10.689
均衡	-10.6891
示范	-10.6891
大学的	-10.6892
线路	-10.6893
信通技术	-10.6896
即可	-10.6896
市场的	-10.6898
我去	-10.69
论述	-10.6903
行星	-10.6905
很多人	-10.6906
生理	-10.6908
动员	-10.6908
▁56.	-10.6908
电缆	-10.6911
惠	-10.6914
国内外	-10.6915
抱	-10.6915
第六	-10.6917
窗户	-10.6918
中期	-10.6919
跟他	-10.6919
为基础的	-10.6922
所得	-10.6922
栏	-10.6923
向你	-10.6924
每天都	-10.6925
体内	-10.6934
▁拜托	-10.6935
维也纳	-10.6936
支柱	-10.6937
提供了一个	-10.694
的工具	-10.6942
预定	-10.6943
了吧	-10.6943
缔约方大会	-10.6944
行政当局	-10.6945
已经开始	-10.6945
情形	-10.6946
下次	-10.6947
▁你就	-10.6948
疟疾	-10.6949
对该	-10.6951
四年	-10.6953
是要	-10.6953
损坏	-10.6954
战略计划	-10.6956
也没	-10.6957
第三方	-10.6959
负责人	-10.6959
派遣	-10.6963
以加强	-10.6968
问责	-10.6969
为主	-10.6969
不利	-10.697
的目标是	-10.6971
再见	-10.6974
政府的	-10.6975
裤	-10.6976
你应该	-10.6977
国际会议	-10.698
▁相反	-10.698
漂亮的	-10.6983
功率	-10.6985
犬	-10.6988
沙漠	-10.6988
cd	-10.6989
委员会主席	-10.6995
管理系统	-10.6995
的联系	-10.6996
优	-10.6997
生活中	-10.6997
尸体	-10.7
计量	-10.7003
主要的	-10.7003
部位	-10.7008
很大的	-10.7008
以此	-10.7008
没事	-10.701
诱导	-10.7012
的提议	-10.7014
偶	-10.7017
标准化	-10.7021
▁所以你	-10.7023
我不想	-10.7026
的衣服	-10.7027
扔	-10.7027
束	-10.7028
琴	-10.7028
我来	-10.7028
高校	-10.7029
发动	-10.7035
实用	-10.7038
提出建议	-10.704
女生	-10.7041
so	-10.7042
匈牙利	-10.7046
ri	-10.7047
也可	-10.7052
施加	-10.7053
的传统	-10.7054
不安	-10.7056
还包括	-10.706
每日	-10.7061
拆	-10.7062
不敢	-10.7063
容器	-10.7066
吸烟	-10.7068
陶瓷	-10.7069
潜在的	-10.7072
操	-10.7073
ca	-10.7075
将为	-10.7078
慢性	-10.7082
和支持	-10.7085
该决议	-10.7088
都被	-10.709
短缺	-10.709
多么	-10.7092
马克	-10.7093
将成为	-10.7093
▁其实	-10.7093
反复	-10.7094
终	-10.7097
巴勒斯坦人民	-10.7097
世界各地	-10.7097
的进程	-10.7098
界面	-10.7098
和他	-10.7099
拉丁美洲	-10.71
无需	-10.7101
紫	-10.7101
良	-10.7101
的心	-10.7102
辆	-10.7103
开会	-10.7104
存款	-10.7105
▁我会	-10.7106
各会员国	-10.7112
行为的	-10.7113
清晰	-10.7114
ii	-10.7115
染	-10.7117
柔	-10.7119
的知识	-10.7127
瘦	-10.7128
各代表团	-10.7128
尼亚	-10.7128
▁大多数	-10.7135
am	-10.7137
乘客	-10.7137
▁2004	-10.7139
保安	-10.714
的角色	-10.7144
的机制	-10.7147
无效	-10.7148
80%	-10.7148
权利的	-10.7151
独立专家	-10.7156
王国	-10.7156
直升机	-10.716
二十	-10.716
2008-2009	-10.7163
不幸	-10.7166
挤	-10.7167
剥夺	-10.717
儿童的	-10.7174
▁接下来	-10.7177
▁高	-10.7184
的谈判	-10.7185
就不会	-10.7186
和一个	-10.7187
按钮	-10.7187
它在	-10.7195
加沙	-10.7195
韩	-10.7196
全体会议	-10.7197
故意	-10.7198
www	-10.7199
做出了	-10.7201
在整个	-10.7202
go	-10.7204
会使	-10.7205
玛丽	-10.7205
协同	-10.7209
的思想	-10.721
雾	-10.7211
国际公约	-10.7214
▁那个	-10.7214
授予	-10.7216
的例子	-10.7218
也不是	-10.7219
此事	-10.722
糟糕	-10.722
废	-10.7221
活着	-10.7221
可靠的	-10.7226
英尺	-10.7227
等着	-10.7228
官方发展援助	-10.7229
▁在这个	-10.723
分析和	-10.7235
进行分析	-10.7236
▁于是	-10.7241
全球经济	-10.7243
正当	-10.7243
所需资源	-10.7243
地说	-10.7244
斯坦	-10.7244
太阳能	-10.7244
是我的	-10.7246
的最新	-10.7246
挖	-10.7246
的全部	-10.725
▁57.	-10.7253
寿命	-10.7253
静脉	-10.7258
如果我	-10.7264
花了	-10.7266
挑选	-10.7267
认	-10.7268
动脉	-10.7272
的全面	-10.7272
性暴力	-10.7273
葡萄酒	-10.7274
渗透	-10.7274
饰	-10.7275
水资源	-10.7276
浸	-10.7277
会上	-10.728
的实施	-10.728
播放	-10.7281
和我	-10.7286
沙特阿拉伯	-10.7286
地方政府	-10.7288
对我们	-10.7294
先进	-10.7296
走进	-10.7299
阐明	-10.7306
绩效	-10.7308
岛屿	-10.7309
将由	-10.7309
认知	-10.7313
su	-10.7314
的主题	-10.7314
形成了	-10.7314
提出的建议	-10.7315
何种	-10.732
容忍	-10.732
割	-10.7321
在我们	-10.7321
的职责	-10.7322
创业	-10.7323
般的	-10.7324
印发	-10.7327
▁只要	-10.7328
不仅是	-10.7329
干净	-10.7329
不如	-10.733
的健康	-10.7331
at	-10.7332
使人	-10.7332
南南合作	-10.7333
拿着	-10.7335
去看	-10.7337
节约	-10.7337
优秀	-10.7338
可用于	-10.7339
篇	-10.7339
物流	-10.734
结果表明	-10.7341
你也	-10.7342
微笑	-10.7345
得很	-10.7347
骑	-10.735
运送	-10.7352
卫	-10.7353
犹太人	-10.7354
多样性	-10.7355
刷	-10.7356
糖尿病	-10.7359
决策者	-10.7365
▁由	-10.7366
垂直	-10.7367
更多地	-10.7367
86	-10.7368
标题	-10.7369
迈	-10.7369
愤怒	-10.7369
通常是	-10.7369
会被	-10.7369
脉	-10.737
三次	-10.7373
冻结	-10.7376
财	-10.7377
▁非	-10.738
在过去	-10.7381
00	-10.7381
▁除	-10.7387
主办	-10.7391
▁58.	-10.7391
嘉	-10.7392
▁喂	-10.7393
鲜	-10.7402
的总	-10.7403
同性恋	-10.7403
赖	-10.7404
是中国	-10.7404
救援	-10.7404
▁她们	-10.7405
诚实	-10.7406
活跃	-10.7406
仓库	-10.7408
集合	-10.7411
一间	-10.7412
背后	-10.7413
▁你不	-10.7413
▁考虑到	-10.7415
工作地点	-10.7416
之际	-10.7416
反映出	-10.7419
强有力的	-10.7422
幅	-10.7423
这份	-10.7424
之上	-10.7424
配偶	-10.7427
减贫	-10.7429
景观	-10.743
寻	-10.7436
债	-10.7437
时间表	-10.7437
出现的	-10.7439
有趣的	-10.7441
加热	-10.7443
在全球	-10.7444
的受害者	-10.7444
庭	-10.7446
十分重要	-10.7449
已经成为	-10.745
人们对	-10.7452
▁2003	-10.7453
目标是	-10.746
两位	-10.7462
▁第三	-10.7463
部门的	-10.7463
冻	-10.7463
社会主义	-10.7464
国家办事处	-10.747
民间	-10.7473
/59/	-10.7474
促成	-10.7475
为例	-10.7478
一人	-10.748
▁另一方面	-10.748
网站上	-10.7481
▁全	-10.7482
字母	-10.7482
订单	-10.7483
夫妇	-10.7484
是根据	-10.7485
间接	-10.7487
影响的	-10.749
an	-10.7494
抱歉	-10.7496
有责任	-10.7496
捐助国	-10.7496
送到	-10.7496
提交报告	-10.7497
ar	-10.7497
摩擦	-10.7498
工作中	-10.7498
习俗	-10.7501
航空公司	-10.7502
在他的	-10.7505
无论是	-10.7506
坡	-10.7507
▁安理会	-10.7509
市长	-10.7511
把它们	-10.7511
旅游业	-10.7511
最小	-10.7512
分解	-10.7515
桶	-10.7518
一个国家	-10.7518
他对	-10.7519
▁别担心	-10.7519
以支持	-10.7521
迁移	-10.7521
汗	-10.7521
养恤金	-10.7522
更有	-10.7522
选手	-10.7523
增加到	-10.7528
在国家	-10.7528
世贸组织	-10.7528
哈萨克斯坦	-10.7531
合适	-10.7531
神秘	-10.7534
进化	-10.7534
攻	-10.7537
培训和	-10.7537
弥补	-10.7537
艰难	-10.7537
皇家	-10.7541
的城市	-10.7541
都将	-10.7542
用以	-10.7544
氟	-10.7545
就有	-10.7545
绝大多数	-10.7548
and	-10.7549
的共同	-10.7551
枚	-10.7551
的事件	-10.7551
提供关于	-10.7553
冒	-10.7554
透过	-10.7554
懂	-10.7555
干旱	-10.7556
卡尔	-10.7558
起了	-10.7559
所以我	-10.7559
起到	-10.756
不大	-10.7563
亲自	-10.7564
为期	-10.7565
th	-10.7568
以便在	-10.7568
陆	-10.7568
的决议	-10.757
布朗	-10.7572
▁自从	-10.7577
更换	-10.7581
私营	-10.7581
一件事	-10.7582
!”	-10.7589
一国	-10.7589
的歧视	-10.759
卖淫	-10.7594
不该	-10.7594
▁如果他	-10.7595
根本不	-10.7595
筛选	-10.7595
一个月	-10.7596
所产生的	-10.7597
免受	-10.7598
民兵	-10.7601
典型的	-10.7603
委会	-10.7604
社会经济	-10.7606
侵害	-10.7606
谢谢你	-10.7606
国际人道主义法	-10.7606
内存	-10.7607
独特	-10.761
▁这就是	-10.761
的收入	-10.7611
岸	-10.7612
汽油	-10.7616
的两个	-10.7618
账	-10.7622
喂	-10.7623
较大	-10.7624
▁经过	-10.7625
项下	-10.7625
看过	-10.7626
完了	-10.7629
30%	-10.7631
明显的	-10.7632
高压	-10.7637
危险的	-10.7639
告诉她	-10.764
的援助	-10.764
提供一个	-10.7643
联合国机构	-10.7645
为我们	-10.7646
召集	-10.7648
废除	-10.765
了许多	-10.7651
死亡率	-10.7651
高温	-10.7652
还指出	-10.7654
本来	-10.7655
pa	-10.7656
提起	-10.7658
▁59.	-10.7659
年后	-10.766
麦克	-10.766
川	-10.7667
有些人	-10.7667
两项	-10.7667
划分	-10.7668
政府官员	-10.7669
已经被	-10.7671
自行	-10.7671
保罗	-10.7671
结束时	-10.7672
幕	-10.7672
我很	-10.7673
可行	-10.7674
仍是	-10.7674
▁文章	-10.7678
设立的	-10.768
放下	-10.7684
完美的	-10.7687
旋	-10.7691
接待	-10.7692
所规定的	-10.7695
进了	-10.7697
把自己	-10.7697
两者	-10.7698
公共部门	-10.7699
屏幕	-10.77
锻炼	-10.7701
将有助于	-10.7701
频繁	-10.7702
罗马尼亚	-10.7702
的最后	-10.7704
是很	-10.7707
法律和	-10.7707
古代	-10.7709
的书	-10.7711
款项	-10.7712
模板	-10.7713
摸	-10.7713
在那	-10.7715
ni	-10.7717
:"	-10.7717
进行调查	-10.7718
报复	-10.772
国际法院	-10.7722
掉了	-10.7725
紧急情况	-10.7726
大规模毁灭性武器	-10.7726
决	-10.7728
芯片	-10.773
使之	-10.7731
发表了	-10.7735
阻	-10.7736
▁本报告	-10.7736
上周	-10.7736
奈	-10.7737
它将	-10.7739
▁印度	-10.7739
召开的	-10.7739
愉快	-10.774
钉	-10.7742
拨	-10.7742
有趣	-10.7742
回来了	-10.7743
肩	-10.7745
mp	-10.7745
荣誉	-10.7745
纪律	-10.7746
83	-10.7747
签署了	-10.775
发言者	-10.7751
维持和平行动部	-10.7752
显示出	-10.7754
轴承	-10.7756
有多少	-10.7756
像个	-10.7758
锌	-10.7762
大卫	-10.7765
za	-10.7766
得知	-10.7768
就业机会	-10.7769
注入	-10.7769
表示欢迎	-10.7772
散发	-10.7776
我还	-10.7777
的改革	-10.7783
lu	-10.7783
滤	-10.7783
▁我们需要	-10.7788
方案和	-10.7788
季节	-10.7789
加州	-10.779
操纵	-10.7796
关节	-10.7798
倾向	-10.7798
ci	-10.7799
94	-10.78
双重	-10.78
餐馆	-10.7801
电子商务	-10.7802
将被	-10.7806
和协调	-10.7807
矩阵	-10.7808
传送	-10.7809
卡塔尔	-10.7809
学家	-10.781
▁60.	-10.7812
的总体	-10.782
的食物	-10.782
帝国	-10.782
大幅	-10.7823
衰退	-10.7825
经济学家	-10.7825
坑	-10.7827
胎	-10.7828
受益	-10.7829
书籍	-10.7831
是非常	-10.7832
另有	-10.7832
前后	-10.7834
假期	-10.7835
序	-10.7838
采访	-10.784
这方面	-10.7843
难民营	-10.7844
无人	-10.7845
血清	-10.7848
无疑	-10.7851
规约	-10.7855
埋	-10.7857
上市	-10.7863
的有效	-10.7866
可持续性	-10.7867
缩短	-10.7867
猛	-10.7867
都必须	-10.7873
男女平等	-10.7874
长大	-10.7876
▁无	-10.7879
浪漫	-10.7879
的非	-10.7879
引进	-10.7879
两天	-10.7882
解除武装	-10.7885
激	-10.7886
庇护	-10.7887
美国政府	-10.7891
惹	-10.7894
随便	-10.7894
硬件	-10.7898
ge	-10.7898
筹备委员会	-10.7898
催化剂	-10.7899
创造了	-10.7899
▁会议	-10.7899
1980	-10.7903
谨	-10.7903
案件中	-10.7904
遗产	-10.7907
和国际	-10.7907
毫不	-10.7907
溶	-10.7908
哥斯达黎加	-10.7909
许	-10.7912
的审议	-10.7915
外交部长	-10.7915
刑	-10.7915
一些人	-10.792
放到	-10.7921
▁我希望	-10.7921
的关注	-10.7921
标准的	-10.7924
引起了	-10.7925
显示了	-10.7926
来吧	-10.7927
跟着	-10.793
▁孩子们	-10.7934
函	-10.7934
午餐	-10.7934
网页	-10.7937
这条	-10.7938
有一种	-10.7939
在该	-10.794
成年人	-10.7941
进一步加强	-10.7943
种类	-10.7944
年度报告	-10.7946
这项工作	-10.7951
但是我	-10.7952
人民币	-10.7953
实施的	-10.7953
耗	-10.7954
▁61.	-10.7955
这点	-10.7957
上次	-10.7957
难题	-10.7957
答应	-10.7958
可供	-10.7959
芬	-10.7959
非线性	-10.796
度过	-10.796
泛	-10.7962
要点	-10.7964
工程处	-10.7965
不妨	-10.7965
恋	-10.7971
丰	-10.7973
挑	-10.7976
去吧	-10.7976
过分	-10.7978
洪水	-10.7979
包容性	-10.798
负荷	-10.798
酷	-10.7982
新鲜	-10.7983
伴侣	-10.7986
的那个	-10.7986
▁在这	-10.7988
的意思	-10.7988
空调	-10.7989
业务活动	-10.799
饭店	-10.7993
号决议中	-10.7993
真理	-10.7993
也门	-10.7999
说了	-10.8
是啊	-10.8006
螺旋	-10.8007
被人	-10.8011
都很	-10.8014
心灵	-10.8015
的教育	-10.8015
我说	-10.8015
此前	-10.8017
ter	-10.802
轨	-10.8021
▁这是一个	-10.8021
后勤	-10.8024
配备	-10.8024
感觉到	-10.8027
资源的	-10.8027
受理	-10.8029
译	-10.8031
解决问题	-10.8037
另一种	-10.8038
wa	-10.8041
应由	-10.8042
菜单	-10.8043
纪	-10.8043
脏	-10.8048
▁我需要	-10.805
浪	-10.8053
▁快点	-10.8054
迫切需要	-10.8055
同等	-10.8055
就这样	-10.8059
彼得	-10.8059
逼	-10.8061
为止	-10.8063
创伤	-10.8065
以使	-10.8065
因为它们	-10.807
子弹	-10.807
..	-10.8071
信息系统	-10.8073
继	-10.8074
我们应该	-10.8079
总干事	-10.808
听见	-10.8081
乐队	-10.8081
作为一种	-10.8082
所有人都	-10.8082
规章	-10.8082
的自由	-10.8084
经济学	-10.8084
海盗	-10.8085
偏见	-10.8086
2006-2007	-10.8088
▁以色列	-10.8089
环境下	-10.8089
强制性	-10.809
对所有	-10.809
词汇	-10.809
节日	-10.8094
诸多	-10.8104
共和党	-10.8105
酒精	-10.8106
问题特别报告员	-10.8109
录像	-10.8111
变更	-10.8115
报表	-10.8116
▁很多	-10.812
暴	-10.812
钠	-10.8123
ko	-10.8124
总数	-10.8124
这不是	-10.8124
几次	-10.8127
街道	-10.8128
死去	-10.8128
激发	-10.8129
何时	-10.813
运转	-10.8131
租赁	-10.814
搬	-10.8142
估算	-10.8143
82	-10.8144
走到	-10.8144
的女性	-10.8145
刮	-10.8147
人居署	-10.8147
聚集	-10.8147
再生	-10.8148
的水平	-10.815
抵抗	-10.8153
机构和	-10.8154
涨	-10.8156
十五	-10.8157
▁上帝	-10.8157
条款草案	-10.8158
公式	-10.8159
奔	-10.8161
创意	-10.8161
因为你	-10.817
地域	-10.8172
过滤	-10.8172
宝宝	-10.8174
阁下	-10.8175
述	-10.8175
为我	-10.8178
日子	-10.8178
对他们	-10.818
最新的	-10.8185
原本	-10.8188
71	-10.8188
形式的	-10.819
智	-10.819
有利	-10.8192
2010-2011	-10.8192
著名的	-10.8195
▁c	-10.8196
的有关	-10.8199
较少	-10.8201
一方	-10.8204
共计	-10.8207
(2)	-10.8207
为自己	-10.8209
中非共和国	-10.8211
管理层	-10.8212
▁[	-10.8212
中国政府	-10.8213
沉积	-10.8213
典型	-10.8214
你有	-10.8214
和促进	-10.8215
钥匙	-10.8216
苏格兰	-10.8219
夏季	-10.8225
收取	-10.8228
▁有时候	-10.8229
▁你认为	-10.823
来自于	-10.8231
高达	-10.8232
条约机构	-10.8232
得了	-10.8233
究竟	-10.8234
像是	-10.8237
说什么	-10.8242
▁第一	-10.8243
多了	-10.8244
来这里	-10.8245
微软	-10.8245
防御	-10.8251
的爱	-10.8252
的平均	-10.8253
修建	-10.8256
覆	-10.8257
季度	-10.8258
外国直接投资	-10.8258
尘	-10.8259
▁秘书长	-10.8261
而在	-10.8261
问你	-10.8261
昨晚	-10.8262
命运	-10.8263
可能需要	-10.8264
▁我想我	-10.8266
所说的	-10.8271
欺骗	-10.8272
上去	-10.8274
分析师	-10.8275
超声	-10.8275
权威	-10.8277
生计	-10.8278
激动	-10.8278
小子	-10.8279
北约	-10.8279
结构的	-10.828
只有在	-10.8286
培训方案	-10.8286
的土地	-10.8288
提出报告	-10.8288
国际标准	-10.8289
▁注意	-10.8292
的房子	-10.8293
人员的	-10.83
小麦	-10.8301
过去的	-10.8302
但我们	-10.8303
只需	-10.8305
并鼓励	-10.8307
共同努力	-10.8309
发挥作用	-10.831
▁我以为	-10.8312
暖	-10.8317
塞内加尔	-10.8317
特殊的	-10.8318
超出	-10.8319
通过的	-10.8319
实力	-10.8323
▁经	-10.8323
组织和	-10.8324
第五委员会	-10.8325
校园	-10.8326
预先	-10.8329
使我	-10.8329
我将	-10.8332
有益	-10.8333
不清楚	-10.8334
是一位	-10.8336
救助	-10.8337
勘探	-10.8337
焦虑	-10.8337
将使	-10.8338
弃	-10.8339
你必须	-10.8339
有用的	-10.8342
和安全	-10.8343
价值观	-10.8346
行李	-10.8346
当前的	-10.835
膨胀	-10.835
是他	-10.8352
给了	-10.8352
增大	-10.8353
倾向于	-10.8354
河流	-10.8356
委内瑞拉	-10.8357
▁62.	-10.8359
高层	-10.8361
第三次	-10.8362
三个月	-10.8363
罗斯	-10.8364
穷	-10.8365
押	-10.8368
xe	-10.8368
等领域	-10.8369
早就	-10.8374
▁你现在	-10.8375
之类的	-10.8377
▁我们可以	-10.8377
将对	-10.8377
美元的	-10.8379
妇女权利	-10.8379
加大	-10.8379
玫瑰	-10.8379
幻想	-10.838
组建	-10.8381
▁比如	-10.8385
护照	-10.8385
又是	-10.8386
乙	-10.8386
光纤	-10.8391
范	-10.8398
闭	-10.8399
写的	-10.8401
实在	-10.8405
修理	-10.8406
认同	-10.8407
指称	-10.8408
扮演	-10.8411
▁63.	-10.8412
削弱	-10.8412
单方面	-10.8413
这将	-10.8415
作出贡献	-10.8416
在本	-10.8416
竟然	-10.8417
交谈	-10.8418
欺诈	-10.8419
之一是	-10.8423
以上的	-10.8423
纪录	-10.8423
振	-10.8425
▁世界	-10.8427
的规则	-10.8427
能力和	-10.8428
拼	-10.8428
判	-10.843
场合	-10.8433
叫我	-10.8433
达到了	-10.8433
各自的	-10.8434
▁北京	-10.8435
转型	-10.8436
完整的	-10.8436
柯	-10.8436
时光	-10.8437
内阁	-10.8438
你需要	-10.844
屁股	-10.8441
下了	-10.8443
部队派遣国	-10.8446
一杯	-10.8446
心中	-10.8447
五十	-10.8449
妇女署	-10.845
未成年人	-10.8451
▁明天	-10.8452
特别会议	-10.8453
你得	-10.8456
阿尔巴尼亚	-10.8457
制造业	-10.8458
对妇女	-10.846
尺	-10.846
博客	-10.8462
回复	-10.8464
成为了	-10.8465
他妈的	-10.8465
仍有	-10.8472
你说	-10.8474
报告员	-10.8475
▁2002	-10.8475
利亚	-10.8477
规划和	-10.8478
sha	-10.8482
查阅	-10.8484
的第一个	-10.8487
罩	-10.8487
高级专员	-10.849
▁我很	-10.849
课题	-10.8492
可怕的	-10.8492
人格	-10.8493
定居点	-10.8494
在同一	-10.8496
葡萄	-10.8496
迟	-10.8497
余额	-10.8498
英寸	-10.8498
奇迹	-10.8498
更高的	-10.8503
不去	-10.8504
安置	-10.8506
冠	-10.8507
届会议	-10.8507
化的	-10.8508
▁那是	-10.8511
了他的	-10.8514
籍	-10.8515
朝鲜民主主义人民共和国	-10.8518
食用	-10.852
/60/	-10.8521
浓	-10.8523
使用了	-10.8524
孤独	-10.8525
有意	-10.8526
为什么要	-10.8529
隧道	-10.8531
司法部	-10.8534
凉	-10.8535
逆	-10.8535
▁昨天	-10.8536
苗	-10.8536
几内亚	-10.8538
加入了	-10.8541
同情	-10.8542
教训	-10.8546
看了	-10.8547
宜	-10.8547
一句	-10.8552
几何	-10.8553
这意味着	-10.8554
群岛	-10.8554
核实	-10.8555
规	-10.8555
借鉴	-10.8556
环节	-10.8558
▁表	-10.8559
商人	-10.856
圣诞节	-10.8564
▁2012	-10.8568
当地的	-10.857
戏剧	-10.857
民间社会组织	-10.857
热带	-10.8574
大西洋	-10.8575
培训班	-10.8576
1989	-10.8576
▁我相信	-10.8576
统计数据	-10.8578
并于	-10.858
编写的	-10.8581
零件	-10.8581
提供给	-10.8582
主义者	-10.8582
收回	-10.8583
举行会议	-10.8585
便于	-10.8587
致使	-10.8592
诸	-10.8593
不一样	-10.8593
这对	-10.8593
电台	-10.8596
女朋友	-10.8597
表示关注	-10.8597
文件中	-10.8598
稳定的	-10.8599
偶尔	-10.86
3000	-10.8602
▁主要	-10.8602
硫	-10.8603
敏	-10.8605
临时议程	-10.8605
个小时	-10.8607
一声	-10.8607
约有	-10.8609
光谱	-10.8609
阶层	-10.8613
监察	-10.8614
以提高	-10.8614
激素	-10.8614
坚决	-10.8615
有关国家	-10.8616
悲伤	-10.8627
的途径	-10.8628
脸上	-10.863
区域内	-10.8631
魔法	-10.8631
和保护	-10.8632
▁另一个	-10.8638
打印	-10.8642
电机	-10.8645
职员	-10.8645
的那些	-10.8645
▁我叫	-10.8646
为他	-10.8646
构	-10.8646
堕胎	-10.8646
京都议定书	-10.8647
假定	-10.8648
齿轮	-10.8649
▁还	-10.8652
所面临的	-10.8653
消灭	-10.8653
飘	-10.8653
消防	-10.8655
ce	-10.8656
空白	-10.8656
担忧	-10.8661
所作	-10.8664
强烈的	-10.8665
薄膜	-10.8666
凶手	-10.8667
遣返	-10.8667
预防和	-10.8668
多名	-10.8668
▁咱们	-10.8668
jo	-10.8668
冬天	-10.8673
意思	-10.8674
的女儿	-10.8683
地上	-10.8685
刘	-10.8685
童	-10.8686
招募	-10.8688
开始了	-10.8688
彩色	-10.869
背景下	-10.8692
怎么说	-10.8692
该部	-10.8693
工作者	-10.8693
导致了	-10.8695
佐	-10.8701
人在	-10.8703
倾	-10.8703
练	-10.8705
的综合	-10.8706
极大	-10.8706
撒谎	-10.8708
把握	-10.871
精确	-10.8716
我希望	-10.8716
鸡蛋	-10.8719
便宜	-10.8719
向前	-10.8721
仇恨	-10.8722
磅	-10.8722
诊所	-10.8723
碎片	-10.8723
示	-10.8723
严	-10.8724
生产力	-10.8724
可以用	-10.8724
代价	-10.8726
通货膨胀	-10.8726
公报	-10.8727
本区域	-10.8729
稳	-10.873
烦	-10.8732
列为	-10.8732
大多	-10.8733
初级	-10.8734
展望	-10.8736
使用者	-10.8738
上有	-10.8739
锅	-10.8741
牧师	-10.8743
也可能	-10.8744
进而	-10.8747
消除贫穷	-10.8751
指挥官	-10.8751
排斥	-10.8752
决定草案	-10.8752
坚信	-10.8757
镜头	-10.8758
的女孩	-10.876
信用卡	-10.876
头上	-10.8763
冰箱	-10.8765
250	-10.8768
援引	-10.8771
促进发展	-10.8775
医药	-10.8776
简直	-10.8777
安全部队	-10.8781
的语言	-10.8782
毫米	-10.8785
参与了	-10.8787
契约	-10.8788
农村地区	-10.8792
开玩笑	-10.8792
点击	-10.8792
支票	-10.8793
突	-10.8797
他们是	-10.8799
收获	-10.8802
愿望	-10.8805
骗	-10.8806
式的	-10.8806
伏	-10.881
出血	-10.8811
节能	-10.8811
微生物	-10.8813
西非	-10.882
国内法	-10.8822
其在	-10.8823
我们认为	-10.8825
所有这些	-10.8825
眼镜	-10.8825
但他们	-10.8825
就开始	-10.883
她是	-10.883
人民的	-10.8832
▁想	-10.8834
涂料	-10.8834
1988	-10.8837
形成的	-10.8838
多重	-10.8839
主导	-10.8842
语音	-10.8842
的空间	-10.8844
成立了	-10.8847
体积	-10.8847
将近	-10.8854
概述了	-10.8855
影响力	-10.8857
因为这	-10.8859
气象	-10.886
核武器国家	-10.886
灵活性	-10.8861
答	-10.8864
报告的	-10.8868
蔓延	-10.8869
当今	-10.8874
辞职	-10.8875
更广泛的	-10.8879
琳	-10.8883
的父亲	-10.8883
乍得	-10.8883
腐蚀	-10.8886
充足	-10.8887
打击恐怖主义	-10.8887
场地	-10.8894
更具	-10.8895
试试	-10.8895
喀麦隆	-10.8896
疲劳	-10.8896
骚扰	-10.8899
耐心	-10.89
策划	-10.8904
并使	-10.8904
你不能	-10.8906
健	-10.8906
的身体	-10.8907
被认为	-10.8907
的领域	-10.8908
▁让我们	-10.891
的提案	-10.8911
的水	-10.8911
该决议草案	-10.8911
保健服务	-10.8912
有一天	-10.8916
`	-10.8917
的母亲	-10.8917
委员会建议	-10.8918
商定的	-10.892
的生产	-10.8921
席位	-10.8921
的中心	-10.8921
把这些	-10.8923
独自	-10.8925
冲突后	-10.8926
植	-10.8928
请你	-10.8931
尽早	-10.8932
舒	-10.8933
接下来	-10.8933
弱势群体	-10.8939
生产的	-10.894
有任何	-10.8942
叶片	-10.8946
专门机构	-10.8948
地狱	-10.895
▁尽管如此	-10.895
串	-10.8953
风暴	-10.8953
这边	-10.8954
地带	-10.8955
绳	-10.8956
十六	-10.8957
安全性	-10.8959
面试	-10.8959
人为	-10.8961
代谢	-10.8961
新技术	-10.8962
催化	-10.8964
影像	-10.8966
选出	-10.8966
申请人	-10.8966
失业率	-10.8968
跌	-10.8969
对照	-10.897
25%	-10.897
从而使	-10.8971
企业家	-10.8971
汤姆	-10.8976
政府机构	-10.8977
骨折	-10.898
制约	-10.8981
的作品	-10.8983
告诉他们	-10.8985
主人	-10.8986
以外的	-10.8988
▁加拿大	-10.8989
冷静	-10.899
会晤	-10.8991
去世	-10.8991
研究中心	-10.8993
周一	-10.8994
煽动	-10.8995
要比	-10.8995
我们已经	-10.8997
政府和	-10.8997
和美国	-10.8997
也很	-10.8998
问责制	-10.9003
ia	-10.9004
充	-10.9004
沿海	-10.9005
进行合作	-10.9007
荷	-10.9008
难民专员办事处	-10.9008
塔利班	-10.9008
种种	-10.9011
依法	-10.9011
把这个	-10.9012
力求	-10.9015
▁我们必须	-10.9015
行为者	-10.9016
模具	-10.9018
赞助	-10.9019
供给	-10.9019
不出	-10.9025
进行了分析	-10.9025
深刻	-10.9027
93	-10.9029
和相关	-10.9031
火灾	-10.9033
获得通过	-10.9036
胆	-10.9036
ss	-10.9039
要在	-10.9041
律	-10.9043
超过了	-10.9043
命名	-10.9044
知道你	-10.9047
威尔	-10.9048
/61/	-10.9049
不然	-10.9049
但也	-10.9053
带到	-10.9053
干的	-10.9055
主意	-10.9057
利息	-10.9057
的理论	-10.9057
柏	-10.9057
侵犯人权	-10.9058
心情	-10.9058
春天	-10.906
的道路	-10.906
的功能	-10.9061
采纳	-10.9062
喝酒	-10.9063
这就	-10.9064
90%	-10.9067
仅有	-10.9069
碰到	-10.9071
王子	-10.9072
山区	-10.9073
文化和	-10.9075
配有	-10.9075
对中国	-10.9076
报警	-10.9078
奴隶	-10.9079
100%	-10.9083
努	-10.9087
92	-10.9089
▁我觉得你	-10.909
设计师	-10.9092
初始	-10.9092
这种做法	-10.9093
见第	-10.9096
▁64.	-10.9096
耦合	-10.9096
缔结	-10.9097
各方面	-10.9099
战士	-10.9101
什么都	-10.9105
窝	-10.9106
今日	-10.9108
2012-2013	-10.9108
另一方面	-10.9108
勤	-10.911
陆地	-10.9111
邮	-10.9113
.9	-10.9114
抢劫	-10.9115
统	-10.9117
进行审查	-10.912
盆	-10.9126
长时间	-10.9127
▁其次	-10.913
各组织	-10.9133
这家	-10.9134
因为我们	-10.9134
风险管理	-10.9135
取得成功	-10.9136
在非洲	-10.9138
度假	-10.9143
早晨	-10.9144
缔约国会议	-10.9146
颁发	-10.9147
穿上	-10.9148
在本报告所述期间	-10.915
折磨	-10.9152
液压	-10.9153
.8	-10.9154
▁特别报告员	-10.9156
一个小	-10.9156
net	-10.9157
在未来	-10.9157
势力	-10.9158
牙买加	-10.9158
2004-2005	-10.9158
见附件	-10.9159
可持续的	-10.9161
的解释	-10.9166
挖掘	-10.9167
的另一个	-10.9169
▁但我们	-10.917
老婆	-10.9172
这张	-10.9173
理性	-10.9173
的说明	-10.9174
▁因为我们	-10.9175
日起	-10.9176
国防	-10.9177
移徙者	-10.918
解释说	-10.9182
字符	-10.9187
困境	-10.9188
▁如果您	-10.9189
谋	-10.919
减缓	-10.919
贩运人口	-10.919
▁既然	-10.9191
旗	-10.9194
违背	-10.9196
数据的	-10.9197
正好	-10.9198
回忆	-10.9202
▁65.	-10.9203
高速公路	-10.9204
夫妻	-10.9205
终端	-10.9205
闹	-10.9205
激情	-10.9206
几内亚比绍	-10.9209
摧毁	-10.9209
灌	-10.921
能力的	-10.9211
充满了	-10.9212
变换	-10.9213
战胜	-10.9216
炒	-10.9216
的方向	-10.9216
诗歌	-10.9218
指定的	-10.922
桥梁	-10.9221
邻居	-10.9221
醒来	-10.9223
掌	-10.9229
同学	-10.9231
青年人	-10.9232
懂得	-10.9235
依赖于	-10.9236
▁太	-10.9237
之间的联系	-10.9237
孕妇	-10.9237
单词	-10.9237
消极	-10.9239
一所	-10.924
兽	-10.9241
及其对	-10.9244
60%	-10.9245
提倡	-10.9245
停车	-10.9247
实施了	-10.9248
十八	-10.9249
剩余	-10.925
可能导致	-10.925
储	-10.9255
em	-10.9256
钢铁	-10.9257
所有权	-10.9259
编程	-10.9268
▁孩子	-10.9271
者和	-10.9271
微型	-10.9271
零售	-10.9277
合格	-10.9278
是这样	-10.9278
中部	-10.9279
采矿	-10.928
▁67.	-10.9282
拿出	-10.9282
附属机构	-10.9283
证明了	-10.9285
视察	-10.9286
卵	-10.9288
总共	-10.9289
工作人员的	-10.929
年开始	-10.9293
但这	-10.9293
转交	-10.9294
我们能	-10.9295
封闭	-10.9296
反对派	-10.9297
▁约翰	-10.9301
并就	-10.9302
辞	-10.9302
礼拜	-10.9304
把这	-10.9305
均匀	-10.9308
开展合作	-10.9308
采集	-10.931
交往	-10.9312
射击	-10.9313
国家和国际	-10.9317
煮	-10.9317
详细的	-10.9317
凝	-10.9318
所提供的	-10.9321
林业	-10.9322
腾	-10.9322
索引	-10.9322
流体	-10.9322
买卖	-10.9325
忠诚	-10.9325
他还	-10.9326
定量	-10.9327
常驻联合国代表	-10.9328
住所	-10.9328
ad	-10.9329
入境	-10.933
▁它是	-10.9331
2%	-10.9332
东盟	-10.9332
条文	-10.9333
走吧	-10.9334
专家会议	-10.9336
供水	-10.9336
在这些	-10.9336
sp	-10.9336
爵士	-10.9338
葛	-10.934
为实现	-10.9342
的数字	-10.9343
我们不能	-10.9343
的发言	-10.9344
中亚	-10.9346
提供有关	-10.9348
▁66.	-10.9348
吸附	-10.935
汉语	-10.9351
登记册	-10.9351
分摊	-10.9352
仙	-10.9353
不足以	-10.9355
抛	-10.9355
▁安全理事会	-10.9356
航行	-10.9356
舌	-10.9357
雇佣	-10.9357
流通	-10.9361
捍卫	-10.9362
找个	-10.9362
元件	-10.9362
精力	-10.9364
▁我们现在	-10.9364
圣诞	-10.9368
群众	-10.9369
这个人	-10.9373
权益	-10.9374
▁通过对	-10.9375
▁是吗	-10.9375
东京	-10.9375
乌拉圭	-10.9384
儿基会	-10.9384
军官	-10.9385
中心的	-10.9386
集中在	-10.9388
报告第	-10.9388
固体	-10.9389
警察局	-10.939
多项	-10.9391
一根	-10.9391
帽子	-10.9392
联黎部队	-10.9398
开办	-10.9398
对自己	-10.9399
的比赛	-10.94
邻	-10.94
▁过去	-10.9402
只有一个	-10.9406
不对	-10.9407
高级别会议	-10.941
▁在我们	-10.9411
钩	-10.9412
骄傲	-10.9413
可再生能源	-10.9414
15%	-10.9414
真的很	-10.9419
眼前	-10.942
的企业	-10.942
维生素	-10.942
照明	-10.9422
打了	-10.9423
迁	-10.9425
▁你不会	-10.9425
增多	-10.9425
表决	-10.9432
坏了	-10.9433
育	-10.9434
/63/	-10.9435
也就	-10.9437
成像	-10.9439
从不	-10.944
和建议	-10.944
断裂	-10.9443
▁必须	-10.9443
演奏	-10.9443
建模	-10.9443
▁我只想	-10.9444
健康的	-10.9448
媒介	-10.9452
走出	-10.9453
确定的	-10.9453
不久	-10.9454
审评	-10.9456
苏联	-10.9457
延续	-10.9458
一批	-10.9459
重量	-10.9459
扫	-10.9459
等于	-10.946
洁	-10.9462
并加强	-10.9466
在我的	-10.9468
---	-10.9469
少女	-10.9469
劲	-10.9469
事宜	-10.947
传说	-10.9471
问我	-10.9474
谅解备忘录	-10.9475
素质	-10.9481
再来	-10.9481
可爱	-10.9482
这些措施	-10.9482
采取的行动	-10.9485
蒸汽	-10.949
并以	-10.9491
酮	-10.9491
3%	-10.9493
段所述	-10.9494
履行机构	-10.9496
公主	-10.9498
▁我只	-10.9498
可能性	-10.95
构成了	-10.9501
兔	-10.9502
的信	-10.9502
激烈	-10.9502
忍受	-10.9503
要是	-10.9506
容量	-10.9506
扭转	-10.9506
粮	-10.9507
慈善	-10.9507
有关的问题	-10.9508
永远不会	-10.9511
会让	-10.9512
财政资源	-10.9513
烟草	-10.9514
毒性	-10.9515
妇女和女童	-10.9515
遇	-10.9515
房间里	-10.9516
考验	-10.9517
洪	-10.9518
中小企业	-10.9522
控制的	-10.9524
较高的	-10.953
二次	-10.953
长达	-10.9534
幅度	-10.9534
马丁	-10.9535
塑	-10.9536
挡	-10.9538
严格的	-10.9539
▁我们得	-10.954
经典	-10.9542
▁随后	-10.9544
电视台	-10.9545
赌	-10.9548
荣	-10.955
什么样的	-10.9554
科技咨询机构	-10.9554
的错误	-10.9555
ke	-10.9556
▁怎么了	-10.9557
转移到	-10.9558
假装	-10.9559
矮	-10.956
第三个	-10.9561
http	-10.9562
遏制	-10.9562
收缩	-10.9566
想起	-10.9569
分配给	-10.9571
平行	-10.9572
▁上海	-10.9575
技术的	-10.9578
比尔	-10.9579
的家伙	-10.9579
手指	-10.9584
心理学	-10.9587
的增加	-10.9588
的组成部分	-10.9589
这也	-10.959
萨尔瓦多	-10.9592
继续在	-10.9595
是真的	-10.9597
81	-10.9597
感激	-10.9598
迄今为止	-10.9601
患有	-10.9601
那么多	-10.9601
但没有	-10.9604
三天	-10.9606
听取	-10.9606
向他	-10.9606
签字	-10.9608
怎么会	-10.9608
俗	-10.9608
中等	-10.9609
▁我们希望	-10.9609
可以看到	-10.961
截	-10.9611
首相	-10.9616
如果我们	-10.9616
捐赠	-10.9616
能不能	-10.9618
册	-10.9618
环境保护	-10.9619
向我	-10.9621
称之为	-10.9622
三角	-10.9626
树木	-10.9628
达尔富尔混合行动	-10.9629
牵	-10.963
70%	-10.963
▁我们是	-10.9633
▁但在	-10.9634
这些活动	-10.9636
▁先	-10.9638
性感	-10.9638
死于	-10.9639
觉	-10.9643
处境	-10.9644
弯曲	-10.9646
泉	-10.9649
标识	-10.9651
是有	-10.9652
的障碍	-10.9652
陪	-10.9653
各机构	-10.9656
fa	-10.9657
贸易法委员会	-10.9658
ec	-10.9659
线索	-10.9661
速率	-10.9663
最后一次	-10.9666
扯	-10.9667
亚太经社会	-10.9667
上来	-10.9667
▁二	-10.967
和非政府组织	-10.9672
龄	-10.9675
并将其	-10.9676
迹	-10.9676
研制	-10.9676
常设	-10.9679
报导	-10.968
三十	-10.9681
劳动力市场	-10.9682
也许是	-10.9683
熔	-10.9683
光明	-10.9684
方面的作用	-10.9684
重叠	-10.9686
升高	-10.9686
生命的	-10.9687
潜	-10.9689
在同次会议上	-10.9691
本届会议	-10.9699
织物	-10.9702
桌子	-10.9703
卫生部	-10.9705
利物浦	-10.9705
资讯	-10.9705
各区域	-10.9705
绝缘	-10.9706
检索	-10.9706
各地	-10.9707
的后续行动	-10.9714
▁69.	-10.9714
撤离	-10.9715
数值	-10.972
▁68.	-10.9721
厕所	-10.9723
很快就	-10.9724
协调和	-10.9725
收藏	-10.9727
~	-10.9728
拍卖	-10.9728
一百	-10.9731
切割	-10.9732
介质	-10.9734
号和第	-10.9737
疼	-10.9738
国集团	-10.9739
1)	-10.974
演变	-10.9741
替换	-10.9742
白人	-10.9743
监	-10.9745
▁我们已经	-10.9745
头脑	-10.9747
友谊	-10.975
▁显然	-10.9753
参议员	-10.9755
建设性	-10.9756
毁灭	-10.9756
灰色	-10.9757
的在线电子	-10.9758
火焰	-10.976
▁天啊	-10.976
豪	-10.9761
胖	-10.9762
▁李	-10.9763
印象	-10.9764
sc	-10.9766
吞	-10.9766
▁这是地址	-10.9769
/58/	-10.9769
和国家	-10.9771
您可以	-10.9771
技术转让	-10.9772
成效	-10.9774
纵	-10.9776
猜	-10.9778
不明白	-10.978
的职能	-10.9784
疗效	-10.9786
其他地方	-10.9787
不断地	-10.979
家属	-10.979
小鼠	-10.9791
流入	-10.9791
困扰	-10.9794
朋友们	-10.9795
郡	-10.9797
便是	-10.9797
说你	-10.9802
既定	-10.9802
鹰	-10.9802
年起	-10.9804
的最高	-10.9805
市场上	-10.9805
射线	-10.9807
mar	-10.9807
▁每次	-10.9808
相处	-10.9808
在家	-10.9809
天线	-10.9814
复原	-10.9815
益	-10.9816
买方	-10.9816
怒	-10.9817
长的	-10.9817
以确定	-10.9818
赛季	-10.9818
把我们	-10.982
克隆	-10.982
币	-10.9822
维和行动	-10.9825
海滩	-10.9826
玩家	-10.9826
的运动	-10.9826
这里的	-10.9828
维持和平特派团	-10.9829
一款	-10.983
9%	-10.9833
我不是	-10.9834
防范	-10.9834
联合国开发计划署	-10.9834
鹿	-10.9835
没问题	-10.9835
▁秘书长关于	-10.9838
介	-10.9839
意图	-10.9843
些什么	-10.9846
大声	-10.9851
妇女和女孩	-10.9852
街头	-10.9852
开设	-10.9852
摊款	-10.9855
正面	-10.9857
农村妇女	-10.9858
你了	-10.9859
恐怕	-10.9859
国有	-10.986
想想	-10.986
法律援助	-10.9862
电磁	-10.9863
一对	-10.9864
赢得了	-10.9864
我们对	-10.9865
津巴布韦	-10.9866
没有得到	-10.9869
材料的	-10.9872
也许会	-10.9872
/64/	-10.9873
▁如果你想	-10.9875
占据	-10.9876
他们都	-10.9876
ya	-10.9876
盆地	-10.9877
获悉	-10.9877
的后果	-10.9877
委员会建议缔约国	-10.9878
手续	-10.9879
个员额	-10.988
什么东西	-10.988
勾	-10.988
消除对妇女一切形式歧视公约	-10.9881
星期五	-10.9881
▁研究了	-10.9882
规格	-10.9884
一遍	-10.9885
场景	-10.9886
传达	-10.9887
读书	-10.9888
违约	-10.9891
奶奶	-10.9891
叠	-10.9891
▁单	-10.9892
动荡	-10.9892
我们现在	-10.9892
保护和	-10.9893
坎	-10.9896
充分利用	-10.9897
/3	-10.9897
核可	-10.9897
聊	-10.9898
很小	-10.9898
唱歌	-10.9899
这个国家	-10.9902
低温	-10.9902
进行了研究	-10.9904
竟	-10.9904
该法	-10.9906
和他的	-10.9907
纱	-10.9909
的名义	-10.9913
会产生	-10.9914
可以使用	-10.9915
导航	-10.9919
活动中	-10.9919
重点是	-10.9919
赚	-10.9927
▁2001	-10.9928
孙	-10.9929
达成协议	-10.9931
联邦政府	-10.9931
气氛	-10.9931
你不	-10.9933
对她	-10.9934
发酵	-10.9934
研究报告	-10.9935
另外一个	-10.9937
迎接	-10.9937
▁假如	-10.9938
这个项目	-10.994
就像是	-10.994
承包商	-10.9942
这一进程	-10.9946
候	-10.9946
株	-10.9947
这个世界	-10.9947
的潜在	-10.9948
仿佛	-10.9948
还必须	-10.9949
所造成的	-10.995
跨国公司	-10.9951
芝加哥	-10.9952
充分的	-10.9953
降至	-10.9954
脚本	-10.9956
的重点	-10.9958
茎	-10.9959
被拘留者	-10.9959
性剥削	-10.9963
介入	-10.9963
列车	-10.9967
妈	-10.9968
我们也	-10.997
增至	-10.9972
炸	-10.9974
任何一个	-10.9977
有所增加	-10.9978
不确定	-10.9982
风景	-10.9982
浴	-10.9986
参议院	-10.999
外来	-10.9991
感受到	-10.9995
理事会第	-10.9996
会议的	-10.9997
本次	-10.9998
申	-10.9998
的积极	-10.9998
赠款	-10.9999
corr	-11
源于	-11.0001
et	-11.0001
一定是	-11.0002
世界卫生组织	-11.0003
▁他是个	-11.0003
选择性	-11.0004
尼加拉瓜	-11.0006
人死亡	-11.0008
约为	-11.0009
的特殊	-11.001
▁四	-11.0013
工作场所	-11.0014
政府间组织	-11.0014
船只	-11.0015
/66/	-11.0018
语法	-11.0022
早已	-11.0023
伤口	-11.0024
提到了	-11.0024
为执行	-11.0027
重要性	-11.0028
听说	-11.0032
负载	-11.0033
地中海	-11.0034
手工	-11.0034
犯下	-11.0036
ho	-11.0038
醉	-11.004
著名	-11.004
当事方	-11.0041
特定的	-11.0041
▁告诉我	-11.0043
月球	-11.0044
的痛苦	-11.0046
做得	-11.0046
年纪	-11.0052
权限	-11.0053
海水	-11.0055
配件	-11.0055
分区	-11.0057
军人	-11.0059
▁所有的	-11.006
委员会认为	-11.0063
政府在	-11.0064
市民	-11.0066
这只	-11.0068
的声明	-11.007
对外	-11.0072
双手	-11.0073
发表的	-11.0073
叙述	-11.0073
那位	-11.0074
的若干	-11.0075
悬	-11.0076
的第一	-11.0077
猎	-11.0079
带上	-11.0079
指望	-11.0081
薪酬	-11.0081
▁你不是	-11.0081
ru	-11.0083
周五	-11.0085
意愿	-11.0088
相对于	-11.0091
又有	-11.0091
不能再	-11.0094
司法机构	-11.0094
选定	-11.0099
▁71.	-11.0101
▁谁	-11.0103
处在	-11.0105
▁我们都	-11.0108
智力	-11.0108
她在	-11.0108
传动	-11.0109
并发症	-11.0109
安全的	-11.0111
分别为	-11.0113
峰会	-11.0113
局面	-11.0113
了解到	-11.0113
反腐败	-11.0114
▁决议草案	-11.0118
垂	-11.0121
听取了	-11.0123
钢琴	-11.0124
极限	-11.0126
和经济	-11.0131
的灵魂	-11.0134
遍	-11.0136
频道	-11.0136
▁可能	-11.0137
入口	-11.0137
悲剧	-11.0137
▁法国	-11.014
共同体	-11.0141
心脏病	-11.0141
促	-11.0142
我的朋友	-11.0143
到来	-11.0143
的协调	-11.0147
糟	-11.0148
上文第	-11.0148
服用	-11.0151
捷克共和国	-11.0151
至少有	-11.0153
过境	-11.0153
发电	-11.0153
耶路撒冷	-11.0155
以满足	-11.0156
阶	-11.0157
他们对	-11.0158
的适当	-11.016
晶体	-11.0161
纠纷	-11.0164
全球性	-11.0164
伸	-11.0164
不多	-11.0165
op	-11.0166
和她	-11.0166
轮胎	-11.0167
当天	-11.0169
据说	-11.0173
甲基	-11.0176
符	-11.0179
奖学金	-11.0179
即便	-11.018
积分	-11.0181
同行	-11.0182
并提供	-11.0185
希望能	-11.0186
逃离	-11.0186
弦	-11.0188
执行委员会	-11.0189
不但	-11.0189
全都	-11.019
伟大	-11.0191
附属	-11.0193
档	-11.0194
丙	-11.0194
治安	-11.0195
慷慨	-11.0195
黄色	-11.0197
下一次	-11.0199
海底	-11.0199
你就会	-11.02
之路	-11.02
大师	-11.0204
说出	-11.0206
吸毒	-11.0206
这也是	-11.0206
言论	-11.0206
旅客	-11.0207
扭曲	-11.0212
豪华	-11.0212
妥协	-11.0212
上网	-11.0213
的愿望	-11.0214
占有	-11.0215
矿物	-11.0221
输送	-11.0221
▁通常	-11.0222
让自己	-11.0225
的经费	-11.0227
有限的	-11.0229
两个人	-11.0229
dp	-11.023
▁据说	-11.023
大选	-11.0232
几乎没有	-11.0233
国际文书	-11.0236
电气	-11.0236
远远	-11.0237
东北	-11.0237
可靠性	-11.0238
冬季	-11.024
综述	-11.0243
仿	-11.0243
议事规则	-11.0243
广州	-11.0244
/4	-11.0246
碰撞	-11.0247
恶心	-11.025
并促进	-11.0251
的成本	-11.0251
克林顿	-11.0252
了你	-11.0256
补助	-11.0256
转化	-11.0256
计划的	-11.0259
及其在	-11.026
无力	-11.0261
的状态	-11.0265
武装团体	-11.0265
抵	-11.0267
经合组织	-11.0267
电动	-11.0269
我们有	-11.0272
所致	-11.0273
目的地	-11.0273
协调一致	-11.0275
一再	-11.0278
受影响	-11.0278
很棒	-11.0284
▁我们应该	-11.0285
空缺	-11.0287
艺	-11.0287
除外	-11.0287
困	-11.0292
你还	-11.0292
▁70.	-11.0294
贝尔	-11.0297
在国内	-11.0298
的罪行	-11.0299
和实施	-11.03
亿美元的	-11.03
仓	-11.03
成本效益	-11.0302
产物	-11.0303
增长率	-11.0307
毁	-11.0308
下滑	-11.0314
发展权	-11.0315
大多数人	-11.0316
镍	-11.0316
▁澳大利亚	-11.0318
净化	-11.0319
届会	-11.0319
正规	-11.0319
的专家	-11.0321
sh	-11.0324
审讯	-11.0326
展示了	-11.0327
mc	-11.0328
的对话	-11.0328
的现有	-11.033
有一	-11.033
流离失所者	-11.0333
大于	-11.0334
▁两个	-11.034
▁欧洲	-11.0342
三名	-11.0343
发现的	-11.0344
德尔	-11.0344
家伙	-11.035
领先	-11.0351
她会	-11.0353
大麻	-11.0356
净额	-11.0358
返	-11.0365
中毒	-11.0369
京	-11.0369
不当	-11.037
解决了	-11.0371
诗人	-11.0371
排名	-11.0373
同一个	-11.0374
▁德国	-11.0374
地方当局	-11.0374
该机构	-11.0374
cop	-11.0376
区域和国际	-11.0377
营业	-11.0379
却没有	-11.0382
我是说	-11.0383
热爱	-11.0384
舞台	-11.0385
志愿者	-11.0386
抹	-11.0387
似乎是	-11.0387
白宫	-11.0389
中止	-11.0392
百万	-11.0393
ki	-11.0395
展现	-11.0395
所需经费	-11.0398
改良	-11.0398
军方	-11.0398
一种新的	-11.0398
的缔约国	-11.0399
▁你必须	-11.0401
可通过	-11.0401
国防部	-11.0401
发电机	-11.0405
我还是	-11.0405
疯	-11.0407
报告了	-11.0409
/57/	-11.0412
霜	-11.0413
洗钱	-11.0414
有兴趣	-11.0417
生物学	-11.0418
庄	-11.0418
单身	-11.0419
基层	-11.0421
一篇	-11.0421
单个	-11.0424
▁看	-11.0424
消化	-11.0425
多大	-11.0426
信息和	-11.0426
渡	-11.0427
道理	-11.0428
要把	-11.0429
制定的	-11.0435
的有效性	-11.0435
国际刑事法院	-11.0439
这些建议	-11.044
予	-11.044
拜托	-11.0441
db	-11.0441
手里	-11.0441
▁我们将	-11.0442
两性	-11.0443
核定	-11.0445
公民权利和政治权利国际公约	-11.0446
门口	-11.0446
简要	-11.0447
绝望	-11.0447
营养不良	-11.0447
椅	-11.0447
你好	-11.0449
um	-11.045
言论自由	-11.0452
税务	-11.0453
站点	-11.0457
一层	-11.0458
▁2000	-11.0461
去除	-11.0462
法律框架	-11.0463
丘	-11.0467
路线图	-11.0469
视图	-11.047
女王	-11.047
吓	-11.0474
进程中	-11.0474
1/	-11.0475
▁我想要	-11.0475
pro	-11.0476
让它	-11.0477
看待	-11.0477
残忍	-11.0479
体现了	-11.0479
其中一个	-11.048
的命运	-11.0483
巧	-11.0484
区域合作	-11.0484
陶	-11.0485
的房间	-11.0485
绘画	-11.0488
劝	-11.0488
科索沃特派团	-11.0492
竞争对手	-11.0494
之间的合作	-11.0494
奎	-11.0495
致命	-11.0497
敲	-11.0498
中立	-11.0499
▁应用	-11.0503
用水	-11.0505
所载的	-11.0505
▁72.	-11.0505
扇	-11.0507
该问题	-11.0507
发出的	-11.0511
的控制	-11.0511
卡拉	-11.0512
一会	-11.0513
降低了	-11.0514
航班	-11.052
不过是	-11.0521
床上	-11.0522
试点	-11.0522
示例	-11.0524
熟练	-11.0524
叔叔	-11.0528
祝贺	-11.0529
通风	-11.0529
ps	-11.0529
解析	-11.053
疯了	-11.0531
进度	-11.0532
泪	-11.0533
盲	-11.0534
赤	-11.054
废水	-11.0541
进出口	-11.0544
上空	-11.0547
讯	-11.0548
排放量	-11.0548
颈	-11.0552
监察员	-11.0553
走廊	-11.0554
疑问	-11.0556
嗨	-11.0557
相信我	-11.0559
穿越	-11.0561
荧光	-11.0561
联刚特派团	-11.0561
的兴趣	-11.0562
▁论	-11.0562
恒	-11.0563
加沙地带	-11.0564
con	-11.0565
需要在	-11.0565
拟议的	-11.0566
一定的	-11.0567
天才	-11.0567
执行情况报告	-11.0568
我的心	-11.0572
专门知识	-11.0572
的一般	-11.0573
涉嫌	-11.0573
学生们	-11.0573
人权和	-11.0573
毛里求斯	-11.0578
预备	-11.0578
停下来	-11.0581
进行研究	-11.0581
该计划	-11.0585
了一种	-11.0586
热量	-11.0586
下文	-11.0586
法测定	-11.0589
在北京	-11.0591
初期	-11.0595
信念	-11.0598
中所	-11.06
聊天	-11.0602
社交	-11.0604
码头	-11.0607
per	-11.0607
必须要	-11.0609
屋顶	-11.0609
衫	-11.0611
小武器和轻武器	-11.0611
曾在	-11.0612
计划生育	-11.0614
跨越	-11.0615
高级官员	-11.0619
而被	-11.0621
浴室	-11.0622
十七	-11.0622
副秘书长	-11.0622
委员会对	-11.0625
一面	-11.0629
光线	-11.0631
岛上	-11.0631
信息的	-11.0632
/65/	-11.0632
境内流离失所者	-11.0632
欧元区	-11.0636
罢工	-11.0637
他也	-11.0639
人事	-11.0639
咨询服务	-11.0639
▁在此	-11.0641
西北	-11.0641
歌曲	-11.0646
包括通过	-11.0648
厚度	-11.0649
住院	-11.0649
负有	-11.0651
孤立	-11.0655
人力资源管理	-11.0656
贩卖	-11.0657
周边	-11.0657
晕	-11.0657
定制	-11.0658
健身	-11.0659
申报	-11.0661
全身	-11.0661
人口的	-11.0661
/62/	-11.0663
歧视性	-11.0664
技	-11.0665
就不能	-11.0666
周二	-11.0669
收拾	-11.067
北美	-11.067
你怎么	-11.0671
乌兹别克斯坦	-11.0673
府	-11.0674
▁你真	-11.0674
现在是	-11.0676
无数	-11.0677
战术	-11.0677
的时刻	-11.0678
累积	-11.0679
开启	-11.0679
的差异	-11.0681
我家	-11.0682
以避免	-11.0683
我们是	-11.0684
▁我真的	-11.0686
分割	-11.0686
看不到	-11.0686
戒	-11.0687
裤子	-11.0687
洛杉矶	-11.0689
模仿	-11.0689
外汇	-11.0691
时机	-11.0694
巴拿马	-11.0694
说谎	-11.0697
售	-11.0697
几周	-11.0698
扭	-11.0699
技术在	-11.0702
原油	-11.0702
世卫组织	-11.0703
赞比亚	-11.0703
联合国国家工作队	-11.0703
ly	-11.0704
相结合	-11.0704
分担	-11.0706
合约	-11.0706
弱势	-11.071
带领	-11.071
的伙伴关系	-11.0711
傻瓜	-11.0712
/53/	-11.0712
不会再	-11.0713
易于	-11.0716
浏览	-11.0717
满了	-11.0718
以防止	-11.0719
反而	-11.0719
集会	-11.0719
西亚	-11.0721
▁理事会	-11.0721
使你	-11.0722
以至于	-11.0722
ie	-11.0725
离职	-11.0727
已开始	-11.0727
我真的	-11.0728
先进的	-11.0728
传真	-11.0728
丢失	-11.0729
的眼睛	-11.0729
▁来自	-11.0732
ts	-11.0732
最高的	-11.0732
这段	-11.0733
膏	-11.0735
白天	-11.074
gc	-11.0741
什么事	-11.0743
开幕	-11.0743
以实现	-11.0744
玻利维亚	-11.0745
这个词	-11.0746
的市场	-11.0747
行预咨委会	-11.075
▁好像	-11.0755
写了	-11.0756
撤出	-11.0757
腺	-11.0759
话题	-11.0763
已于	-11.0766
成型	-11.0768
他将	-11.0768
一致性	-11.0769
6%	-11.0773
男朋友	-11.0774
▁我对	-11.0774
he	-11.0776
抵制	-11.0776
国别	-11.0777
适	-11.0779
居然	-11.0781
衬	-11.0782
布局	-11.0783
屏	-11.0784
而又	-11.0784
操作系统	-11.0786
就是这样	-11.0787
逃避	-11.0787
取得的进展	-11.0788
和监测	-11.0789
科研	-11.079
不包括	-11.0791
在不同	-11.0791
百分之	-11.0794
的损失	-11.0796
电阻	-11.0797
▁她在	-11.08
宋	-11.08
接纳	-11.08
公共卫生	-11.0801
它会	-11.0802
这两种	-11.0802
斯洛文尼亚	-11.0804
停火	-11.0805
电梯	-11.0807
底部	-11.0807
微波	-11.0808
月亮	-11.0809
论述了	-11.0809
越来越多	-11.0811
对应	-11.0812
米兰	-11.0814
多少钱	-11.0818
准许	-11.0819
衬衫	-11.0821
在内	-11.0821
访	-11.0822
进展情况	-11.0823
缴纳	-11.0824
坚强	-11.0831
人造	-11.0832
ll	-11.0833
制度的	-11.0835
因其	-11.0835
▁好啊	-11.0836
ak	-11.0836
联科行动	-11.0838
次数	-11.0839
再度	-11.0841
股价	-11.0843
表示赞赏	-11.0844
部长级会议	-11.0844
定价	-11.0845
家园	-11.0846
各部门	-11.0848
职工	-11.0848
称赞	-11.0849
我需要	-11.0851
的数目	-11.0852
住宿	-11.0853
加强对	-11.0855
发展伙伴	-11.0856
的资产	-11.0861
we	-11.0861
星期一	-11.0863
不公平	-11.0864
朝着	-11.0865
企业的	-11.0867
该系统	-11.0868
和资源	-11.0869
惨	-11.0869
庆	-11.0871
代表性	-11.0872
国家人权机构	-11.0872
织	-11.0875
的评论	-11.0876
分支	-11.0877
罚款	-11.0878
可以从	-11.088
尼克	-11.088
一点点	-11.0881
提高认识	-11.0882
相机	-11.0886
这些机构	-11.0888
本周	-11.0889
和维护	-11.089
协	-11.0891
申明	-11.0891
一个新	-11.0891
方面取得的进展	-11.0891
▁1999	-11.0892
他认为	-11.0897
在国际	-11.0898
对联合国	-11.0899
了我的	-11.09
幸存者	-11.0902
时代的	-11.0903
难道	-11.0904
温暖	-11.0904
普遍定期审议	-11.0906
崇拜	-11.0906
戒指	-11.0907
犯罪行为	-11.0907
2)	-11.0914
新生	-11.0916
专员	-11.0918
宗旨	-11.092
▁恩	-11.0921
的根源	-11.0922
柳	-11.0923
不扩散	-11.0924
▁73.	-11.0925
社会和文化权利	-11.0926
我国代表团	-11.0927
▁在这种情况下	-11.093
不准	-11.0932
一同	-11.0935
的文章	-11.0936
监测和	-11.0936
其对	-11.0937
加深	-11.0938
二氧化碳	-11.094
勇气	-11.0941
还原	-11.0942
定罪	-11.0944
综合性	-11.0944
gu	-11.0945
能使	-11.0945
沉默	-11.0947
的现状	-11.0949
过多	-11.0949
昆虫	-11.0949
大厦	-11.095
剩下的	-11.0951
起飞	-11.0951
随意	-11.0952
借助	-11.0953
说我	-11.0953
示范法	-11.0954
很明显	-11.0955
壮	-11.0957
不结盟运动	-11.0958
延误	-11.0961
量化	-11.0962
特别程序	-11.0963
柄	-11.0964
皆	-11.0965
不安全	-11.0965
在你的	-11.0966
一大	-11.097
导演	-11.097
激活	-11.097
你所	-11.0971
真实的	-11.0972
农产品	-11.0972
鸣	-11.0974
妙	-11.0974
刊	-11.0975
篮球	-11.0977
病变	-11.0978
路上	-11.0981
相互作用	-11.0981
警报	-11.0982
该死的	-11.0983
安娜	-11.0983
者们	-11.0984
火山	-11.0984
谋求	-11.0984
否定	-11.0985
的商业	-11.0986
所有会员国	-11.0986
错过	-11.0988
给你们	-11.0989
7%	-11.0989
=	-11.0992
聘用	-11.0992
经验教训	-11.0994
周日	-11.0994
七个	-11.0995
该公约	-11.0997
是一家	-11.0999
不锈钢	-11.1
破裂	-11.1002
纽	-11.1004
躺在	-11.1005
你觉得	-11.1006
▁最	-11.1006
忽略	-11.1006
征求	-11.1009
间谍	-11.101
他们将	-11.1011
res	-11.1012
人权和基本自由	-11.1013
有过	-11.1014
冰岛	-11.1014
警卫	-11.1017
哈利	-11.1017
那只	-11.1017
在欧洲	-11.1018
毁了	-11.102
制订了	-11.102
只需要	-11.1022
执行秘书	-11.1027
落后	-11.1027
的音乐	-11.1029
他们就	-11.1029
包容	-11.103
优秀的	-11.103
有待	-11.1031
肯定会	-11.1031
不只是	-11.1032
欢	-11.1033
内心	-11.1034
妥善	-11.1036
队长	-11.1037
尺度	-11.1038
相关性	-11.1038
狮子	-11.1039
叉	-11.104
只不过是	-11.1042
并指出	-11.1043
做个	-11.1043
这两	-11.1045
▁74.	-11.1045
自愿捐款	-11.1046
你现在	-11.1046
荒漠化	-11.1049
设备的	-11.1049
的名称	-11.1049
已经有	-11.1051
继续进行	-11.1051
表示感谢	-11.1053
转化为	-11.1053
▁否则	-11.1054
的优势	-11.1054
是多么	-11.1056
比你	-11.1059
变异	-11.106
传染病	-11.1063
后悔	-11.1064
创造性	-11.1065
的人都	-11.1065
步行	-11.1066
保守	-11.1067
备忘录	-11.1068
一头	-11.1069
电极	-11.1069
竞赛	-11.107
按摩	-11.107
欢乐	-11.1073
案子	-11.1074
在学校	-11.1075
今天的	-11.1076
分区域	-11.1076
最后一个	-11.1077
图表	-11.1083
喜爱	-11.1084
在乎	-11.1086
蜡	-11.1086
使命	-11.1087
美联储	-11.1088
多年来	-11.1089
会让你	-11.1089
极大的	-11.1094
生日	-11.1098
来讲	-11.1098
填写	-11.1098
薪金	-11.1099
节奏	-11.1099
罗姆人	-11.11
蚀	-11.1101
将通过	-11.1101
闭嘴	-11.1106
分组	-11.1106
亲密	-11.1106
▁我的意思是	-11.1107
大幅度	-11.1109
丑	-11.111
过程的	-11.1111
机密	-11.1111
很清楚	-11.1112
加勒比	-11.1119
第一部分	-11.112
和分析	-11.1121
政策和方案	-11.1122
的颜色	-11.1123
味道	-11.1123
▁但是你	-11.1123
高血压	-11.1125
商标	-11.1125
表示支持	-11.1127
地板	-11.113
人身	-11.1132
着重指出	-11.1135
并且在	-11.1135
沮丧	-11.1137
国家一级	-11.1137
研究结果	-11.1138
案件的	-11.114
邪	-11.1141
▁75.	-11.1142
行政部门	-11.1142
其他的	-11.1143
法语	-11.1144
后期	-11.1145
飓风	-11.1149
千年	-11.1151
下令	-11.1156
日前	-11.1156
上校	-11.1156
改性	-11.1157
出来了	-11.1157
建设和平委员会	-11.1158
驱	-11.1158
区域组织	-11.116
遗	-11.1165
及相关	-11.1166
聚合物	-11.1167
180	-11.1168
被发现	-11.1168
地铁	-11.1168
和服务	-11.1173
发布了	-11.1175
▁2013	-11.1175
三项	-11.1176
小镇	-11.1177
▁天	-11.118
出色	-11.1181
下雨	-11.1182
尸	-11.1182
纺织	-11.1182
▁每天	-11.1183
宽容	-11.1183
遥感	-11.1184
锅炉	-11.1185
和程序	-11.1186
不懂	-11.1187
世界的	-11.1187
ds	-11.119
党派	-11.1191
ex	-11.1191
妇发基金	-11.1193
到期	-11.1193
所带来的	-11.1194
安全问题	-11.1195
负面	-11.1196
社会和经济	-11.1197
铃	-11.1197
巴林	-11.1197
mu	-11.12
夜晚	-11.1201
量的	-11.1201
将这些	-11.1202
忍	-11.1202
▁按	-11.1202
赤字	-11.1204
管理员	-11.1206
报价	-11.1206
录音	-11.1207
筹集	-11.1208
耳朵	-11.1208
的电话	-11.121
派出	-11.1211
校长	-11.1211
的军事	-11.1212
更是	-11.1217
一艘	-11.1218
债权人	-11.1222
倾斜	-11.1222
近来	-11.1223
隐私	-11.1225
签订	-11.1227
繁殖	-11.1228
一处	-11.1229
导向	-11.1229
直径	-11.1231
管理的	-11.1234
for	-11.1235
愚蠢	-11.1236
汽	-11.1237
走私	-11.1237
的一名	-11.1238
作出努力	-11.1238
▁你真的	-11.1238
bi	-11.1241
默认	-11.1243
喊	-11.1243
阿拉伯国家	-11.1245
的好处	-11.1246
跨国	-11.1246
包裹	-11.1248
收养	-11.1249
清醒	-11.1251
国内生产总值	-11.1253
并不能	-11.1253
原谅	-11.1253
领导的	-11.1254
最严重的	-11.1254
生殖健康	-11.1256
图案	-11.1257
一小时	-11.1257
并要求	-11.1258
也应	-11.1263
审核	-11.1265
联系起来	-11.1266
座位	-11.1267
顾	-11.1267
并支持	-11.1269
如果没有	-11.1269
开展的活动	-11.1269
仍未	-11.1269
切除	-11.1271
精密	-11.1271
简报	-11.1272
饲料	-11.1273
的好	-11.1273
对儿童	-11.1276
天赋	-11.1276
4000	-11.1278
和使用	-11.1281
生殖	-11.1283
撰写	-11.1283
的神	-11.1283
醒	-11.1288
多元	-11.1288
大豆	-11.129
在场	-11.129
unep	-11.1291
130	-11.1292
大致	-11.1295
能让	-11.1295
新兴	-11.1298
溶剂	-11.1299
会议期间	-11.13
北极	-11.1302
成年	-11.1302
条的规定	-11.1303
鸭	-11.1304
和机构	-11.1307
还注意到	-11.1307
▁1998	-11.1309
吃的	-11.131
▁你没	-11.131
氨	-11.1312
淀粉	-11.1313
每人	-11.1315
无限	-11.1317
▁当他	-11.1319
几分钟	-11.1319
是基于	-11.1321
赢了	-11.1321
振兴	-11.1322
娅	-11.1326
上下	-11.1332
将与	-11.1333
调度	-11.1335
▁注意到	-11.1336
入学	-11.1336
原先	-11.1337
gi	-11.1337
所提出的	-11.1337
的大部分	-11.1338
行动的	-11.1338
可行的	-11.1339
是一名	-11.1339
和社区	-11.134
的开发	-11.1343
无障碍	-11.1343
集装箱	-11.1344
过敏	-11.1344
▁d	-11.1345
油田	-11.1347
强调必须	-11.1351
po	-11.1351
恐吓	-11.1353
执政	-11.1354
缴款	-11.1354
从一个	-11.1355
不止	-11.1356
最具	-11.1358
去过	-11.1361
的优先事项	-11.1362
白痴	-11.1362
下述	-11.1363
培训课程	-11.1364
娘	-11.1365
能得到	-11.1366
摊	-11.1367
迫切	-11.137
酚	-11.137
▁爱	-11.1372
综合征	-11.1373
做的事	-11.1379
并根据	-11.1379
泄漏	-11.138
活动和	-11.1381
关押	-11.1383
好莱坞	-11.1389
类似于	-11.1389
本土	-11.139
这种方法	-11.1393
危及	-11.1394
日志	-11.1394
排列	-11.1394
委员会还	-11.1394
应以	-11.1394
无视	-11.1394
糊	-11.1395
和个人	-11.1395
联合国各机构	-11.1395
设立了一个	-11.1396
客户端	-11.1397
圆桌会议	-11.1398
这本书	-11.1401
拥抱	-11.1401
附件一	-11.1403
甚至是	-11.1404
行动者	-11.1407
准备好了	-11.1407
抽象	-11.1409
与合作	-11.141
闲	-11.141
欧洲委员会	-11.1411
汇款	-11.1412
严肃	-11.1414
就象	-11.1416
逐	-11.1419
调查结果	-11.142
逊	-11.1422
带走	-11.1423
▁欧洲联盟	-11.1424
截止	-11.1424
理想的	-11.1425
想像	-11.1427
人类的	-11.1428
病理	-11.1428
提高妇女地位	-11.1429
通过其	-11.143
国内流离失所者	-11.143
▁他把	-11.1431
课堂	-11.1435
▁这意味着	-11.1435
犹太	-11.1438
星星	-11.1439
题目	-11.144
ol	-11.1442
的专业	-11.1444
不超过	-11.1445
一事	-11.1445
裁判	-11.1446
裙	-11.1446
流动性	-11.1447
屈	-11.1449
并应	-11.145
杀手	-11.145
▁近年来	-11.1452
哭泣	-11.1452
约定	-11.1453
的潜力	-11.1455
关键的	-11.1456
▁哈	-11.1457
的梦想	-11.1457
联赛	-11.146
定期报告	-11.1461
刑事司法	-11.1464
没关系	-11.1465
可能的	-11.1465
的支助	-11.1467
的巨大	-11.1467
手上	-11.1468
莫桑比克	-11.147
分娩	-11.147
两个月	-11.1471
家乡	-11.1471
gdp	-11.1472
岗位	-11.1472
依旧	-11.1472
第七	-11.1472
应变	-11.1473
主机	-11.1476
期待着	-11.1476
呆在	-11.1478
很不错	-11.1478
既然	-11.1479
概况	-11.1479
/1	-11.1481
的原因是	-11.1484
莫斯科	-11.1486
奥运	-11.1488
变得更加	-11.1488
盯着	-11.1488
以帮助	-11.1489
行政和预算问题咨询委员会	-11.1491
中介	-11.1491
失效	-11.1492
不住	-11.1493
直线	-11.1494
批款	-11.1496
充当	-11.1498
/55/	-11.1498
全系统	-11.1498
其工作	-11.1498
皇	-11.1499
抚养	-11.15
定为	-11.1503
央行	-11.1504
ir	-11.1504
od	-11.1505
棚	-11.1506
游行	-11.1509
发展战略	-11.1512
研究者	-11.1517
凸	-11.1518
空军	-11.1518
头部	-11.152
人均	-11.152
创建一个	-11.1522
研究进展	-11.1522
开展活动	-11.1524
的支持下	-11.1524
是怎么	-11.1524
大道	-11.1527
91	-11.1527
精心	-11.1527
燃	-11.1528
社会保护	-11.153
的对象	-11.1532
退化	-11.1533
侵蚀	-11.1534
人人	-11.1534
选择了	-11.1535
本着	-11.1536
必需	-11.1536
学员	-11.1538
董事	-11.154
区域办事处	-11.1543
求解	-11.1545
ul	-11.1545
外套	-11.1546
不一定	-11.1546
能找到	-11.1546
通胀	-11.1547
请秘书处	-11.1548
筹	-11.1551
大批	-11.1552
好消息	-11.1552
的研制	-11.1553
妇女参与	-11.1553
无聊	-11.1556
各缔约方	-11.1557
圆形	-11.1558
存在于	-11.1559
的父母	-11.1559
的规模	-11.1559
国家方案	-11.1561
两周	-11.1561
受体	-11.1561
关系的	-11.1562
毒素	-11.1563
学校的	-11.1564
▁在美国	-11.1564
租金	-11.1564
偶然	-11.1564
执行情况的	-11.1565
新生儿	-11.1565
不起	-11.1565
并行	-11.1566
体外	-11.1567
歌手	-11.1567
和家庭	-11.1567
没法	-11.1568
ab	-11.1568
支配	-11.1569
笑话	-11.1571
神话	-11.1571
听起来	-11.1571
巴塞尔公约	-11.1571
描绘	-11.1573
购置	-11.1573
顾及	-11.1573
总量	-11.1577
误解	-11.1579
是美国	-11.1582
福音	-11.1583
但是他	-11.1584
这会	-11.1585
经济活动	-11.1586
蜜	-11.1586
等到	-11.1591
奉	-11.1591
的材料	-11.1593
排雷	-11.1594
克莱	-11.1594
习	-11.1594
进行评估	-11.1595
▁喔	-11.1596
盈利	-11.1601
解决冲突	-11.1601
烈	-11.1608
径	-11.1608
股份	-11.1608
处理器	-11.1608
史密斯	-11.1609
犯人	-11.1613
见解	-11.1614
加油	-11.1616
的运作	-11.1617
损	-11.1618
散步	-11.1618
合作社	-11.1619
就得	-11.1621
卖方	-11.1621
我们还	-11.1625
牢	-11.1626
当初	-11.1628
在很大程度上	-11.163
科学和技术	-11.1635
的网站	-11.164
视角	-11.1643
搜查	-11.1645
万美元的	-11.1645
周六	-11.1646
世界经济	-11.1647
▁医生	-11.1648
尊严	-11.1651
▁报告	-11.1653
当年	-11.1653
的倡议	-11.1655
实质	-11.1655
辅导	-11.1656
天主教	-11.1657
一代	-11.1658
▁卡	-11.1658
是唯一	-11.1658
的必要	-11.166
队员	-11.1661
另一些	-11.1661
终结	-11.1661
▁回顾	-11.1661
忧虑	-11.1662
有足够的	-11.1662
魅力	-11.1663
认捐	-11.1666
为促进	-11.1669
▁尤其是	-11.167
和政治	-11.167
保加利亚	-11.1671
养老金	-11.1673
示威	-11.1674
减小	-11.1677
太好了	-11.1677
章程	-11.1677
性格	-11.1679
静态	-11.168
是用	-11.1681
肥胖	-11.1681
以前的	-11.1682
老爸	-11.1682
内罗毕	-11.1683
斯洛伐克	-11.1683
不同于	-11.1686
一番	-11.1687
比我	-11.1688
亲属	-11.1688
涌	-11.1692
▁秘书处	-11.1693
器件	-11.1693
医疗服务	-11.1693
指的是	-11.1694
服从	-11.1694
报告称	-11.1695
公共服务	-11.1695
以及与	-11.1696
会不会	-11.1697
哪儿	-11.1697
消除对妇女歧视委员会	-11.1698
的可行性	-11.1698
安慰	-11.1698
麻醉	-11.1698
复兴	-11.17
公共部门会计准则	-11.1702
莲	-11.1703
此时	-11.1703
较大的	-11.1705
海湾	-11.1706
与你	-11.1708
骑士	-11.1709
荡	-11.171
东南亚	-11.171
▁但这	-11.1712
分段	-11.1714
在外面	-11.1715
的形象	-11.1719
祝	-11.172
神圣	-11.1722
图书	-11.1723
研究生	-11.1725
可怕	-11.1726
周四	-11.1727
格雷	-11.1728
人都	-11.1728
这座	-11.1728
希尔	-11.173
不明	-11.173
人员和	-11.1731
控件	-11.1731
留给	-11.1732
来处理	-11.1733
最后的	-11.1733
力度	-11.1734
自身的	-11.1735
名义	-11.1735
有意义的	-11.1737
学位	-11.1737
所作的努力	-11.1737
演化	-11.174
经济危机	-11.1741
红外	-11.1742
号法令	-11.1743
区域的	-11.1743
是她	-11.1744
大不列颠及北爱尔兰联合王国	-11.1746
抗体	-11.1747
几个小时	-11.1747
变为	-11.175
▁五	-11.1752
中使用	-11.1753
孩子的	-11.1754
疏	-11.1755
噪音	-11.1755
发展援助	-11.1757
分数	-11.1758
▁我从	-11.1759
暴露	-11.176
3)	-11.176
的形成	-11.1761
坛	-11.1762
精简	-11.1763
/67/	-11.1763
以免	-11.1764
都市	-11.1764
特别注意	-11.1765
被拘留	-11.1765
忘	-11.1766
赚钱	-11.1767
他自己	-11.1768
绝不	-11.1768
国家和	-11.1768
检察官办公室	-11.1769
嫁给	-11.177
启用	-11.1771
蜂	-11.1772
人口贩运	-11.1772
hi	-11.1773
总裁	-11.1774
加密	-11.1775
if	-11.1779
是否会	-11.1779
▁如果他们	-11.178
垄断	-11.1781
旅	-11.1782
一方面	-11.1782
的理想	-11.1783
人权事务委员会	-11.1784
解雇	-11.1784
跨界	-11.1784
▁任何	-11.179
因为这些	-11.1791
藤	-11.1792
大地	-11.1794
委员会的工作	-11.1794
预警	-11.1795
的理解	-11.1798
▁应	-11.1798
中午	-11.1799
不平衡	-11.1799
程序和	-11.18
常见的	-11.18
dr	-11.18
福特	-11.1802
可能在	-11.1803
有组织犯罪	-11.1805
的高	-11.1805
知道我	-11.1809
之地	-11.181
死者	-11.181
▁到了	-11.1811
袭	-11.1813
坝	-11.1813
会对	-11.1813
现在已经	-11.1814
战场	-11.1815
适宜	-11.1816
那样的	-11.1816
一阵	-11.1818
中得到	-11.1819
联利特派团	-11.182
虾	-11.1821
对我来说	-11.1822
▁自动	-11.1822
和环境	-11.1823
枪支	-11.1823
国民议会	-11.1824
▁我们有	-11.1825
装配	-11.1825
缺点	-11.1827
水分	-11.1828
姓名	-11.1829
资本主义	-11.1829
大海	-11.1829
尴尬	-11.183
泰勒	-11.183
它们在	-11.1831
清楚地	-11.1834
百分比	-11.1834
思路	-11.1835
▁伙计	-11.1837
网格	-11.1838
缓	-11.1838
的手	-11.1839
情况的	-11.1839
禁令	-11.184
不属于	-11.184
会见	-11.1841
球场	-11.1841
ot	-11.1842
需要一个	-11.1842
配额	-11.1842
ph	-11.1843
ai	-11.1847
污	-11.1848
唇	-11.1848
国家和区域	-11.1848
有利的	-11.1852
没能	-11.1853
月初	-11.1855
得到的	-11.1856
一般性	-11.1858
铭记	-11.1861
同时还	-11.1862
鼻子	-11.1862
再一次	-11.1865
渐渐	-11.1866
境内的	-11.1866
耍	-11.1867
厉害	-11.1869
月以来	-11.187
牵头	-11.1871
重大的	-11.1872
姐姐	-11.1872
儿童权利委员会	-11.1873
方法是	-11.1873
的报道	-11.1873
支架	-11.1875
内政部	-11.1875
ry	-11.1875
会出现	-11.1876
基地组织	-11.1876
外界	-11.1877
试验研究	-11.1877
她们的	-11.1878
际	-11.188
主持人	-11.1881
人力	-11.1882
car	-11.1883
陌生人	-11.1885
提供技术援助	-11.1885
▁因为他	-11.1887
援	-11.1887
的重大	-11.1887
珠宝	-11.1887
工作经验	-11.1888
指明	-11.1888
都需要	-11.1889
;(	-11.1892
犯有	-11.1892
凶	-11.1892
与此同时	-11.1892
填充	-11.1893
骂	-11.1898
各缔约国	-11.1899
有钱	-11.1899
经济衰退	-11.19
算是	-11.1902
落在	-11.1902
个性	-11.1904
追究	-11.1904
布基纳法索	-11.1905
的老	-11.1905
各种各样的	-11.1908
外层空间	-11.1911
知道了	-11.1914
正常的	-11.1914
放大	-11.1914
骨头	-11.1917
crp	-11.1917
特设委员会	-11.1917
研究表明	-11.1917
舰	-11.1918
推翻	-11.1919
第一章	-11.1919
极度	-11.192
8%	-11.192
数据收集	-11.192
伟	-11.1922
鱼类	-11.1922
感兴趣的	-11.1922
珍	-11.1922
恶劣	-11.1924
提请注意	-11.1924
了个	-11.1925
▁谢谢	-11.1927
反抗	-11.1927
宣传活动	-11.1927
书中	-11.1928
的评估	-11.1928
了一项	-11.1928
▁全球	-11.1928
任何其他	-11.1931
撑	-11.1932
同志	-11.1932
横向	-11.1934
▁整个	-11.1934
分析方法	-11.1934
了一	-11.1935
严厉	-11.1936
任用	-11.1939
科学技术	-11.1939
邪恶	-11.1948
所采取的	-11.1948
的评价	-11.1948
还有一个	-11.1949
的整体	-11.195
的律师	-11.1953
柏林	-11.1956
▁别这样	-11.1956
一体	-11.1957
编号	-11.1959
一小	-11.196
而且也	-11.1961
现任	-11.1962
烦恼	-11.1962
xf	-11.1965
爽	-11.1965
灯光	-11.1971
於	-11.1972
碟	-11.1972
应将	-11.1973
的经历	-11.1973
结构和	-11.1974
不容易	-11.1975
发光	-11.1975
遇见	-11.1976
卫生组织	-11.1977
水域	-11.1977
概算	-11.1978
家庭成员	-11.1978
这次会议	-11.198
得分	-11.1981
交互	-11.1981
平安	-11.1981
海啸	-11.1982
▁76.	-11.1983
包括对	-11.1983
区内	-11.1984
伪	-11.1984
环境和	-11.1987
的特征	-11.1987
宏	-11.1987
一个大	-11.1987
拳	-11.1988
那个人	-11.1989
议	-11.1991
勇敢	-11.1991
的意愿	-11.1991
140	-11.1993
大国	-11.1994
在伊拉克	-11.1996
毕业生	-11.1996
撤回	-11.1997
典	-11.1997
钾	-11.1997
周年	-11.1999
培	-11.2002
法律制度	-11.2003
成形	-11.2004
(1	-11.2005
为什么不	-11.2006
点儿	-11.2006
自适应	-11.2006
运气	-11.2008
司法系统	-11.2009
决定将	-11.201
潘	-11.201
了一系列	-11.201
宏观经济	-11.201
球迷	-11.201
惊喜	-11.201
所能	-11.2011
是如此	-11.2013
可能有	-11.2013
奖金	-11.2014
市中心	-11.2017
文职人员	-11.2018
晒	-11.2018
侦查	-11.202
的多	-11.2021
▁同	-11.2022
▁如果没有	-11.2024
古老的	-11.2024
尊	-11.2026
各成员国	-11.2027
地下水	-11.2028
协调中心	-11.2029
饮	-11.203
名叫	-11.2031
建立在	-11.2032
附件二	-11.2034
瞧	-11.2038
舞会	-11.2039
指导原则	-11.2039
给人	-11.2039
▁78.	-11.204
肚子	-11.204
在家里	-11.204
内陆发展中国家	-11.2041
归还	-11.2042
教育部	-11.2044
打造	-11.2045
我们得	-11.2045
现在就	-11.2046
访问了	-11.2047
刑法典	-11.2049
延期	-11.205
有何	-11.2051
包围	-11.2052
套房	-11.2052
启动了	-11.2053
供应链	-11.2053
仍然存在	-11.2053
两级	-11.2054
提交的报告	-11.2056
能看到	-11.2056
卧室	-11.2057
迫害	-11.2058
妊娠	-11.2058
世界人权宣言	-11.2058
天啊	-11.2058
inf	-11.206
代理人	-11.2061
向上	-11.2062
周围的	-11.2064
在今后	-11.2065
做一个	-11.2066
适用的	-11.2066
的前	-11.2068
有力	-11.2068
迎	-11.207
递	-11.207
走上	-11.2071
艇	-11.2072
她就	-11.2072
放射性	-11.2074
宝贵的	-11.2075
方案预算	-11.2076
教材	-11.2079
▁行预咨委会	-11.2079
预言	-11.208
将需要	-11.208
是为	-11.2084
四处	-11.2088
行为体	-11.209
只是个	-11.209
飞行员	-11.2091
大臣	-11.2092
签发	-11.2092
伤心	-11.2095
托马斯	-11.2097
厘米	-11.2098
猜测	-11.2098
征收	-11.2099
社会服务	-11.2104
工业化	-11.2104
拓展	-11.2106
就这么	-11.2106
预防措施	-11.2107
制成	-11.2115
搅拌	-11.2116
采取步骤	-11.2118
的政府	-11.2118
济	-11.2121
ah	-11.2125
抛弃	-11.2128
首要	-11.2129
为您	-11.2129
公共政策	-11.2131
/54/	-11.2134
在阿富汗	-11.2134
绘制	-11.2135
逃跑	-11.2136
化工	-11.2137
对那些	-11.2138
间隔	-11.2139
哥哥	-11.2139
赞赏地注意到	-11.214
很长时间	-11.2141
驻地协调员	-11.2141
其中有	-11.2142
统一的	-11.2146
很低	-11.2147
詹姆斯	-11.2149
基本的	-11.2149
水晶	-11.215
110	-11.215
结合起来	-11.2152
仅限于	-11.2152
企	-11.2152
▁马	-11.2152
惊讶	-11.2153
é	-11.2154
摔	-11.2154
保护儿童	-11.2156
国家行动计划	-11.2157
蠢	-11.2158
iv	-11.2159
健全	-11.216
格林	-11.2163
树立	-11.2164
也需要	-11.2166
达成共识	-11.2167
中的一个	-11.2172
的发生	-11.2172
共和国总统	-11.2172
的初步	-11.2173
停车场	-11.2173
简介	-11.2175
并请	-11.2178
行走	-11.2178
英镑	-11.2179
重力	-11.218
孤儿	-11.218
两大	-11.218
妇	-11.2183
.9/	-11.2183
世界杯	-11.2186
1.5	-11.2186
户外	-11.2186
精英	-11.2188
选用	-11.2189
俄国	-11.2189
来解决	-11.2191
在某些情况下	-11.2194
演示	-11.2194
很喜欢	-11.2194
恰当	-11.2196
看到你	-11.2197
拱	-11.2197
▁所以我们	-11.22
就算	-11.22
农药	-11.2201
只是一个	-11.2201
▁他们是	-11.2202
款规定	-11.2202
说的是	-11.2203
▁77.	-11.2207
城堡	-11.2207
/5	-11.2208
杰克逊	-11.2214
塑造	-11.2215
下周	-11.2219
联合国在	-11.2222
一揽子	-11.2223
靶	-11.2223
%	-11.2223
设计和	-11.2223
替代品	-11.2223
多媒体	-11.2223
磨损	-11.2224
军火	-11.2225
案情	-11.2228
碗	-11.223
发出了	-11.2234
砍	-11.2234
你不会	-11.2234
擅长	-11.2235
了一下	-11.2237
在世界	-11.2239
的财政	-11.2242
和文化	-11.2243
html	-11.2244
知道吗	-11.2244
恒星	-11.2246
做事	-11.2247
1986	-11.2248
的案文	-11.2251
可爱的	-11.2252
人选	-11.2254
注意力	-11.2254
!-	-11.2255
扑	-11.2255
干吗	-11.2256
弟	-11.2257
影响了	-11.2257
提出的问题	-11.2258
名妇女	-11.2258
一路	-11.2258
的特别	-11.2258
巴士	-11.2259
的车	-11.2259
马尔	-11.2259
出色的	-11.2262
违法	-11.2263
聚合	-11.2263
ibm	-11.2263
的前景	-11.2264
内部审计	-11.2264
觉得自己	-11.2266
记载	-11.2266
在里面	-11.2267
美好的	-11.2267
对称	-11.2267
岁以下	-11.2269
在伦敦	-11.2269
荒	-11.227
祝福	-11.2273
有毒	-11.2275
的路	-11.2277
提供资料	-11.2277
用的	-11.2277
的效力	-11.2277
画面	-11.2278
抵押	-11.228
坦克	-11.228
祖国	-11.228
讲述	-11.2282
二级	-11.2282
火星	-11.2283
产生影响	-11.2286
不断增加	-11.2286
列出了	-11.2287
领域中	-11.2288
政策的	-11.2288
▁欢迎	-11.2288
▁他认为	-11.2289
仰	-11.2291
2002-2003	-11.2291
童工	-11.2292
一次性	-11.2293
铸	-11.2293
▁工作组	-11.2294
的时代	-11.2295
卧	-11.2298
该方法	-11.2298
伞	-11.2299
情节	-11.23
一千	-11.2305
然后再	-11.2305
怎么做	-11.2305
革	-11.2305
都不会	-11.2309
来实现	-11.2311
还说	-11.2311
第六条	-11.2316
核算	-11.2316
概要	-11.2316
大使馆	-11.2318
不同意	-11.2319
的解决办法	-11.232
场比赛	-11.232
社会中	-11.2321
查尔斯	-11.2322
▁为什么不	-11.2323
布置	-11.2325
往往是	-11.2325
▁这将	-11.2326
地毯	-11.2327
英国人	-11.2327
▁但如果	-11.2328
船上	-11.2329
▁奥	-11.233
facebook	-11.2331
包含了	-11.2334
配套	-11.2335
要想	-11.2337
更快	-11.2337
妹妹	-11.234
190	-11.2343
ap	-11.2343
千万	-11.2344
享用	-11.2344
州的	-11.2346
弧	-11.2347
窄	-11.235
轻易	-11.235
特权	-11.2351
人家	-11.2352
四十	-11.2353
的那	-11.2353
据此	-11.2354
卫生保健	-11.2356
根据其	-11.236
hu	-11.236
很简单	-11.236
确保在	-11.2361
城市化	-11.2361
诉诸	-11.2362
军事人员	-11.2363
涂层	-11.2366
扁	-11.2367
这是个	-11.2367
im	-11.2369
人文	-11.2371
期内	-11.2371
回头	-11.2374
鲍	-11.2376
造型	-11.2376
通往	-11.2379
摩托车	-11.2387
撕	-11.2389
配方	-11.239
武力	-11.2391
实习	-11.2392
牛肉	-11.2392
溪	-11.2392
一向	-11.2393
这件	-11.2393
星期二	-11.2394
一致认为	-11.2395
分化	-11.2395
教室	-11.2396
并强调	-11.2397
死的	-11.2397
使它	-11.2397
灵感	-11.2399
拟议预算	-11.24
会面	-11.2401
▁因为她	-11.2401
没有必要	-11.2402
晓	-11.2403
支持者	-11.2406
总会	-11.2407
国际机构	-11.2409
联检组	-11.241
指向	-11.2412
开口	-11.2413
徒	-11.2413
留下了	-11.2414
诚	-11.2415
进程的	-11.2415
载体	-11.2416
面板	-11.2418
稍微	-11.2422
提案国	-11.2422
并提出	-11.2422
因为她	-11.2425
被指控	-11.2425
设备和	-11.2426
吵	-11.2427
诞生	-11.2428
发了言	-11.2429
夜间	-11.2431
在该国	-11.2431
裂缝	-11.2431
世界贸易组织	-11.2432
船长	-11.2434
牙齿	-11.2434
工作方法	-11.2436
行政和	-11.244
挂钩	-11.244
根除	-11.2441
医疗保健	-11.2445
不一致	-11.2445
幼儿	-11.2446
懒	-11.2449
诱惑	-11.245
保险公司	-11.245
▁不会	-11.245
的联合	-11.2451
缓冲	-11.2452
的主流	-11.2454
三大	-11.2455
最多的	-11.2455
延伸	-11.2457
伊斯兰教	-11.2458
通过一项	-11.2459
▁准备	-11.2459
华尔街	-11.246
经社理事会	-11.246
深信	-11.246
载列	-11.246
尝	-11.2461
眼泪	-11.2464
-0	-11.2465
的和平	-11.2466
这只是	-11.2467
罪恶	-11.2468
2020	-11.2468
迈克尔	-11.2469
镜子	-11.2473
去看看	-11.2477
的局势	-11.2477
楼梯	-11.2477
越多	-11.2479
砸	-11.2479
方法和	-11.248
▁直到	-11.2481
吴	-11.2484
打败	-11.2485
你喜欢	-11.2485
灾	-11.2491
祭	-11.2493
咨询意见	-11.2494
多元化	-11.2495
正在进行	-11.2498
里有	-11.2498
辣	-11.2498
和培训	-11.2499
即使是	-11.2499
把手	-11.25
建立起	-11.2504
银行业	-11.2505
踏	-11.2506
君	-11.2506
句子	-11.2506
的财务	-11.2508
搜寻	-11.251
纷纷	-11.251
多人	-11.2511
中最	-11.2511
就行了	-11.2512
执法人员	-11.2513
行政管理	-11.2514
受损	-11.2515
的主要原因	-11.2517
拆除	-11.2519
的框架内	-11.2521
燃油	-11.2523
地形	-11.2523
染色	-11.2526
常规武器	-11.2526
这些努力	-11.2526
但你	-11.2527
克拉	-11.2527
城市的	-11.2527
走过	-11.2528
对其进行	-11.2528
量子	-11.2529
雇	-11.2529
四分之一	-11.253
纳米比亚	-11.253
力学	-11.253
该文件	-11.2531
拜访	-11.2531
▁我看	-11.2535
促进了	-11.2536
各州	-11.2536
罚	-11.2537
融	-11.2537
外地办事处	-11.2538
键盘	-11.2538
乘坐	-11.2543
施行	-11.2543
签署的	-11.2544
其中一些	-11.2545
洛克	-11.2545
长期以来	-11.2548
最优	-11.2549
政府部门	-11.2549
锯	-11.255
字符串	-11.2551
▁昨晚	-11.2551
史上	-11.2553
深圳	-11.2553
岗	-11.2555
他们也	-11.2556
bar	-11.2557
薄弱	-11.2558
都应	-11.2558
打扰	-11.2561
加强其	-11.2562
姐妹	-11.2562
酱	-11.2563
队的	-11.2564
描述了	-11.2566
家中	-11.2566
采取的措施	-11.2568
社会福利	-11.2568
一起去	-11.257
等一下	-11.257
爱沙尼亚	-11.257
google	-11.257
昌	-11.257
车上	-11.2571
均可	-11.2571
大门	-11.2573
震惊	-11.2576
明确规定	-11.2577
的迹象	-11.2578
▁当然了	-11.2579
爱的	-11.258
优先考虑	-11.2581
看不见	-11.2581
期刊	-11.2581
贝宁	-11.2582
▁你们两个	-11.2582
一枚	-11.2583
根源	-11.2585
td	-11.2585
补充说	-11.2586
后代	-11.2586
恶魔	-11.2587
神的	-11.2587
上文	-11.2588
有几个	-11.2591
▁本发明	-11.2592
数百	-11.2592
网址	-11.2597
望远镜	-11.2601
黛	-11.2601
ve	-11.2604
▁很抱歉	-11.2604
几点	-11.2606
▁我记得	-11.2608
必须确保	-11.2608
联合国秘书长	-11.2609
管理者	-11.2609
▁图	-11.2609
扩大到	-11.2611
他是个	-11.2612
陷	-11.2612
个案	-11.2612
撤	-11.2612
国际劳工组织	-11.2613
人们的	-11.2615
临界	-11.2618
真诚	-11.2618
特别关注	-11.2618
金融市场	-11.262
生活方式	-11.2623
岁时	-11.2624
排水	-11.2625
生产商	-11.2625
的范围内	-11.2627
举报	-11.2629
免遭	-11.2629
侮辱	-11.2631
髓	-11.2633
的秘密	-11.2634
标准和	-11.2634
大会主席	-11.2634
很久	-11.2636
你最好	-11.2638
评定	-11.2642
土著民族	-11.2645
可以使	-11.2646
的汽车	-11.2647
的合同	-11.2649
发展目标	-11.265
呼叫	-11.2652
所在地	-11.2653
平等的	-11.2653
溶液	-11.2654
怪物	-11.2655
▁我将	-11.2657
所要求的	-11.2658
目的在于	-11.2658
州长	-11.2661
部委	-11.2663
特派团的	-11.2663
箭	-11.2665
的电影	-11.2666
裁	-11.2666
斯塔	-11.2669
自豪	-11.267
良好做法	-11.2671
当我们	-11.2671
就好像	-11.2671
保卫	-11.2673
使人们	-11.2673
2.5	-11.2673
所有其他	-11.2673
你看	-11.2674
斯基	-11.2675
名人	-11.2676
脆弱性	-11.2677
▁最终	-11.2677
其后	-11.268
更有效地	-11.2681
投标	-11.2685
罗伯特	-11.2685
迹象	-11.2688
上课	-11.2691
不算	-11.2692
传染	-11.2692
灌溉	-11.2693
指导方针	-11.2695
判定	-11.2696
触发	-11.27
给自己	-11.2701
不定	-11.2702
当成	-11.2702
胚	-11.2703
瞎	-11.2703
普通的	-11.2704
辊	-11.2706
大约有	-11.2707
郎	-11.2708
侵犯人权行为	-11.2708
疑	-11.2709
卷入	-11.271
san	-11.2711
执行任务	-11.2712
和政策	-11.2714
在全国	-11.2715
四周	-11.2716
土著人	-11.2718
不动	-11.2718
cl	-11.2721
什麽	-11.2722
战略和	-11.2722
年为	-11.2723
洒	-11.2723
喉	-11.2723
▁作为一个	-11.2724
看我	-11.2724
om	-11.2725
1985	-11.2725
舒适的	-11.2727
我才	-11.2727
的关切	-11.2729
▁80.	-11.2729
就不	-11.273
社团	-11.273
的内部	-11.2733
南苏丹	-11.2735
郊区	-11.2736
仔	-11.2736
的工资	-11.2737
本书	-11.2737
姓	-11.2738
货运	-11.2738
看你	-11.2738
水稻	-11.2739
获胜	-11.2741
不仅仅	-11.2741
mm	-11.2742
它对	-11.2743
是被	-11.2743
相符	-11.2744
冲动	-11.2746
爱我	-11.2747
桃	-11.2748
当他	-11.2749
▁天哪	-11.275
对这一	-11.2754
鞭	-11.2754
非正式协商	-11.2756
亨利	-11.2759
的含量	-11.276
切断	-11.276
很有可能	-11.2765
pi	-11.2766
因为在	-11.2767
识	-11.2771
▁预计	-11.2771
辉	-11.2771
对他的	-11.2771
第四次	-11.2773
锥	-11.2773
宽带	-11.2773
在审议	-11.2774
▁现在你	-11.2775
那条	-11.2776
▁81.	-11.2776
建成	-11.2777
两只	-11.2779
跟你说	-11.278
可疑	-11.278
不上	-11.278
发给	-11.2781
的那种	-11.2781
戴着	-11.2781
国务院	-11.2783
苏丹政府	-11.2783
▁做	-11.2783
执	-11.2784
只好	-11.2785
▁你为什么	-11.2785
哪种	-11.2786
坐标	-11.2788
的职业	-11.2788
警务	-11.2791
定居	-11.2792
八个	-11.2793
▁除非	-11.2793
南京	-11.2794
事态发展	-11.2795
在其他	-11.2795
踩	-11.2796
向委员会	-11.2796
捕捞	-11.2797
儿童保护	-11.2797
感应	-11.2799
的记录	-11.28
▁我国代表团	-11.2801
水中	-11.2802
分成	-11.2805
向其	-11.2806
阻力	-11.2806
审美	-11.2807
硫酸	-11.2808
名册	-11.2808
星系	-11.2808
被杀	-11.281
该缔约国	-11.281
1987	-11.2811
表达了	-11.2811
的命令	-11.2812
老虎	-11.2812
之旅	-11.2813
一顿	-11.2814
协商一致	-11.2814
徐	-11.2816
暴力和	-11.2817
昂	-11.2818
密切相关	-11.2818
锁定	-11.282
小小的	-11.282
不变	-11.2821
见到你	-11.2822
的合成	-11.2823
绒	-11.2824
提供信息	-11.2824
难过	-11.2827
过得	-11.2828
学术界	-11.2828
从来不	-11.2834
的主	-11.2836
排序	-11.2838
动画	-11.2838
下一步	-11.2839
不清	-11.284
释	-11.2841
审查会议	-11.2842
其他一些	-11.2844
用了	-11.2845
意义上	-11.2847
屑	-11.2847
windows	-11.2847
1970	-11.2849
▁79.	-11.2849
从中	-11.285
国家警察	-11.2852
监测和评价	-11.2855
滑雪	-11.2855
研究中	-11.2857
fccc	-11.2858
严重影响	-11.2859
构想	-11.2859
下降了	-11.286
另一项	-11.286
中美洲	-11.286
启发	-11.286
训	-11.2861
辈	-11.2861
残疾儿童	-11.2864
中央银行	-11.2864
是你的	-11.2865
的艺术	-11.2865
核准的	-11.2866
外包	-11.2868
跑步	-11.2868
$	-11.2868
意志	-11.2871
在促进	-11.2872
借口	-11.2872
写道	-11.2873
发展中	-11.2874
民警	-11.2876
世界上最	-11.2877
脊	-11.2878
暴力侵害	-11.2878
西岸	-11.2878
条和第	-11.2879
自由化	-11.2879
▁电子	-11.288
言语	-11.288
我们希望	-11.2881
应该在	-11.2881
的临床	-11.2882
的员工	-11.2885
的大小	-11.2887
地球上	-11.2888
饱	-11.2889
卡特	-11.289
装修	-11.2891
过后	-11.2891
你去	-11.2892
微观	-11.2893
界限	-11.2893
超市	-11.2896
映射	-11.2897
激进	-11.2898
▁宝贝	-11.2898
锦	-11.29
格尔	-11.29
厄	-11.2901
的能量	-11.2901
与之	-11.2904
据报	-11.2904
常驻代表团	-11.2907
在我国	-11.2909
的味道	-11.291
核能	-11.291
在当地	-11.2913
▁你需要	-11.2913
有效执行	-11.2915
范围的	-11.2915
会把	-11.2915
出席了	-11.2916
器的	-11.2917
发展合作	-11.2917
160	-11.2917
印尼	-11.2917
资源和	-11.2918
的科学	-11.2919
的客户	-11.292
)[	-11.292
不适合	-11.292
爱德华	-11.292
马耳他	-11.2921
平稳	-11.2923
既有	-11.2924
的财产	-11.2924
颇	-11.2924
变性	-11.2926
续会	-11.2929
▁有些人	-11.293
阵地	-11.2934
宴会	-11.2935
源自	-11.2936
添	-11.2937
淋	-11.2937
跃	-11.2939
你已经	-11.2939
柴	-11.294
法则	-11.2941
策	-11.2941
治愈	-11.2942
蒙特利尔议定书	-11.2942
指派	-11.2943
它可以	-11.2943
强劲	-11.2944
保护人权	-11.2944
古典	-11.2944
标志着	-11.2945
精彩	-11.2946
难度	-11.2947
洪都拉斯	-11.2952
受过	-11.2954
的动物	-11.2955
跟她	-11.2956
为他们	-11.2956
中药	-11.2958
想去	-11.296
性行为	-11.2962
屠杀	-11.2962
▁现代	-11.2964
毁坏	-11.2964
预订	-11.2965
的效率	-11.2965
构成部分	-11.2965
想着	-11.2966
手法	-11.2966
磁盘	-11.2972
你知道吗	-11.2973
土库曼斯坦	-11.2973
视野	-11.2974
西南	-11.2975
idb	-11.2976
伴随着	-11.2976
十四	-11.2978
自卫	-11.298
残留	-11.2981
说到	-11.2982
▁我真	-11.2983
提高对	-11.2983
详情	-11.2984
在网上	-11.2985
创立	-11.2988
重要的是	-11.2994
国际人权	-11.2995
海域	-11.2996
提供咨询	-11.2996
跟随	-11.2997
车站	-11.2997
哥们	-11.2998
1.2	-11.2999
但不	-11.2999
放置	-11.3
廉价	-11.3001
实务	-11.3001
不再是	-11.3001
男生	-11.3002
毛额	-11.3003
仪表	-11.3004
▁我应该	-11.3005
破碎	-11.3006
休假	-11.3006
va	-11.3007
hrc	-11.3007
数码	-11.3008
兑现	-11.3009
抵消	-11.3009
蒸发	-11.3012
ok	-11.3012
颗	-11.3012
▁下午	-11.3015
杀伤人员地雷	-11.3015
词语	-11.3016
民用	-11.3016
暴力侵害妇女行为	-11.3018
大规模的	-11.302
/52/	-11.302
琼斯	-11.3021
赞	-11.3022
等你	-11.3024
还有一些	-11.3025
试验方法	-11.3025
把钱	-11.3025
翅膀	-11.3026
挣扎	-11.3026
秋天	-11.3026
着我	-11.3027
数值模拟	-11.303
等我	-11.303
疾病的	-11.3031
假如	-11.3032
德拉	-11.3032
生病	-11.3032
▁摘要	-11.3033
放射	-11.3035
嫉妒	-11.3036
嫩	-11.3036
研	-11.3037
rs	-11.3039
▁一名	-11.3039
送交	-11.3039
最早	-11.304
发票	-11.3043
我相信	-11.3043
捕	-11.3044
孤	-11.3044
葬	-11.3045
势头	-11.3046
铬	-11.3046
收音机	-11.3047
半导体	-11.3048
公告	-11.3049
却不	-11.3052
送给	-11.3056
▁为什么你	-11.3058
礼貌	-11.306
平常	-11.3061
缸	-11.3061
那次	-11.3061
的研究进展	-11.3063
伦理	-11.3063
饱和	-11.3065
俩	-11.3065
所有相关	-11.3066
磷酸	-11.3068
冲突的	-11.3068
坦桑尼亚联合共和国	-11.3068
出租	-11.3069
坐下	-11.307
继续支持	-11.307
出台	-11.3072
可怜的	-11.3074
反映在	-11.3075
棉花	-11.3075
上诉法院	-11.3077
亡	-11.3077
调试	-11.3078
(《	-11.3083
不舒服	-11.3084
左边	-11.3085
模特	-11.3086
原则上	-11.3088
弓	-11.3089
遇到了	-11.309
fo	-11.3091
第八	-11.3091
瓦尔	-11.3093
计算方法	-11.3093
有资格	-11.3094
7/	-11.3098
的用户	-11.3099
抓到	-11.31
魔鬼	-11.3101
新娘	-11.3106
教导	-11.3107
证实了	-11.311
/2006/	-11.3111
的暴力	-11.3112
宏观	-11.3112
润	-11.3113
早些时候	-11.3114
▁以前	-11.3115
毫无疑问	-11.3123
的实验研究	-11.3124
▁第四	-11.3125
au	-11.3126
好事	-11.3127
设计了	-11.3128
继续与	-11.3129
生产和	-11.3129
生涯	-11.313
角落	-11.3134
发展问题	-11.3136
和组织	-11.3142
一堆	-11.3142
▁香港	-11.3143
没有一个	-11.3143
的准则	-11.3143
联合国大会	-11.3146
定性	-11.3147
要做	-11.3147
到一个	-11.3147
加载	-11.3147
以其	-11.3148
尊重人权	-11.3148
的各个	-11.3149
定向	-11.315
南亚	-11.3151
底下	-11.3151
的补充	-11.3151
的审查	-11.3152
▁离	-11.3152
彻	-11.3152
预报	-11.3155
锚	-11.3155
名誉	-11.3156
▁是不是	-11.3157
患者的	-11.3157
ber	-11.3159
女友	-11.3159
实效	-11.316
胁迫	-11.316
人受伤	-11.3163
战略框架	-11.3164
性质的	-11.3165
时期的	-11.3166
尤为	-11.3167
国家报告	-11.3168
股权	-11.3169
限制了	-11.3169
或其	-11.317
▁一般	-11.3174
内部监督事务厅	-11.3174
游泳池	-11.3176
营造	-11.3177
被动	-11.3177
通过对	-11.3178
美军	-11.318
劳动者	-11.318
说法	-11.318
以及为	-11.318
性骚扰	-11.3181
了她	-11.3182
发现自己	-11.3182
政府对	-11.3183
本次级方案	-11.3184
业已	-11.3185
阿里	-11.3186
一句话	-11.3186
他已经	-11.3186
阴谋	-11.3186
我了	-11.3187
童年	-11.3187
的武器	-11.3188
专长	-11.3188
的交易	-11.3188
帅	-11.3189
捕鱼	-11.3189
司法部门	-11.319
儿童和	-11.319
▁议程项目	-11.3191
以协助	-11.3193
饮用水	-11.3194
新增	-11.3195
公斤	-11.3197
斐济	-11.3197
▁我听说	-11.3198
查找	-11.32
职业培训	-11.3201
降解	-11.3203
征服	-11.3207
拉脱维亚	-11.3207
渗	-11.3208
促进和保护人权	-11.3208
摘	-11.3208
省份	-11.321
以解决	-11.321
▁把他	-11.321
星期六	-11.3211
守则	-11.3214
大街	-11.3214
南北	-11.3215
和区域	-11.3215
ag	-11.3217
老兄	-11.3219
前任	-11.3219
的尸体	-11.3219
但她	-11.322
▁水	-11.322
进一步发展	-11.322
为之	-11.3223
做好准备	-11.3225
▁再见	-11.3225
的指导	-11.3226
吉尔吉斯斯坦	-11.3226
2-	-11.3228
留下来	-11.3228
没想到	-11.3229
的课程	-11.323
以供	-11.323
被用来	-11.3231
的申请	-11.3233
凭借	-11.3235
conf	-11.3237
其中的	-11.3238
反恐怖主义	-11.3238
结晶	-11.3238
非常好	-11.3239
的辩论	-11.3241
扶	-11.3241
重返	-11.3243
核准了	-11.3244
的生物	-11.3245
贩毒	-11.3247
:(	-11.3248
教徒	-11.3249
布拉	-11.3252
掌控	-11.3252
ur	-11.3253
所知	-11.3254
聘	-11.3254
三分之一	-11.3254
城里	-11.3256
的行政	-11.3257
夸	-11.326
扩	-11.3262
批判	-11.3263
和民间社会	-11.3264
高峰	-11.3264
房产	-11.3264
伪造	-11.3265
惩处	-11.3265
有益的	-11.3265
手套	-11.3265
口腔	-11.3266
并由	-11.3267
问问	-11.3269
环境问题	-11.327
一个星期	-11.3273
政治家	-11.3275
分手	-11.3279
天哪	-11.3279
高质量	-11.328
棕色	-11.328
che	-11.3283
▁我觉得我	-11.3283
涅	-11.3283
血压	-11.3283
弹簧	-11.3283
兼顾	-11.3283
过去了	-11.3284
字段	-11.3285
太多了	-11.3286
提供便利	-11.3288
上床	-11.3288
坐着	-11.3289
东亚	-11.3289
联合国环境规划署	-11.329
两条	-11.3292
奴	-11.3294
▁负责	-11.3294
女孩子	-11.3295
饼干	-11.3295
车子	-11.3296
是对的	-11.3297
这笔	-11.3297
的性能	-11.3298
的妻子	-11.3298
歌唱	-11.3301
证件	-11.3301
全球环境基金	-11.3302
托管	-11.3302
结果显示	-11.3302
代表团认为	-11.3303
如果不	-11.3303
▁每年	-11.3304
干预措施	-11.3304
星期三	-11.3305
皇帝	-11.3305
走路	-11.3306
集群	-11.3306
▁拉	-11.3306
访谈	-11.3307
参加者	-11.3309
实际上是	-11.3309
温和	-11.3311
的捐款	-11.3312
所属	-11.3312
广义	-11.3312
必要时	-11.3315
市政	-11.3316
培育	-11.3316
提出了一种	-11.3317
经纪人	-11.3318
族群	-11.3318
乃至	-11.3321
以色列人	-11.3323
昏	-11.3324
捕获	-11.3324
必须是	-11.3325
众议院	-11.3327
我必须	-11.3328
▁奥巴马	-11.3329
黏	-11.3331
环境规划署	-11.3331
爱好	-11.3332
的情形	-11.3333
非正式磋商	-11.3333
交货	-11.3333
先知	-11.3334
帝	-11.3334
愈	-11.3335
有力的	-11.3336
放进	-11.3336
伍德	-11.3336
煤炭	-11.3338
唱片	-11.334
很有趣	-11.334
挽救	-11.334
信息交流	-11.334
调控	-11.3343
奥巴马总统	-11.3345
书写	-11.3346
赔	-11.3347
批准的	-11.3348
嘲笑	-11.3349
摄	-11.3349
锋	-11.3349
压迫	-11.3349
切尔西	-11.335
的根本	-11.3351
按时	-11.3351
亏	-11.3352
单纯	-11.3354
马拉	-11.3356
行为守则	-11.3356
的事项	-11.3356
01	-11.3359
动用	-11.3359
巴拉圭	-11.336
赴	-11.336
可能对	-11.3361
胎儿	-11.3361
免费的	-11.3361
我对	-11.3362
大人	-11.3363
高科技	-11.3363
番	-11.3363
▁安	-11.3366
的一次	-11.3369
立陶宛	-11.3369
我应该	-11.337
这使得	-11.3372
建立信任措施	-11.3373
进入了	-11.3373
爷爷	-11.3374
挣	-11.3374
塔吉克斯坦	-11.3374
的独立	-11.3374
寸	-11.3375
就其	-11.3376
为一个	-11.3378
自由和	-11.3379
非政府组织和	-11.3379
任何东西	-11.338
年度会议	-11.3381
公共行政	-11.3381
把你的	-11.3382
可怜	-11.3382
会发生	-11.3387
顶部	-11.3388
的特性	-11.3388
养护	-11.3388
联合国秘书处	-11.339
幽默	-11.3392
一开始	-11.3393
立体	-11.3393
有关各方	-11.3394
施政	-11.3394
预防性	-11.3394
附带	-11.3396
入住	-11.3398
在某些	-11.3399
▁在这里	-11.34
调制	-11.3402
的模式	-11.3402
几十年	-11.3402
塞尔	-11.3403
僵局	-11.3404
军事行动	-11.3409
所使用的	-11.341
第二阶段	-11.3411
自决	-11.3412
的信任	-11.3413
日举行	-11.3414
附加议定书	-11.3416
星球	-11.342
ali	-11.3421
▁他对	-11.3422
我是个	-11.3423
发布的	-11.3424
并无	-11.3424
也被	-11.3425
的一位	-11.3427
减肥	-11.3427
植入	-11.3434
份额	-11.3435
掩盖	-11.3435
眉	-11.3435
mr	-11.3436
就该	-11.3437
人人都	-11.3438
安理会成员	-11.3439
将从	-11.344
突变	-11.344
▁伊	-11.3444
钛	-11.3444
棋	-11.3444
星期天	-11.3449
不相信	-11.345
的进展情况	-11.3451
▁特别是	-11.3452
▁接着	-11.3453
均有	-11.3455
下一	-11.3456
的直接	-11.3456
我一直	-11.3457
深化	-11.3458
第三十	-11.346
罢了	-11.346
▁不好意思	-11.3461
个国家的	-11.3462
吸引力	-11.3463
站起来	-11.3463
开门	-11.3463
启	-11.3464
这一事实	-11.347
ton	-11.3471
的官员	-11.3471
氨酸	-11.3473
的优点	-11.3473
就没有	-11.3474
长远	-11.3476
使用武力	-11.3477
我想要	-11.3477
演说	-11.348
但其	-11.3481
半岛	-11.3482
恐慌	-11.3482
破坏了	-11.3483
下属	-11.3485
几位	-11.3485
实物	-11.3486
二者	-11.3487
丧	-11.3489
笨	-11.3489
制定一项	-11.3491
哀	-11.3491
提供必要的	-11.3493
非洲大陆	-11.3493
决赛	-11.3495
开始时	-11.3496
弟弟	-11.3496
淡水	-11.3496
▁因	-11.3496
但仍	-11.3497
外地特派团	-11.3497
一口	-11.3498
你说的	-11.3499
收容	-11.3503
关切地注意到	-11.3503
拉丁美洲和加勒比	-11.3507
温柔	-11.3511
人权教育	-11.3511
流感	-11.3511
的一系列	-11.3513
魂	-11.3513
祷告	-11.3514
性能的影响	-11.3514
殴打	-11.3514
扶持	-11.3514
dc	-11.3514
在日本	-11.3515
的网络	-11.3515
的真正	-11.3515
未知	-11.3516
本公约	-11.3516
要用	-11.3517
搭配	-11.3517
箱子	-11.3517
的支出	-11.3517
往来	-11.3517
防守	-11.3518
过高	-11.3518
专注于	-11.3519
6000	-11.3521
中获得	-11.3522
非法贩运	-11.3522
的细节	-11.3524
的疗效	-11.3524
转到	-11.3525
炭	-11.3528
进球	-11.353
阳性	-11.353
原来的	-11.3531
晚期	-11.3532
进行讨论	-11.3535
境	-11.3535
阶级	-11.3536
就需要	-11.3537
与他	-11.3537
事务部	-11.3538
氯化	-11.3539
入学率	-11.354
刑罚	-11.3541
的美国	-11.3541
来做	-11.3544
早日	-11.3544
而且在	-11.3546
学到	-11.3547
珍珠	-11.3548
可以帮助	-11.3548
抬	-11.3554
的居民	-11.3556
接管	-11.3557
进行谈判	-11.356
保养	-11.3561
含义	-11.3561
在日内瓦	-11.3562
是什么意思	-11.3562
是正确的	-11.3564
艰苦	-11.3566
喝了	-11.3566
该条约	-11.3567
将它	-11.3568
桌上	-11.3568
▁总之	-11.3569
十字	-11.3569
格局	-11.3569
文件夹	-11.3571
长期的	-11.3572
知道他	-11.3573
递交	-11.3575
帮助他们	-11.3575
和法律	-11.3577
研究和	-11.3579
阀门	-11.358
看到的	-11.358
邻近	-11.3586
了自己的	-11.3587
相一致	-11.3587
别人的	-11.3589
计划在	-11.359
特遣队	-11.359
养恤基金	-11.3592
概括	-11.3592
痕	-11.3593
持续的	-11.3595
经济和社会发展	-11.3595
端口	-11.3597
建立了一个	-11.36
非洲的	-11.36
特设工作组	-11.3603
章节	-11.3604
在英国	-11.3604
▁83.	-11.3605
十三	-11.3605
还可	-11.3605
厂商	-11.3605
右边	-11.3607
从前	-11.3608
芳	-11.3609
你将	-11.361
革新	-11.361
热点	-11.3611
但对	-11.3611
和教育	-11.3612
出的	-11.3613
中非	-11.3613
卜	-11.3614
蓄意	-11.3615
侵入	-11.3615
▁总	-11.3617
在处理	-11.3618
不是你	-11.3619
不肯	-11.362
亚太	-11.362
拉斯	-11.3622
击败	-11.3626
停下	-11.3628
境外	-11.3629
心肌	-11.363
无可	-11.363
▁如果是	-11.3631
兔子	-11.3631
而这	-11.3631
你们俩	-11.3631
先生阁下	-11.3632
漫画	-11.3632
敏感性	-11.3633
cs	-11.3635
发展议程	-11.3635
表现为	-11.3636
两份	-11.3637
基本建设总计划	-11.3637
变压器	-11.3637
首席执行官	-11.3637
车队	-11.3638
▁82.	-11.3639
的重要组成部分	-11.3639
的职位	-11.3639
棒球	-11.3639
har	-11.3639
提供的资料	-11.364
几乎所有	-11.3641
说她	-11.3643
有意思	-11.3643
受害	-11.3644
取消了	-11.3647
饿	-11.3647
完全是	-11.3647
岭	-11.3648
大自然	-11.365
的联合国	-11.3651
/1999/	-11.3653
补助金	-11.3654
国际原子能机构	-11.3655
分列的	-11.3657
一副	-11.3658
微波炉	-11.366
原型	-11.3661
这三个	-11.3662
的首要	-11.3662
货币政策	-11.3662
▁缔约国	-11.3663
▁本文介绍了	-11.3664
1967	-11.3666
of	-11.3666
▁在这些	-11.3666
表述	-11.3668
cr	-11.3668
可以让	-11.3668
顶级	-11.3669
有罪	-11.3669
基督徒	-11.3671
最后一	-11.3673
庞大的	-11.3673
奉献	-11.3675
还不	-11.3675
消除贫困	-11.3676
▁乔	-11.3677
油气	-11.3677
躲	-11.3678
查理	-11.368
不限成员名额工作组	-11.3681
是我国	-11.3683
还得	-11.3683
委员会决定	-11.3685
一分钟	-11.3687
还对	-11.3689
生产能力	-11.3689
该国的	-11.3691
做成	-11.3694
听我说	-11.3694
威廉	-11.3695
出租车	-11.3697
前途	-11.3698
的比较	-11.3699
潮流	-11.3699
年内	-11.3701
一首	-11.3701
都不能	-11.3701
限定	-11.3703
现在的	-11.3704
焦点	-11.3704
编列	-11.3705
探测器	-11.3705
堤	-11.3705
姜	-11.3705
彭	-11.3705
宣告	-11.3705
帐篷	-11.3706
开拓	-11.3706
剧院	-11.3707
舒服	-11.3707
今后的	-11.3709
炼	-11.371
网球	-11.3715
谎言	-11.3716
在一些	-11.3716
救灾	-11.3717
▁突然	-11.3717
时限	-11.3718
管理部门	-11.3718
der	-11.3718
招标	-11.3718
市场准入	-11.3719
表明了	-11.372
多哥	-11.3722
第七条	-11.3724
夺	-11.3724
映	-11.3724
和设备	-11.3726
镁	-11.3727
沥青	-11.3727
备用	-11.3728
▁要是	-11.3729
粉末	-11.3729
志愿	-11.3729
一眼	-11.373
胶囊	-11.3732
放弃了	-11.3732
脑袋	-11.3732
公共汽车	-11.3733
小组成员	-11.3733
指引	-11.3733
主管当局	-11.3734
互助	-11.3734
语句	-11.3735
繁	-11.3736
发誓	-11.3737
赵	-11.3739
知识和	-11.374
极端主义	-11.374
年以上	-11.374
ut	-11.3742
了什么	-11.3743
什么是	-11.3743
可以将	-11.3749
初次	-11.3749
污水	-11.3749
应考虑	-11.375
旧金山	-11.375
事件的	-11.375
指导委员会	-11.3751
析	-11.3752
职业生涯	-11.3752
转动	-11.3753
强行	-11.3753
的探讨	-11.3753
身份证	-11.3754
登录	-11.3755
发达	-11.3755
行径	-11.3756
可获得	-11.3757
/68/	-11.3757
做的事情	-11.3758
起来了	-11.3759
柔软	-11.376
昂贵	-11.3761
医师	-11.3762
欧安组织	-11.3762
碘	-11.3762
▁你是	-11.3762
▁如何	-11.3763
加重	-11.3764
应继续	-11.3765
猴	-11.3766
这样说	-11.3766
感冒	-11.3766
东欧	-11.3767
布里	-11.3767
盒子	-11.3767
曼联	-11.3768
海牙	-11.3769
大胆	-11.3769
磁场	-11.3769
不错的	-11.377
-6	-11.377
需求的	-11.377
外表	-11.3771
保管	-11.3771
小女孩	-11.3774
▁带	-11.3775
很开心	-11.3776
一点也不	-11.3778
宾馆	-11.378
差点	-11.378
所说	-11.3781
论证	-11.3782
尊敬	-11.3783
向大会	-11.3783
克里斯	-11.3784
前所未有的	-11.3784
燕	-11.3784
研究发现	-11.3784
尼日尔	-11.3784
欣见	-11.3787
并呼吁	-11.3787
(3)	-11.3787
进出	-11.3788
和方法	-11.3788
法人	-11.3788
飞船	-11.3788
的选举	-11.3789
出门	-11.3789
处决	-11.3792
财政部	-11.3793
象征	-11.3794
▁金	-11.3794
哈里	-11.3795
丛	-11.3796
马德里	-11.3797
争夺	-11.3798
屋子	-11.3799
不容忍	-11.3799
它能	-11.38
显现	-11.3802
肖	-11.3803
▁超	-11.3805
此后	-11.3806
辉煌	-11.3807
简便	-11.3807
执行工作	-11.3809
科学研究	-11.3812
不堪	-11.3815
改动	-11.3816
▁我看到	-11.3818
贯彻	-11.3819
的债务	-11.3819
立法和	-11.3819
实验研究	-11.382
摄像机	-11.382
和支助	-11.3822
役	-11.3822
流域	-11.3823
我爱你	-11.3823
业主	-11.3824
保持一致	-11.3824
的了解	-11.3826
光电	-11.3826
科尔	-11.3827
渔	-11.3828
整天	-11.3829
和监督	-11.3831
来临	-11.3832
只是在	-11.3833
优于	-11.3833
战略性	-11.3834
开发的	-11.3835
急需	-11.3836
一个小时	-11.3837
流行病	-11.3838
和平与	-11.3838
椅子	-11.3839
了一份	-11.3839
始	-11.384
详细说明	-11.384
幽	-11.3841
传媒	-11.3842
程序的	-11.3842
对环境	-11.3845
错误的	-11.3845
礼品	-11.3845
的人民	-11.3846
我知道你	-11.3846
所用	-11.3847
看出	-11.3849
的真实	-11.385
▁咨询委员会	-11.385
年里	-11.3853
确	-11.3853
轿车	-11.3854
高频	-11.3856
合法性	-11.3857
服务和	-11.3859
▁你以为	-11.3859
的困难	-11.386
都知道	-11.386
决定在	-11.3863
说得	-11.3864
唯	-11.3864
昂贵的	-11.3865
降落	-11.3866
与中国	-11.3867
而来	-11.3868
搬到	-11.3868
解读	-11.3869
付费	-11.387
内外	-11.3871
乐趣	-11.3872
有很大	-11.3875
笛	-11.3876
社会的	-11.3876
和人权	-11.3877
特使	-11.3877
秘书长特别代表	-11.3878
卸	-11.3878
ku	-11.3879
还活着	-11.3879
伴随	-11.388
担保权	-11.388
跟我说	-11.388
的物质	-11.3882
神经网络	-11.3884
供电	-11.3886
好运	-11.3888
完毕	-11.3889
短信	-11.3889
可持续发展的	-11.3889
观察到	-11.3891
形容	-11.3892
▁该项目	-11.3893
染色体	-11.3893
平原	-11.3893
狱	-11.3894
本质	-11.3895
而成	-11.3896
新伙伴关系	-11.3896
的日期	-11.3896
海洋环境	-11.3896
段落	-11.3897
有望	-11.3897
▁85.	-11.3898
从没	-11.3898
波多黎各	-11.3899
人类住区	-11.39
一度	-11.3901
建立的	-11.3903
大厅	-11.3904
成果文件	-11.3905
芽	-11.3906
行吗	-11.3908
第二部分	-11.3908
发起了	-11.391
执行部分第	-11.3912
可以说	-11.3913
过去一年	-11.3914
较低的	-11.3914
筑	-11.3915
停留	-11.3918
引发了	-11.3921
篮	-11.3922
一份报告	-11.3923
的每一	-11.3925
铸造	-11.3925
高管	-11.3925
美食	-11.3925
▁王	-11.3926
提到的	-11.3926
美学	-11.3927
宿	-11.3928
缴	-11.3929
的礼物	-11.3929
/2003/	-11.3929
在他们	-11.393
应为	-11.3931
小男孩	-11.3933
闷	-11.3934
牧	-11.3934
观察团	-11.3935
一幅	-11.3936
理查德	-11.3936
多哈	-11.394
与此	-11.3943
前来	-11.3944
授	-11.3944
▁本文对	-11.3945
等候	-11.3945
国际法委员会	-11.3945
▁你已经	-11.3947
果实	-11.3947
的贸易	-11.3949
感动	-11.3949
信徒	-11.3949
的数额	-11.3953
发病	-11.3954
的一半	-11.3954
应包括	-11.3954
对着	-11.3955
审议大会	-11.3956
校正	-11.3956
里程碑	-11.3957
阿拉伯联合酋长国	-11.3957
传奇	-11.3959
领域内	-11.396
把我的	-11.3961
山脉	-11.3962
不确定性	-11.3963
放入	-11.3963
消失了	-11.3963
1.1	-11.3964
的信心	-11.3967
受益于	-11.3967
赋	-11.3968
一封	-11.397
1500	-11.3972
105	-11.3975
推理	-11.3977
烫	-11.3978
长久	-11.3979
体会	-11.398
撞击	-11.398
nd	-11.3981
进一步的	-11.3982
只在	-11.3982
率为	-11.3983
学生的	-11.3983
街区	-11.3984
物料	-11.3984
听众	-11.3984
存活	-11.3985
面临的挑战	-11.3987
司法和	-11.3988
维和	-11.3988
珀	-11.399
即使在	-11.3992
cedaw	-11.3992
▁84.	-11.3994
廷	-11.3994
动物园	-11.3994
▁我就是	-11.3995
折扣	-11.3996
无知	-11.3996
煤矿	-11.3998
还建议	-11.3998
越来越多地	-11.3999
来源于	-11.4
恋爱	-11.4001
我父亲	-11.4003
裙子	-11.4003
搭档	-11.4004
08	-11.4005
备份	-11.4005
瓣	-11.4006
的攻击	-11.4007
干部	-11.4008
紧张局势	-11.4008
重申其	-11.4008
浏览器	-11.4008
统筹	-11.4008
下面的	-11.4008
将向	-11.4009
身材	-11.401
较小	-11.4011
特里	-11.4012
组织了	-11.4014
卡扎菲	-11.4016
贿赂	-11.4016
:1	-11.4017
指出了	-11.4019
镀	-11.402
总体上	-11.4021
地层	-11.4022
的病人	-11.4023
膝	-11.4024
依然是	-11.4024
工作量	-11.4025
最少	-11.4026
卡片	-11.4027
做爱	-11.4028
机票	-11.4028
太大	-11.4028
回避	-11.403
埃尔	-11.4032
扩大了	-11.4033
敌对	-11.4034
享	-11.4035
第二条	-11.4035
污染物	-11.4037
应有的	-11.4039
这种事	-11.4039
厌恶	-11.4039
解释了	-11.404
规矩	-11.404
号法律	-11.4041
晋升	-11.4041
衰	-11.4041
伙计们	-11.4042
昨日	-11.4042
不等	-11.4043
主管部门	-11.4043
连同	-11.4043
位移	-11.4045
验	-11.4048
赶紧	-11.4049
将以	-11.405
荣耀	-11.4051
▁太好了	-11.4051
冷冻	-11.4057
根据大会第	-11.4057
作证	-11.4057
贝克	-11.4058
▁神	-11.4059
向所有	-11.406
tu	-11.406
://	-11.4064
就把	-11.4067
狂热	-11.4067
我们去	-11.4067
▁哇	-11.4068
独立性	-11.4068
前者	-11.4069
法制	-11.4069
很漂亮	-11.407
专家们	-11.4072
虚假	-11.4072
名儿童	-11.4072
奋斗	-11.4072
受益人	-11.4074
西非经共体	-11.4074
证据表明	-11.4075
溜	-11.4076
与美国	-11.4077
的游戏	-11.4078
放缓	-11.4078
新兴市场	-11.4078
凝胶	-11.4078
还记得	-11.4078
不那么	-11.4079
/2000/	-11.408
推测	-11.4081
可以把	-11.4082
众人	-11.4082
他被	-11.4082
探员	-11.4083
反应堆	-11.4084
银行的	-11.4085
市区	-11.4085
不停地	-11.4085
轨迹	-11.4086
体现在	-11.4088
助手	-11.4089
我所	-11.409
在这一	-11.409
伯格	-11.409
是至关重要的	-11.4091
找你	-11.4092
青春	-11.4092
得到加强	-11.4093
裔	-11.4094
和传播	-11.4097
补编第	-11.4098
你是个	-11.4099
充电	-11.4099
作为一项	-11.4099
终身	-11.41
溶解	-11.4101
想过	-11.4102
cc	-11.4102
空运	-11.4104
美术	-11.4104
毕竟	-11.4104
恰当的	-11.4108
测验	-11.4108
盾	-11.4109
▁分析了	-11.4109
愚蠢的	-11.4111
油价	-11.4111
少量	-11.4111
投机	-11.4112
妇女和	-11.4112
平时	-11.4113
贸易和	-11.4113
内在	-11.4113
在发展中国家	-11.4114
有更多的	-11.4116
人权状况	-11.4116
有问题	-11.4116
村民	-11.4117
稍后	-11.4117
仍旧	-11.4117
贼	-11.4121
▁亲爱的	-11.4121
协调委员会	-11.4122
漏洞	-11.4122
航天	-11.4123
家的	-11.4123
分泌	-11.4124
的冲突	-11.4124
其目的是	-11.4125
异议	-11.4125
避	-11.4125
非正规	-11.4127
的报告中	-11.4127
▁两	-11.4128
最大限度地	-11.4129
外债	-11.4129
风险评估	-11.4129
名单上	-11.413
也必须	-11.4131
是关于	-11.4131
可使	-11.4131
干细胞	-11.4131
动议	-11.4133
娃	-11.4133
葬礼	-11.4133
优点	-11.4133
重申了	-11.4134
范畴	-11.4136
决定了	-11.4136
糖果	-11.4139
风味	-11.414
会引起	-11.4141
天内	-11.4141
会议和	-11.4141
专门的	-11.4142
我说的	-11.4142
br	-11.4142
无论如何	-11.4142
越过	-11.4142
联合国系统内	-11.4144
动手	-11.4145
佛教	-11.4145
回返	-11.4146
裂变材料	-11.4146
▁罗	-11.4146
姐	-11.4146
混合物	-11.4147
以及关于	-11.4148
星期四	-11.415
雕	-11.415
对发展中国家	-11.4152
主观	-11.4153
第一阶段	-11.4154
:《	-11.4154
与应用	-11.4154
已将	-11.4155
/2002/	-11.4156
新建	-11.4157
西藏	-11.4157
浓缩	-11.4158
梯	-11.4158
感知	-11.416
该中心	-11.416
保护平民	-11.416
为确保	-11.4161
上限	-11.4163
产权	-11.4165
服务业	-11.4165
这时	-11.4167
要我	-11.4168
电器	-11.4168
谅解	-11.4168
尔斯	-11.4168
奥林匹克	-11.4169
的竞争	-11.4169
应确保	-11.417
钓鱼	-11.417
你知道的	-11.417
氧气	-11.417
瞬间	-11.417
鸟类	-11.417
手臂	-11.4171
发展方案	-11.4171
团伙	-11.4173
果汁	-11.4175
卖给	-11.4175
经济及社会理事会第	-11.4175
▁俄罗斯	-11.4177
内陆	-11.418
C	-11.418
效能	-11.4182
那里的	-11.4185
说的话	-11.4186
单击	-11.4188
奶油	-11.4188
在许多	-11.419
国家立法	-11.4191
见你	-11.4191
缩减	-11.4192
达成的	-11.4192
正在进行的	-11.4192
梨	-11.4192
感谢你	-11.4193
色情	-11.4193
强壮	-11.4193
人权维护者	-11.4193
缺口	-11.4196
系统地	-11.4197
好象	-11.4198
死后	-11.4198
增设	-11.42
亭	-11.4204
预防犯罪	-11.4204
▁汽车	-11.4205
老是	-11.4205
同盟	-11.4208
世界各国	-11.4209
短暂	-11.421
这部	-11.4211
组装	-11.4211
准确的	-11.4212
世界各地的	-11.4213
房价	-11.4213
生活质量	-11.4214
常用	-11.4214
全是	-11.4215
和有关	-11.4216
翅	-11.4216
吉布提	-11.4216
秘书长在	-11.4216
孕	-11.4217
的处境	-11.4217
借贷	-11.4218
神父	-11.4219
▁他有	-11.422
善于	-11.4221
处以	-11.4221
第二天	-11.4223
在印度	-11.4224
真好	-11.4225
抄	-11.4228
陪审团	-11.4228
绑	-11.4228
模型的	-11.4229
ea	-11.4229
的任务是	-11.423
为解决	-11.423
比起	-11.4231
为依据	-11.4233
的持续	-11.4233
zi	-11.4233
奶酪	-11.4233
洲	-11.4234
谁是	-11.4235
否决	-11.4236
了起来	-11.4241
中华	-11.4241
外观	-11.4242
拖欠	-11.4243
变得更	-11.4244
时间来	-11.4244
藻	-11.4245
上方	-11.4246
推出了	-11.4247
千年宣言	-11.4248
他想	-11.4248
从此	-11.4249
幻	-11.425
编纂	-11.4252
政治意愿	-11.4252
神经元	-11.4253
复合材料	-11.4253
相位	-11.4254
电网	-11.4254
的人道主义	-11.4254
该基金	-11.4255
第六委员会	-11.4256
全文	-11.4256
质量控制	-11.4256
这个地方	-11.4257
墓	-11.4257
明白吗	-11.4257
飞越	-11.4258
该办公室	-11.4259
染料	-11.426
的背景	-11.426
经费的筹措	-11.4261
格拉	-11.4261
一股	-11.4262
偏离	-11.4264
趁	-11.4264
他没有	-11.4264
▁他想	-11.4265
阴影	-11.4266
的出口	-11.4266
的新闻	-11.4267
强硬	-11.4267
.10	-11.4268
将此	-11.4269
数百万	-11.427
有价值的	-11.427
肽	-11.427
▁很明显	-11.427
猴子	-11.4271
陆军	-11.4271
▁他们还	-11.4271
的候选人	-11.4272
情人	-11.4276
亲戚	-11.4277
乙醇	-11.4277
推销	-11.4277
也应该	-11.4277
对面	-11.4277
他妈	-11.4279
联合国会员国	-11.4282
你没	-11.4283
长得	-11.4284
组织结构	-11.4286
将根据	-11.4288
报告指出	-11.4288
切换	-11.429
理智	-11.429
io	-11.4291
宽度	-11.4291
发挥了	-11.4291
行程	-11.4292
钱包	-11.4293
了其	-11.4294
进度报告	-11.4298
▁你只是	-11.4301
恶意	-11.4303
运算	-11.4303
进行一次	-11.4304
颁布了	-11.4305
的框架	-11.4306
可以为	-11.4306
本决议	-11.4308
区域和	-11.4309
制剂	-11.4311
的最好	-11.4313
丢了	-11.4314
爸	-11.4317
闸	-11.4318
反过来	-11.4318
粮食计划署	-11.4319
精神病	-11.432
桌面	-11.4322
同伴	-11.4322
滩	-11.4323
更正	-11.4323
勇	-11.4326
抽烟	-11.4326
▁我刚刚	-11.4328
电视节目	-11.4329
等人	-11.4332
新出现的	-11.4333
赠	-11.4334
周三	-11.4334
fe	-11.4336
的测定	-11.4336
狭窄	-11.4336
du	-11.4337
被逮捕	-11.434
性别歧视	-11.4342
原材料	-11.4345
不成	-11.4346
榜样	-11.4349
日举行的	-11.435
开着	-11.435
▁如果你们	-11.4352
行动方案	-11.4352
向我们	-11.4353
音频	-11.4353
的记忆	-11.4353
是时候	-11.4354
执法机构	-11.4354
反思	-11.4357
有些国家	-11.4357
的含义	-11.4358
内战	-11.4359
凯特	-11.4359
到目前为止	-11.436
蝴蝶	-11.436
着眼于	-11.436
都已	-11.4362
先生说	-11.4362
缺失	-11.4363
职权	-11.4363
膝盖	-11.4363
买家	-11.4367
的犯罪	-11.4367
骨髓	-11.4371
的一个主要	-11.4371
就好	-11.4371
▁一天	-11.4372
问他	-11.4373
有一点	-11.4373
途	-11.4373
稳步	-11.4374
那些人	-11.4374
行业的	-11.4374
感到关切	-11.4375
联合国系统各组织	-11.4376
ang	-11.4377
000	-11.4378
vo	-11.4378
内涵	-11.438
.15	-11.438
鞋子	-11.4381
2014-2015	-11.4385
iphone	-11.4385
▁我是个	-11.4388
▁我给你	-11.4389
的改变	-11.4389
1981	-11.439
月举行的	-11.439
一项关于	-11.439
在她	-11.4393
联合国志愿人员	-11.4395
马尔代夫	-11.4397
蜘蛛	-11.4397
脆弱的	-11.4398
招待	-11.4398
鉴别	-11.4399
附录	-11.44
院校	-11.44
预计将	-11.4401
暴力事件	-11.4401
让您	-11.4401
讲座	-11.4403
不见了	-11.4403
抽样	-11.4405
▁好啦	-11.4405
▁我发现	-11.4407
脖子	-11.4408
应当在	-11.4408
样式	-11.441
告诉我你	-11.441
数字化	-11.4412
▁我以前	-11.4412
即时	-11.4412
公认的	-11.4412
纵向	-11.4413
殖民地	-11.4414
兆	-11.4415
就好了	-11.4416
太棒了	-11.4418
捷	-11.4418
▁欧盟	-11.4419
蟹	-11.4421
手动	-11.4422
看电视	-11.4424
提供指导	-11.4424
这是我	-11.4424
对照组	-11.4424
生产率	-11.4426
文化遗产	-11.4427
法典	-11.4432
令我	-11.4433
联苏特派团	-11.4433
咸	-11.4433
出入	-11.4433
在实现	-11.4434
近代	-11.4434
藏在	-11.4435
专业的	-11.4435
型号	-11.4436
不公正	-11.4436
署长	-11.4436
叶子	-11.4437
这句话	-11.4437
体罚	-11.4437
控告	-11.4439
布尔	-11.444
无比	-11.444
肌肤	-11.444
眼中	-11.444
楚	-11.4441
看一下	-11.4442
举行一次	-11.4443
筋	-11.4444
悲惨	-11.4446
驾	-11.4446
充分执行	-11.4447
系统和	-11.4448
1982	-11.4452
国际义务	-11.4452
恐怖主义行为	-11.4455
主教	-11.4457
此举	-11.4457
布兰	-11.4458
听过	-11.4459
权力下放	-11.4459
岁月	-11.4459
搞定	-11.446
极为重要	-11.4463
小武器	-11.4463
技术研究	-11.4468
州市	-11.4468
好奇	-11.447
遵照	-11.447
安妮	-11.4471
巨额	-11.4472
讯息	-11.4472
他要	-11.4472
赶上	-11.4474
全新的	-11.4476
那你	-11.4477
贫	-11.4478
花钱	-11.448
分布式	-11.448
制动	-11.4481
六年	-11.4483
直觉	-11.4484
时间和	-11.4484
了下来	-11.4486
天下	-11.4486
热水	-11.4487
日关于	-11.4489
让人们	-11.4489
镇压	-11.4489
rc	-11.4489
伤亡	-11.4491
至于	-11.4491
赏	-11.4492
房地	-11.4492
并建议	-11.4493
▁只	-11.4494
年年底	-11.4494
汉堡	-11.4494
至第	-11.4495
的一份	-11.4495
的斗争	-11.4495
阅	-11.4495
失误	-11.4497
接入	-11.4497
涉	-11.4498
有效性	-11.45
疯子	-11.45
到我	-11.4502
压制	-11.4503
加固	-11.4505
化疗	-11.4507
中没有	-11.4507
就被	-11.4507
吸入	-11.4508
澳门	-11.4509
画家	-11.4509
版权	-11.451
世上	-11.451
意识形态	-11.451
转变为	-11.4511
途中	-11.4512
▁与会者	-11.4514
占用	-11.4515
就业和	-11.4515
奇怪的	-11.4516
知名	-11.4516
是想	-11.4518
什么呢	-11.452
不希望	-11.452
永不	-11.4521
刑事诉讼	-11.4525
8000	-11.4525
会成为	-11.4525
子宫	-11.4526
会造成	-11.4526
2:	-11.4527
紫色	-11.453
秘书长报告	-11.4531
投影	-11.4532
ram	-11.4532
愿景	-11.4533
▁我们知道	-11.4534
水下	-11.4535
▁低	-11.4537
▁他指出	-11.4537
计划中	-11.4537
人质	-11.4537
击中	-11.4538
人道	-11.4538
月期间	-11.4538
或不	-11.4539
不扩散核武器条约	-11.454
根本没有	-11.4541
的到来	-11.4543
真菌	-11.4544
文化的	-11.4544
搜索引擎	-11.4545
打断	-11.4545
黑山	-11.4546
人心	-11.4548
揭示	-11.455
▁当前	-11.4553
作用下	-11.4553
不利影响	-11.4554
艘	-11.4555
犯了	-11.4555
手下	-11.4555
个百分点	-11.4556
扣押	-11.4556
丑闻	-11.4557
一样的	-11.4559
商场	-11.4559
加强联合国	-11.456
免除	-11.4563
迟到	-11.4563
补救办法	-11.4564
吸血鬼	-11.4568
碧	-11.4568
扫盲	-11.4568
妇女地位委员会	-11.4569
外交政策	-11.4569
对美国	-11.4569
作用的	-11.457
减弱	-11.457
十一	-11.4572
为加强	-11.4572
中国人民	-11.4573
wp	-11.4573
向他们	-11.4573
沙特	-11.4573
的进步	-11.4575
chi	-11.4576
最初的	-11.4577
政治和	-11.4579
见证	-11.458
研究员	-11.4581
几百	-11.4581
明智	-11.4582
▁你想要	-11.4582
国际和平与安全	-11.4584
的决策	-11.4585
api	-11.4585
高度重视	-11.4586
受教育	-11.4587
肯定是	-11.4588
历史性	-11.4588
价值的	-11.459
一个问题	-11.459
时常	-11.4591
▁很	-11.4591
的判决	-11.4592
生产线	-11.4593
是没有	-11.4593
征税	-11.4593
再加上	-11.4594
但是在	-11.4595
前提	-11.4596
权的	-11.4596
在任何	-11.4596
移徙工人	-11.4598
剧本	-11.4598
乐意	-11.4599
你来	-11.46
水准	-11.4602
的访问	-11.4602
确保所有	-11.4603
▁提交人	-11.4605
知情	-11.4605
狄	-11.4605
纲领	-11.4606
创办	-11.4607
▁该方案	-11.4607
发病率	-11.4608
马拉维	-11.4608
野生	-11.4608
台上	-11.4609
预算外资源	-11.4613
霸	-11.4614
的会员国	-11.4616
茅	-11.4618
笨蛋	-11.4618
区域性	-11.4618
水质	-11.4619
强迫失踪	-11.4619
粉碎	-11.462
的三个	-11.462
预期成绩	-11.462
债务人	-11.4621
里亚	-11.4621
开火	-11.4621
整个世界	-11.4623
良心	-11.4625
遗憾	-11.4625
还强调	-11.4625
的裁决	-11.4626
车里	-11.4626
/2004/	-11.4627
的年轻人	-11.4628
国的	-11.4629
还未	-11.463
国家间	-11.463
费率	-11.4631
学期	-11.4631
密集	-11.4631
自由的	-11.4631
深受	-11.4632
▁86.	-11.4632
四川	-11.4634
会儿	-11.4634
成员的	-11.4635
以保证	-11.4636
mon	-11.4638
▁各位	-11.4638
can	-11.464
1:	-11.4641
房子里	-11.4642
经由	-11.4644
在没有	-11.4644
最有	-11.4645
监护	-11.4645
每位	-11.4646
在上面	-11.4646
一整天	-11.4646
以便为	-11.4648
与他们	-11.4649
承担责任	-11.465
的狗	-11.465
会见了	-11.465
祥	-11.4654
非洲经委会	-11.4655
醚	-11.4655
如何在	-11.4657
缓和	-11.4657
起床	-11.4658
))	-11.4659
殖民	-11.4659
▁作者	-11.4659
lt	-11.466
委员会第	-11.466
在全世界	-11.466
善良	-11.4662
居留	-11.4663
鼠标	-11.4663
公正和	-11.4663
的头	-11.4663
可以看出	-11.4664
避开	-11.4664
ard	-11.4664
有意义	-11.4664
轮廓	-11.4664
抑郁	-11.4664
刑事诉讼法	-11.4665
学费	-11.4666
看着我	-11.4667
寺	-11.4667
是否能	-11.4667
的心理	-11.467
盈余	-11.4673
达成一致	-11.4673
以法语	-11.4674
骗子	-11.4675
草稿	-11.4678
盖茨	-11.4682
福祉	-11.4682
▁所有这些	-11.4685
困惑	-11.4686
目标和	-11.4686
的领导	-11.4687
警察和	-11.4688
被用于	-11.469
销量	-11.469
掺	-11.4691
ian	-11.4691
目标的	-11.4691
枯	-11.4692
维多利亚	-11.4692
的统一	-11.4693
的脸	-11.4693
阻碍了	-11.4694
ev	-11.4694
sal	-11.4695
两张	-11.4697
大城市	-11.4697
一时	-11.4698
剥	-11.4699
cu	-11.47
的来源	-11.4701
国际金融机构	-11.4702
▁87.	-11.4703
的胜利	-11.4703
闪烁	-11.4705
相似的	-11.4706
的稳定	-11.4707
拒绝了	-11.4708
被控	-11.4708
这块	-11.4709
明确地	-11.4709
打印机	-11.471
份报告	-11.4711
防卫	-11.4712
是他们	-11.4713
的每个	-11.4713
是否可以	-11.4715
几个星期	-11.4716
搅	-11.4717
丸	-11.4718
洗澡	-11.4718
2/	-11.4718
科学家们	-11.4719
存在的问题	-11.4719
医疗保险	-11.4722
pp	-11.4724
缓存	-11.4724
变化的	-11.4726
还有其他	-11.4727
同上	-11.4728
▁热	-11.4728
希望在	-11.4728
提供更多	-11.4729
的情绪	-11.4729
束缚	-11.473
做出的	-11.4732
可持续发展委员会	-11.4734
聚焦	-11.4734
忠实	-11.4734
普查	-11.4735
放心	-11.4736
防水	-11.4737
产假	-11.4738
健康和	-11.474
堵	-11.474
je	-11.4741
体系的	-11.4742
可作为	-11.4742
解散	-11.4742
常驻	-11.4744
趋	-11.4746
得很好	-11.4747
很好地	-11.4747
登上	-11.4751
的能力建设	-11.4752
小规模	-11.4753
本质上	-11.4754
魏	-11.4755
加剧了	-11.4756
▁上周	-11.4758
议定	-11.4759
与和平	-11.4759
的协议	-11.476
的表达	-11.476
▁本研究	-11.476
的银行	-11.4761
重新安置	-11.4761
确实是	-11.4761
定律	-11.4761
优先领域	-11.4762
接头	-11.4764
生物技术	-11.4765
他的妻子	-11.4766
▁你怎么	-11.4768
利益攸关者	-11.4768
霉素	-11.4768
不顾	-11.4768
野蛮	-11.4768
肝脏	-11.4768
倒是	-11.4768
作为其	-11.4769
快走	-11.477
▁唯一	-11.477
及应用	-11.4772
不是一个	-11.4772
叫你	-11.4773
就越	-11.4776
▁但她	-11.4777
乐器	-11.4777
老化	-11.4778
这些东西	-11.478
2000-2001	-11.478
▁这就	-11.4781
的详细	-11.4784
你认为	-11.4784
增长了	-11.4784
哈马斯	-11.4784
墙上	-11.4785
分庭	-11.4785
开展的工作	-11.4786
已知	-11.4786
但现在	-11.4787
▁我不喜欢	-11.4788
宿舍	-11.4789
贷	-11.479
勃	-11.479
张力	-11.4791
讽刺	-11.4791
怨	-11.4792
的一天	-11.4792
出身	-11.4793
既是	-11.4793
日记	-11.4794
调查显示	-11.4795
字体	-11.4795
破坏性	-11.4795
指纹	-11.4798
75%	-11.4799
整整	-11.48
臭氧	-11.4801
他们说	-11.4801
拐	-11.4804
还为	-11.4804
轰炸	-11.4804
区域中心	-11.4805
年级	-11.4805
更重要	-11.4805
烹饪	-11.4806
争吵	-11.4806
交易所	-11.4807
病的	-11.4807
▁本组织	-11.4807
和控制	-11.4808
语义	-11.4808
-20	-11.4808
照射	-11.481
视力	-11.4811
高等	-11.4812
皮革	-11.4814
此刻	-11.4815
▁在中国	-11.4816
认为这是	-11.4817
欲望	-11.4817
结算	-11.4817
显而易见	-11.4818
吉尔	-11.482
喔	-11.482
在今年	-11.4821
基金的	-11.4823
改组	-11.4823
制服	-11.4824
而受到	-11.4825
国际援助	-11.4827
筛	-11.483
得出结论	-11.4831
训研所	-11.4831
也是如此	-11.4831
具有重要意义	-11.4833
赞美	-11.4834
宝石	-11.4834
斯顿	-11.4836
兼容	-11.4836
墙壁	-11.4838
三方	-11.4841
沉重	-11.4842
其主要	-11.4843
是不会	-11.4844
面部	-11.4845
址	-11.4845
两方面	-11.4847
限额	-11.4848
非索特派团	-11.4849
艾伦	-11.4852
簿	-11.4853
被告知	-11.4853
卢森堡	-11.4856
缺席	-11.4857
的举措	-11.4857
这些都是	-11.4859
我发现	-11.4859
群体的	-11.4861
百姓	-11.4862
锤	-11.4866
我们知道	-11.4866
这些项目	-11.4866
线程	-11.4867
资助的	-11.4869
平方米	-11.487
作出反应	-11.487
▁我现在	-11.4872
拨出	-11.4874
▁有没有	-11.4875
▁人类	-11.4876
的成就	-11.4877
的正式	-11.4877
你的朋友	-11.4878
3-	-11.4878
察	-11.4878
倾听	-11.4879
披	-11.4879
姿势	-11.4882
车间	-11.4883
实现这一目标	-11.4883
着你	-11.4884
空气中	-11.4885
斯先生	-11.4886
我把	-11.4886
不让	-11.4887
快捷	-11.4887
这可能	-11.4887
草原	-11.4888
调查委员会	-11.4888
里斯	-11.4889
粉丝	-11.4895
对人类	-11.4895
评注	-11.4895
副作用	-11.4897
正处于	-11.4898
谷物	-11.4898
妻	-11.4899
减速	-11.4901
权利和	-11.4901
复发	-11.4903
战争罪	-11.4903
可以接受	-11.4904
市场经济	-11.4904
刚好	-11.4904
向联合国	-11.491
为所有	-11.491
半小时	-11.4912
高尔夫	-11.4912
联合国人权事务高级专员办事处	-11.4913
需要有	-11.4914
▁企业	-11.4915
听听	-11.4916
3/	-11.4916
发展方面	-11.4916
切除术	-11.4917
朴	-11.4918
杰出	-11.4919
概率	-11.4919
审视	-11.492
铀	-11.492
纳粹	-11.492
饲养	-11.4921
提供免费	-11.4922
成因	-11.4923
资金来源	-11.4925
分辨	-11.4926
山上	-11.4927
教育方案	-11.4927
的销售	-11.4927
外出	-11.4927
的期望	-11.4928
和行政	-11.4928
所提	-11.493
处理的	-11.493
▁艾	-11.4931
方面取得	-11.4933
目前正	-11.4933
伊丽莎白	-11.4933
多达	-11.4934
要有	-11.4935
贵公司	-11.4935
这家伙	-11.4935
▁真	-11.4935
精灵	-11.4936
的距离	-11.4937
机组	-11.4937
歇	-11.4938
在其中	-11.4938
挫折	-11.4939
就已经	-11.494
无核武器区	-11.4942
农业生产	-11.4942
烷	-11.4942
它也	-11.4943
的广泛	-11.4944
太多的	-11.4945
个孩子	-11.4945
mb	-11.4946
中华人民共和国	-11.4946
日生效	-11.4949
锐	-11.4952
哇	-11.4952
从来没	-11.4952
将他	-11.4954
全局	-11.4955
较好	-11.4955
美味	-11.4956
潜水	-11.4957
在一定程度上	-11.4958
ani	-11.4959
外勤支助部	-11.4959
列支敦士登	-11.4959
澳洲	-11.4959
仅在	-11.4961
养殖	-11.4962
判例	-11.4964
国际条约	-11.4964
/1998/	-11.4965
的前提下	-11.4965
炸药	-11.4965
将有	-11.4966
的种种	-11.4966
梳	-11.4971
坦桑尼亚	-11.4972
乃	-11.4975
个月的	-11.4976
苦难	-11.4976
高质量的	-11.4976
滚动	-11.4977
长江	-11.4978
如果他	-11.4978
的百分比	-11.4978
口味	-11.4979
数千	-11.498
娶	-11.4981
应是	-11.4982
暂	-11.4983
跑了	-11.4984
应有	-11.4985
在每个	-11.4986
第九	-11.4987
提高其	-11.4988
几项	-11.4988
应根据	-11.4989
杂交	-11.499
1979	-11.499
/56/	-11.4992
吻合	-11.4993
时装	-11.4994
讨	-11.4994
▁正是	-11.4995
高的	-11.4995
总经理	-11.4998
体的	-11.4998
了这个	-11.5
有一次	-11.5001
无罪	-11.5003
是不可能的	-11.5004
预见	-11.5004
来看看	-11.5005
你这个	-11.5006
嫌犯	-11.5007
初级商品	-11.5007
可以得到	-11.5008
脾气	-11.5009
咽	-11.501
@	-11.501
1-	-11.5011
副本	-11.5013
充足的	-11.5014
笼	-11.5015
的治疗	-11.5016
是最好的	-11.5016
屁	-11.5016
该股	-11.502
02	-11.5022
清洁发展机制	-11.5023
妓女	-11.5024
闭会期间	-11.5028
判处	-11.5028
编译	-11.5029
6/	-11.5029
无辜	-11.5031
经济复苏	-11.5031
我又	-11.5032
国际金融	-11.5032
信誉	-11.5033
远处	-11.5034
投资于	-11.5035
的动态	-11.5036
香蕉	-11.5036
色素	-11.5037
表现得	-11.5037
my	-11.5038
贵族	-11.5039
气温	-11.5039
插件	-11.5039
加利福尼亚	-11.504
ine	-11.5042
妹	-11.5044
议案	-11.5046
侧重	-11.5047
特有的	-11.5049
很快就会	-11.505
他又	-11.505
挥	-11.505
近似	-11.5051
滤波器	-11.5051
归纳	-11.5052
▁我要去	-11.5055
ty	-11.5057
在意	-11.5059
农业和	-11.506
喷射	-11.5062
基本原则	-11.5062
贤	-11.5062
不必要的	-11.5062
太过	-11.5066
给安全理事会主席的信	-11.5067
外科	-11.5067
美国总统	-11.5069
蒸	-11.5071
电动机	-11.5071
信用证	-11.5072
▁我可不	-11.5073
pl	-11.5076
运动的	-11.5076
核对	-11.5078
载荷	-11.5078
第一届会议	-11.5079
联合国的	-11.5079
发展政策	-11.5079
▁文中	-11.5082
在实施	-11.5083
货车	-11.5085
克拉克	-11.5086
捉	-11.5086
辛苦	-11.5086
生境	-11.5088
贪	-11.5088
哼	-11.5088
鲨鱼	-11.5089
理论上	-11.5089
▁我明白	-11.509
不好意思	-11.509
内部的	-11.509
下降到	-11.5091
▁88.	-11.5091
确切	-11.5092
胞	-11.5092
穴	-11.5095
▁光	-11.5095
有理由	-11.5096
▁上述	-11.5098
带你	-11.5099
▁各	-11.5101
小伙子	-11.5102
益处	-11.5102
▁89.	-11.5103
将包括	-11.5105
总线	-11.5105
ent	-11.5109
司法机关	-11.511
你呢	-11.511
结构性	-11.5112
增值	-11.5113
吸引了	-11.5114
胚胎	-11.5114
警察部队	-11.5114
身后	-11.5115
零部件	-11.5116
▁谨	-11.5117
正在努力	-11.5117
责	-11.5118
估价	-11.5121
的感情	-11.5121
/6	-11.5121
神奇	-11.5122
棍	-11.5123
和私营部门	-11.5123
屋里	-11.5126
one	-11.5126
5/	-11.5127
钳	-11.5127
窑	-11.5127
不丹	-11.5128
宝贵	-11.5128
不许	-11.5129
的印象	-11.513
▁92.	-11.5131
明白了	-11.5131
请允许我	-11.5131
的现实	-11.5132
积极参加	-11.5132
评估和	-11.5132
环境基金	-11.5133
犯罪的	-11.5135
与国际	-11.5137
表中	-11.5138
但由于	-11.5138
高潮	-11.5138
热烈	-11.514
茜	-11.514
以减少	-11.5141
我们没有	-11.5141
不介意	-11.5142
增编	-11.5142
小孩子	-11.5142
均应	-11.5142
格里	-11.5144
的帮助	-11.5144
不认识	-11.5144
国际工作人员	-11.5147
”、“	-11.5148
和宗教	-11.5149
像这样	-11.5149
也无法	-11.515
滞	-11.515
调查表	-11.515
省级	-11.5153
相关问题	-11.5153
惠益	-11.5154
轻轻	-11.5154
硬币	-11.5154
不被	-11.5155
全额	-11.5155
免于	-11.5155
解决这个问题	-11.5156
也同样	-11.5156
手表	-11.5158
mac	-11.5159
消毒	-11.5159
发作	-11.5162
03	-11.5162
样子	-11.5163
点燃	-11.5164
姿态	-11.5164
脑子	-11.5164
为支持	-11.5164
金融服务	-11.5165
表达式	-11.5165
波士顿	-11.5166
哑	-11.5166
▁如果你不	-11.5169
经验和	-11.5169
一个女人	-11.5171
该司	-11.5171
为由	-11.5172
▁南	-11.5173
叛乱	-11.5173
主席说	-11.5173
所涉及的	-11.5174
就如何	-11.5174
出版社	-11.5174
▁我发誓	-11.5174
纺	-11.5174
▁面对	-11.5175
裂纹	-11.5175
韵	-11.5179
穆罕默德	-11.5179
布什总统	-11.5184
券	-11.5185
her	-11.5185
克里	-11.5186
洁净	-11.5186
职权范围	-11.5187
好啊	-11.5189
均为	-11.5189
期货	-11.519
拥挤	-11.5191
侠	-11.5193
粗糙	-11.5193
甄选	-11.5193
05	-11.5193
/2005/	-11.5194
禁运	-11.5194
盗	-11.5194
六十	-11.5195
预防冲突	-11.5196
并希望	-11.5196
写信	-11.5196
技术支持	-11.5197
af	-11.5198
音乐会	-11.5198
蜜蜂	-11.5201
的电子	-11.5201
生产者	-11.5202
的学校	-11.5202
薪水	-11.5202
公约草案	-11.5203
▁我知道我	-11.5203
线上	-11.5203
这是一种	-11.5203
促进和保护	-11.5204
求你	-11.5206
沿岸	-11.5206
哪怕	-11.5206
抵押贷款	-11.5207
▁大家	-11.5207
起作用	-11.5207
他们可以	-11.5209
▁主	-11.5209
的中国	-11.5211
工作文件	-11.5212
主动行动	-11.5212
通常会	-11.5213
亏损	-11.5214
露出	-11.5216
面上	-11.5217
悲	-11.5217
离去	-11.5217
只想	-11.5218
土著妇女	-11.5218
醛	-11.5218
赤贫	-11.5219
信件	-11.5221
稀	-11.5221
按照第	-11.5221
军用	-11.5222
和应用	-11.5223
社会和	-11.5223
通过了一项	-11.5223
规定的义务	-11.5225
诚信	-11.5226
▁让	-11.5226
边缘化	-11.5227
栽培	-11.5228
大桥	-11.5228
过去几年	-11.5229
ee	-11.5229
的高度	-11.5231
维和部	-11.5232
日之前	-11.5233
成立的	-11.5234
/7	-11.5234
提高到	-11.5235
深处	-11.5235
的学习	-11.5235
稻	-11.5236
领空	-11.5237
不要再	-11.5238
sen	-11.5238
继续开展	-11.5239
分析与	-11.524
的解决方案	-11.5241
将不会	-11.5241
的本质	-11.5241
溢	-11.5242
一辈子	-11.5242
东南	-11.5244
如果他们	-11.5245
联海稳定团	-11.5245
～	-11.5245
好人	-11.5246
战役	-11.5247
社区的	-11.525
菲尔德	-11.525
新疆	-11.5255
生化	-11.5255
▁巴	-11.5255
巴勒斯坦权力机构	-11.5256
意义的	-11.5256
到位	-11.5257
全球机制	-11.5258
公平的	-11.5259
蜡烛	-11.5259
就是要	-11.526
以致	-11.5261
▁大卫	-11.5262
▁白	-11.5263
诉讼程序	-11.5263
我们所	-11.5265
尾巴	-11.5266
城乡	-11.5267
二维	-11.5268
项目中	-11.5268
来这儿	-11.5269
.4/	-11.527
一般的	-11.527
bu	-11.5271
以便使	-11.5271
的动力	-11.5272
研究成果	-11.5272
了关于	-11.5275
的战争	-11.5277
帮他	-11.5279
相信你	-11.5279
我们不	-11.5281
国家政策	-11.5282
外联	-11.5282
领土上	-11.5282
能把	-11.5282
庞	-11.5282
可为	-11.5283
多于	-11.5283
怎么能	-11.5284
自主权	-11.5284
扰	-11.5285
迭代	-11.5286
非殖民化	-11.5286
的自然	-11.5288
在地上	-11.5288
▁这类	-11.5289
那时候	-11.529
和各	-11.5291
上升到	-11.5291
不利于	-11.5292
志愿人员	-11.5292
水源	-11.5292
晨	-11.5294
的决定草案	-11.5295
十个	-11.5296
戴上	-11.5297
羽	-11.5297
gs	-11.5298
折叠	-11.5299
不佳	-11.5299
起着	-11.5301
星期	-11.5303
的独特	-11.5304
听说过	-11.5304
ud	-11.5304
关注的是	-11.5304
公布的	-11.5305
暴行	-11.5305
别动	-11.5306
存放	-11.5306
获准	-11.5306
仅为	-11.5309
发生变化	-11.5309
▁总统	-11.531
▁不同	-11.5311
之外的	-11.5311
编写了	-11.5311
▁杰克	-11.5312
珍妮	-11.5312
天津	-11.5314
基线	-11.5314
他们已经	-11.5316
发生了什么	-11.5316
ner	-11.5316
胸部	-11.5317
▁90.	-11.5317
托尼	-11.5318
地产	-11.532
有更多	-11.5321
的普遍	-11.5321
不遵守	-11.5322
小于	-11.5322
嫌疑人	-11.5323
美女	-11.5324
个小	-11.5324
凤	-11.5325
博茨瓦纳	-11.5325
7000	-11.5325
本文件	-11.5326
国际货币基金组织	-11.5331
爆炸物	-11.5331
历史的	-11.5333
▁相信我	-11.5333
过滤器	-11.5335
特别的	-11.5336
叫他	-11.5336
干活	-11.5337
三明治	-11.5338
众所周知	-11.5338
牲畜	-11.5338
在这种情况下	-11.5339
这正是	-11.5339
半数	-11.534
交际	-11.534
审查和	-11.5341
透明的	-11.5342
▁反	-11.5343
▁我可不想	-11.5346
够了	-11.5346
这样一种	-11.5346
痛苦的	-11.5346
▁而在	-11.5348
土豆	-11.5348
抱着	-11.5349
喜欢你	-11.5349
上帝的	-11.535
这些权利	-11.535
人来说	-11.535
这个时候	-11.5352
陷阱	-11.5352
▁但现在	-11.5353
ou	-11.5354
契	-11.5354
人是	-11.5356
极大地	-11.5358
就是在	-11.5358
柴油	-11.5359
我只	-11.5359
常设委员会	-11.5359
lan	-11.5361
分项目	-11.5361
的计算	-11.5361
忧	-11.5362
拿走	-11.5364
曼谷	-11.5365
到你	-11.5365
的领导人	-11.5366
的任期	-11.5366
分至	-11.5367
启示	-11.537
其成员	-11.537
对我国	-11.5371
头痛	-11.5375
听你	-11.5375
亚马逊	-11.5378
奥尔	-11.5379
蓄	-11.538
山谷	-11.538
萨拉	-11.5381
第二届会议	-11.5382
关于在	-11.5384
的路上	-11.5384
只是为了	-11.5384
部的	-11.5386
惊人的	-11.5388
▁巴西	-11.5392
是人类	-11.5392
满意地注意到	-11.5392
去哪儿	-11.5392
容许	-11.5393
▁汤姆	-11.5394
告诉你们	-11.5395
排雷行动	-11.5395
会期	-11.5395
sd	-11.5396
过程中的	-11.5398
总额为	-11.5398
但它们	-11.5399
补救措施	-11.5399
09	-11.5402
敏感的	-11.5405
家庭的	-11.5405
非洲发展新伙伴关系	-11.5405
办事	-11.5408
空缺率	-11.5408
的待遇	-11.5409
曝光	-11.5409
肢	-11.541
缠	-11.5412
贩卖人口	-11.5412
而这些	-11.5414
被判	-11.5416
国家战略	-11.5416
卫生和	-11.5418
价钱	-11.5418
全力	-11.5418
西亚经社会	-11.5419
pv	-11.542
与环境	-11.5421
矿业	-11.5422
协调机制	-11.5422
起案件	-11.5422
渐	-11.5424
电厂	-11.5428
你可能	-11.5429
帮助你	-11.5429
的每一个	-11.5432
喀	-11.5432
确保其	-11.5432
危害人类罪	-11.5432
听到了	-11.5433
巴格达	-11.5433
胡子	-11.5433
看见了	-11.5434
他所	-11.5435
四种	-11.5435
我方	-11.5435
必须有	-11.5436
瓷	-11.5436
法律顾问	-11.5436
持久的	-11.5437
留言	-11.5437
信托	-11.5437
外籍	-11.5437
历程	-11.5437
干了	-11.544
ye	-11.5441
▁安理会成员	-11.5441
的特定	-11.5442
开来	-11.5443
身心	-11.5444
神圣的	-11.5445
新产品	-11.5445
原籍国	-11.5447
这套	-11.5448
私有化	-11.5449
▁海	-11.545
雨水	-11.5451
登陆	-11.5452
的申诉	-11.5453
好转	-11.5453
普遍的	-11.5453
编织	-11.5454
文件的	-11.5454
畅	-11.5454
雇佣军	-11.5454
▁在一个	-11.5457
贫民窟	-11.5459
的进一步	-11.546
打扮	-11.546
并进行	-11.546
ion	-11.5463
古老	-11.5463
最低工资	-11.5464
搜	-11.5465
邮政	-11.5466
用语	-11.5468
06	-11.5469
或者说	-11.547
int	-11.5472
▁如果她	-11.5472
将它们	-11.5472
的感受	-11.5473
杉	-11.5473
1373(2001)	-11.5473
观光	-11.5473
着他	-11.5474
假日	-11.5474
是怎样	-11.5474
和活动	-11.5475
反弹	-11.5475
船员	-11.5477
他那	-11.5478
第一位	-11.5478
明智的	-11.5478
管理国	-11.5479
美容	-11.5479
有三个	-11.548
经济和	-11.548
这两项	-11.548
脆	-11.5483
集中于	-11.5483
日趋	-11.5483
执行情况的报告	-11.5484
杭州	-11.5485
的人生	-11.5485
点钟	-11.5486
▁我们就	-11.5488
和平与稳定	-11.5488
日常生活	-11.5489
挤压	-11.549
有关机构	-11.549
片段	-11.5491
嫁	-11.5491
寻求庇护者	-11.5491
就是你	-11.5492
著作	-11.5493
物的	-11.5494
公务	-11.5495
钢板	-11.5496
庞大	-11.5497
政府间机构	-11.5498
350	-11.5498
教育机构	-11.5498
简单地	-11.55
▁我今天	-11.5501
富裕	-11.5501
氨基酸	-11.5501
你这	-11.5502
核材料	-11.5503
私下	-11.5503
国际关系	-11.5504
的大量	-11.5504
贸	-11.5505
受害者的	-11.5505
无意	-11.5505
的死亡	-11.5505
不在乎	-11.5506
水平的	-11.5507
发生过	-11.5508
这名	-11.5508
的另一	-11.5509
范例	-11.551
重型	-11.5511
你没有	-11.5511
悬挂	-11.5512
旺	-11.5512
工作和	-11.5512
给了我	-11.5513
宽恕	-11.5513
各国人民	-11.5514
探究	-11.5514
咨询小组	-11.5515
载入	-11.5515
吃惊	-11.5516
昆	-11.5518
在新	-11.5519
第一委员会	-11.552
但是我们	-11.5521
对这种	-11.5521
复员	-11.5523
付钱	-11.5523
将他们	-11.5523
弗兰克	-11.5524
并能	-11.5524
我妈妈	-11.5524
会带来	-11.5526
极了	-11.5527
会话	-11.5528
我们走	-11.5528
还认为	-11.5529
检查站	-11.553
迷你	-11.553
雕刻	-11.5531
最不发达国家的	-11.5532
永恒	-11.5534
1978	-11.5535
数年	-11.5537
之日起	-11.5537
副总统	-11.5538
山羊	-11.5539
坦白	-11.554
问题时	-11.5542
仍将	-11.5545
竞	-11.5545
取出	-11.5546
▁好好	-11.5547
的就是	-11.5548
尼斯	-11.5548
以色列的	-11.5549
决不	-11.5552
蕾	-11.5553
的依据	-11.5553
但是他们	-11.5554
一双	-11.5554
回家了	-11.5555
的大多数	-11.5556
的几个	-11.5556
多层	-11.5557
1984	-11.5559
前的	-11.556
离散	-11.5562
届特别会议	-11.5563
纲要	-11.5563
的背景下	-11.5566
较好的	-11.5567
珍惜	-11.5568
安全部门改革	-11.557
联系在一起	-11.5571
的象征	-11.5572
任务的	-11.5573
关掉	-11.5573
的广告	-11.5574
石油公司	-11.5574
本组织的	-11.5576
的议程	-11.5577
什么吗	-11.5578
应予	-11.5581
皱	-11.5581
后卫	-11.5581
眼里	-11.5581
欧洲经委会	-11.5581
的地点	-11.5582
届时	-11.5582
led	-11.5582
▁你会	-11.5584
准确地	-11.5584
发展筹资	-11.5584
零售商	-11.5585
剪切	-11.5585
来进行	-11.5586
好玩	-11.5587
怎么回事	-11.5588
拒	-11.559
年份	-11.559
还不够	-11.559
发展计划	-11.5592
打电话给	-11.5592
断层	-11.5593
次全体会议	-11.5593
务实	-11.5593
结核病	-11.5594
离开这里	-11.5595
马达加斯加	-11.5595
萃取	-11.5596
贯穿	-11.5596
一半的	-11.5596
▁你要是	-11.5597
逗	-11.5598
优雅	-11.5601
的飞机	-11.5601
特设	-11.5601
案中	-11.5601
170	-11.5602
外语	-11.5603
方案中	-11.5603
几十	-11.5604
影响因素	-11.5604
广东	-11.5604
通行	-11.5604
▁她会	-11.5605
sch	-11.5607
在过去的	-11.5609
窦	-11.5609
诽谤	-11.5609
评审	-11.5609
辩	-11.5612
ls	-11.5612
技术上	-11.5613
▁1997	-11.5613
人口普查	-11.5613
网络的	-11.5614
机动	-11.5615
所必需的	-11.5617
ler	-11.5617
有所不同	-11.5618
呈现出	-11.5621
温室气体	-11.5621
那人	-11.5622
萎缩	-11.5623
赛车	-11.5623
种族灭绝	-11.5623
并已	-11.5623
做些什么	-11.5624
维斯	-11.5625
海峡	-11.5626
散射	-11.5627
其实是	-11.5627
办法是	-11.5628
在国外	-11.5628
紧缩	-11.5629
也就是说	-11.5631
单独的	-11.5632
在巴黎	-11.5633
rt	-11.5634
助理秘书长	-11.5634
确认了	-11.5635
是必要的	-11.5635
▁我无法	-11.5636
战争中	-11.5636
喜悦	-11.5639
不了解	-11.5639
的重点是	-11.5641
干掉	-11.5641
抗原	-11.5642
基金和方案	-11.5644
dy	-11.5645
有序	-11.565
丰田	-11.5651
搜集	-11.5651
得好	-11.5652
的回应	-11.5652
网路	-11.5653
任何地方	-11.5653
的事业	-11.5656
md	-11.5657
接受教育	-11.5658
间隙	-11.5659
一直都	-11.5659
▁不幸的是	-11.566
我国政府	-11.5662
半年	-11.5663
抗生素	-11.5664
经常资源	-11.5665
赌博	-11.5665
逃脱	-11.5666
▁91.	-11.5666
的恐惧	-11.5666
外空	-11.5668
上司	-11.5668
常驻代表	-11.5669
可以被	-11.5669
5-	-11.5669
创造力	-11.567
委员会审议	-11.5671
直接影响	-11.5671
竖	-11.5671
添加剂	-11.5671
作了发言	-11.5672
艺术品	-11.5672
百万美元	-11.5672
▁把你的	-11.5672
油漆	-11.5672
▁没错	-11.5673
会费	-11.5676
借款	-11.5676
这些组织	-11.5677
顽固	-11.5678
我们俩	-11.5679
你妈	-11.568
阿曼	-11.5683
其他地区	-11.5683
的指标	-11.5683
低收入	-11.5684
点的	-11.5684
种群	-11.5685
并表示	-11.5685
子里	-11.5688
1949	-11.5688
爱上	-11.5689
排队	-11.5691
室外	-11.5692
所用的	-11.5694
▁我还	-11.5696
的主权	-11.5696
文物	-11.5697
可信	-11.5698
上个月	-11.5699
ham	-11.5699
成立于	-11.57
喜剧	-11.57
有一定的	-11.57
无须	-11.5701
和国际社会	-11.5701
han	-11.5701
原则和	-11.5701
植被	-11.5701
▁我得	-11.5701
吸取	-11.5702
富人	-11.5702
瘫痪	-11.5705
总统选举	-11.5706
并从	-11.5706
的老板	-11.5706
事后	-11.5706
酸性	-11.5706
由一个	-11.5707
▁数字	-11.5707
拉姆	-11.5707
梦中	-11.5707
共产党	-11.5708
电报	-11.571
划拨	-11.571
合作关系	-11.571
▁乔治	-11.5711
来说是	-11.5712
了大量	-11.5712
借此机会	-11.5713
的各	-11.5713
基本权利	-11.5714
没用	-11.5714
一般性辩论	-11.5715
的群体	-11.5716
以及如何	-11.5716
吉他	-11.5716
的一面	-11.5717
工作时间	-11.5717
不会有	-11.572
由于缺乏	-11.5721
他们认为	-11.5722
人性	-11.5724
▁该报告	-11.5724
提问	-11.5727
巨头	-11.5728
显然是	-11.5729
各省	-11.5729
▁让我	-11.573
为她	-11.5731
解剖	-11.5731
2.1	-11.5731
地位的	-11.5732
的空气	-11.5732
籽	-11.5733
煤气	-11.5733
▁当她	-11.5734
的类型	-11.5735
润滑	-11.5735
一生中	-11.574
向下	-11.5741
为妇女	-11.5741
嘴里	-11.5741
稳定和	-11.5744
▁但是他	-11.5745
制的	-11.5745
全民	-11.5747
但如果	-11.5748
支付的	-11.5748
过你	-11.5751
先后	-11.5752
爆破	-11.5754
经历过	-11.5754
诊	-11.5754
甚至在	-11.5755
读取	-11.5755
真心	-11.5755
我儿子	-11.576
文职	-11.576
绞	-11.5761
国家信息通报	-11.5761
负面影响	-11.5761
将该	-11.5761
宗教信仰	-11.5762
lin	-11.5765
顺便	-11.5766
过时	-11.5766
结余	-11.5767
多方面	-11.5771
忆及	-11.5771
偷了	-11.5771
▁西	-11.5772
欣	-11.5772
进行协商	-11.5772
ft	-11.5774
商业银行	-11.5774
各国应	-11.5777
爱好者	-11.5781
一节	-11.5781
宇	-11.5783
获利	-11.5783
会给	-11.5784
计划和	-11.5784
三位	-11.5784
的改进	-11.5784
午	-11.5785
送回	-11.5786
联合国儿童基金会	-11.5786
血糖	-11.5787
开发和	-11.5788
晚饭	-11.5788
妖	-11.5788
我女儿	-11.5789
处的	-11.5789
好多	-11.579
ep	-11.579
化妆	-11.5791
比赛中	-11.5791
ari	-11.5791
交通运输	-11.5792
打赌	-11.5794
羊毛	-11.5795
解决这一问题	-11.5796
截面	-11.5796
▁上午	-11.5796
削	-11.5798
的动作	-11.5799
并用	-11.5799
易受	-11.58
北草坪会议大楼	-11.5803
具体措施	-11.5804
恐龙	-11.5805
生动	-11.5805
ran	-11.5805
水库	-11.5806
国家政府	-11.5808
我感觉	-11.5808
▁贸发会议	-11.5811
的反	-11.5811
目前在	-11.5812
小组认为	-11.5812
马上就	-11.5813
秦	-11.5813
对这个	-11.5813
以改善	-11.5814
不予	-11.5815
鲸	-11.5815
佬	-11.5817
刊登	-11.5817
构件	-11.5818
里约	-11.5818
有自己的	-11.582
▁他说他	-11.5821
经费筹措	-11.5822
数量的	-11.5823
的事物	-11.5825
继续向	-11.5826
本会议	-11.5827
私有	-11.5827
它们是	-11.5828
双向	-11.583
恤	-11.583
年后发展议程	-11.5831
一个男人	-11.5831
研究院	-11.5832
生命中	-11.5833
急剧	-11.5834
▁f	-11.5834
来帮助	-11.5834
杆菌	-11.5836
的边缘	-11.5837
杀了他	-11.5837
的可能	-11.5837
上一次	-11.5841
演习	-11.5843
炎症	-11.5843
你妈妈	-11.5844
好朋友	-11.5844
羁押	-11.5844
草坪	-11.5845
别墅	-11.5845
随之	-11.5845
光盘	-11.5845
反驳	-11.5846
ny	-11.5846
可以利用	-11.5847
老大	-11.5848
▁我想我们	-11.5849
具体目标	-11.5851
我就会	-11.5851
分工	-11.5852
路由	-11.5853
mer	-11.5854
打扫	-11.5854
shi	-11.5855
斯科	-11.5856
基本服务	-11.5858
打交道	-11.5859
夏威夷	-11.5859
匿名	-11.586
up	-11.5861
纸张	-11.5861
这一天	-11.5862
建立伙伴关系	-11.5862
之家	-11.5864
年之前	-11.5864
▁把我	-11.5865
层面上	-11.5865
权能	-11.5868
▁他不	-11.5868
灭绝	-11.5868
腹部	-11.587
我想我	-11.587
教育和培训	-11.5871
春季	-11.5873
罪行的	-11.5874
学历	-11.5874
波特	-11.5874
对国家	-11.5875
临近	-11.5875
转运	-11.5875
特别重视	-11.5875
听证会	-11.5875
复活	-11.5876
两年期方案预算	-11.5876
流失	-11.5877
急救	-11.5878
以一种	-11.5878
项目管理	-11.5878
榜	-11.5878
肿	-11.5878
采取后续行动	-11.5879
献	-11.588
醋	-11.5881
玩笑	-11.5881
该区域的	-11.5881
106	-11.5884
阵线	-11.5884
关系到	-11.5885
力的	-11.5885
▁该公司	-11.5885
浪费时间	-11.5886
联合国大学	-11.5887
在亚洲	-11.5888
同类	-11.5888
它就	-11.5889
合伙人	-11.5889
次级	-11.5889
wg	-11.5889
残酷	-11.5891
在大会	-11.5893
关怀	-11.5893
略有	-11.5895
它还	-11.5896
面具	-11.5897
撒哈拉以南非洲	-11.5897
加紧努力	-11.5898
预料	-11.59
诅咒	-11.5901
阿拉伯利比亚民众国	-11.5901
联合检查组	-11.5901
帧	-11.5901
毛里塔尼亚	-11.5901
的条件下	-11.5901
活塞	-11.5901
资深	-11.5903
英国的	-11.5904
的最低	-11.5904
以防	-11.5905
的基本原则	-11.5905
尖叫	-11.5907
偏差	-11.5907
每小时	-11.5908
其任务	-11.5908
终点	-11.591
物理学	-11.5912
监督和	-11.5912
经常性	-11.5913
地基	-11.5914
性虐待	-11.5914
穗	-11.5915
锰	-11.5915
婊子	-11.5915
经济和社会事务部	-11.5915
我妈	-11.5916
的习惯	-11.5916
联合国维持和平行动	-11.5917
残疾人权利公约	-11.5918
ger	-11.5919
▁张	-11.5919
设施的	-11.5919
看起来很	-11.5921
市镇	-11.5921
议事规则第	-11.5924
以为我	-11.5924
相当大的	-11.5924
遣	-11.5925
与会	-11.5926
祸	-11.5926
我就是	-11.5927
禽	-11.5927
▁毫无疑问	-11.5927
司法制度	-11.5929
到现在	-11.5929
概览	-11.5929
金斯	-11.5931
特工	-11.5931
世纪议程	-11.5934
汇集	-11.5934
流血	-11.5935
政客	-11.5936
的组成	-11.5937
变得越来越	-11.5938
去买	-11.5941
▁你没有	-11.5941
惊人	-11.5942
不易	-11.5943
还有很多	-11.5943
是我们的	-11.5943
陛下	-11.5943
奴役	-11.5943
▁你为什么不	-11.5943
理由是	-11.5944
水面	-11.5945
亚洲及太平洋	-11.5945
约翰逊	-11.5946
男士	-11.5946
装载	-11.5947
推断	-11.5948
成熟的	-11.5948
中方	-11.5949
的热情	-11.5949
泄	-11.595
的生日	-11.595
时间内	-11.595
和贸易	-11.5952
银行家	-11.5953
寒冷	-11.5953
▁他们在	-11.5953
并把	-11.5953
孤单	-11.5956
挨	-11.5957
可可	-11.5957
畸形	-11.5959
惊奇	-11.5959
▁韩国	-11.5959
ig	-11.596
走开	-11.5961
你父亲	-11.5962
摩西	-11.5962
.2)	-11.5962
柠檬	-11.5962
相连	-11.5963
细则	-11.5966
效用	-11.5966
列举	-11.5967
天天	-11.5967
真的是	-11.5968
低成本	-11.597
▁你对	-11.597
主席团成员	-11.5971
在各	-11.5971
瞄准	-11.5972
计数	-11.5972
第三届会议	-11.5974
的头发	-11.5974
进行比较	-11.5974
和水	-11.5974
再也	-11.5974
多米尼加共和国	-11.5976
牢固	-11.5979
浇	-11.5979
tp	-11.598
加紧	-11.5982
党的	-11.5983
海报	-11.5983
没有足够的	-11.5985
恭喜	-11.5986
搬迁	-11.5986
是世界上	-11.5987
本能	-11.5987
看到他	-11.5988
偿	-11.5988
简历	-11.5989
▁我都	-11.5991
实践中	-11.5991
▁如果有	-11.5992
学研究	-11.5993
全国各地	-11.5994
园林	-11.5994
祖父	-11.5997
可行性	-11.5997
dm	-11.5998
▁我告诉你	-11.5999
就没	-11.5999
选举中	-11.6
坚固	-11.6
硕士	-11.6001
恶性	-11.6003
赶快	-11.6004
而产生的	-11.6004
揭露	-11.6005
表面上	-11.6006
融化	-11.6007
女士们	-11.6007
和维持	-11.6008
海运	-11.6009
世界会议	-11.601
▁换句话说	-11.601
▁原来	-11.601
职类	-11.6011
蓬	-11.6013
况	-11.6014
峡谷	-11.6015
不已	-11.6017
分级	-11.6018
盗窃	-11.6018
沙发	-11.602
▁研究人员	-11.6021
▁我想知道	-11.6021
跟我们	-11.6022
▁我以为你	-11.6023
有好处	-11.6023
的袭击	-11.6026
朵	-11.6026
选取	-11.6028
协调人	-11.6029
始于	-11.6029
扶贫	-11.6029
霉	-11.603
发挥重要作用	-11.6031
想办法	-11.6031
永久性	-11.6032
发起的	-11.6033
5,000	-11.6033
▁他要	-11.6035
所进行的	-11.6035
艳	-11.6035
▁听我说	-11.6036
带回	-11.6036
出示	-11.6037
财政期间	-11.6037
毕	-11.6038
枕	-11.6038
局限于	-11.6039
无穷	-11.6039
在报告所述期间	-11.6039
再说	-11.6039
各项活动	-11.6041
完成的	-11.6042
宁静	-11.6042
▁哪	-11.6042
恰	-11.6043
还是在	-11.6043
工作时	-11.6044
下表	-11.6045
路易斯	-11.6045
图象	-11.6046
绑定	-11.6046
奥斯卡	-11.6046
环绕	-11.6047
每年都	-11.6048
电视机	-11.6048
领土完整	-11.6049
外勤	-11.6051
秘书长的	-11.6052
ck	-11.6053
确立了	-11.6057
方面的工作	-11.6057
1)。	-11.6059
的决心	-11.6059
的难民	-11.6059
▁您可以	-11.606
这部分	-11.606
同时考虑到	-11.6061
海事	-11.6061
阵列	-11.6061
▁94.	-11.6062
好看	-11.6062
回国	-11.6062
检察	-11.6062
火器	-11.6064
丹尼尔	-11.6068
绝不会	-11.6068
带给	-11.6068
外资	-11.6069
▁电	-11.6069
偷偷	-11.6069
一般事务人员	-11.607
报告和	-11.607
蒙特	-11.6071
特遣队所属装备	-11.6072
圭亚那	-11.6072
运营商	-11.6073
▁可能是	-11.6073
系统性	-11.6074
爱人	-11.6074
不论是	-11.6076
驶	-11.6077
流浪	-11.6078
产品质量	-11.6078
个人的	-11.6081
而采取的	-11.6083
放了	-11.6084
垮	-11.6085
方面取得了	-11.6085
菊	-11.6086
浴缸	-11.6086
要说	-11.6086
工业发展	-11.6086
放开	-11.6087
一点都不	-11.6088
审批	-11.6088
褐色	-11.6089
食物权	-11.6089
用尽	-11.6089
失败了	-11.609
优良	-11.609
▁大部分	-11.6091
连接到	-11.6094
天的	-11.6094
显微	-11.6095
公正的	-11.6095
iii	-11.6096
的缔约方	-11.6096
劳动法	-11.6097
拿了	-11.6097
快要	-11.6097
各国在	-11.6098
看他	-11.6099
国际法庭	-11.61
坯	-11.61
膀胱	-11.61
1960	-11.6101
放电	-11.6101
强制执行	-11.6104
:「	-11.6104
我感到	-11.6106
中央政府	-11.6107
适应性	-11.6109
劫	-11.611
工作安排	-11.611
看起来像	-11.6111
去参加	-11.6112
奏	-11.6112
姿	-11.6114
全家	-11.6114
凹	-11.6114
可卡因	-11.6115
巷	-11.6115
的敌人	-11.6116
大屠杀	-11.6117
祖母	-11.6117
兼职	-11.6118
和方案	-11.6119
一点儿	-11.6119
大火	-11.6119
原告	-11.612
培训中心	-11.6121
和评估	-11.6124
裸	-11.6124
上下文	-11.6124
否	-11.6125
晚会	-11.6125
哲	-11.6126
自私	-11.6127
委员会将	-11.6127
戴维	-11.6127
都不知道	-11.6128
ld	-11.6128
最近在	-11.613
都应该	-11.6131
出资	-11.6132
受不了	-11.6132
及其它	-11.6133
和业务	-11.6133
的担忧	-11.6134
万名	-11.6134
一门	-11.6135
限于	-11.6136
从我	-11.6136
你想要	-11.6137
连续性	-11.6137
工作条件	-11.6137
的第一步	-11.6137
湿地	-11.6138
现实的	-11.6139
的制度	-11.6139
胰岛素	-11.6142
的设备	-11.6142
自定义	-11.6143
捕捉	-11.6143
linux	-11.6144
雅典	-11.6144
在这一领域	-11.6145
裁减	-11.6145
与我们	-11.6146
定居者	-11.6146
年第	-11.6146
在某种程度上	-11.6147
刑事责任	-11.6148
▁全国	-11.6148
高出	-11.6149
外交官	-11.615
和儿童	-11.6151
野生动物	-11.6153
?"	-11.6153
氧化物	-11.6153
两家	-11.6154
驴	-11.6155
▁我们能	-11.6155
卓	-11.6155
客厅	-11.6156
业余	-11.6156
.18	-11.6157
被要求	-11.6157
伍	-11.6158
论点	-11.6158
在委员会	-11.6159
枪击	-11.6159
可笑	-11.616
国家当局	-11.6161
1.3	-11.6161
牛仔	-11.6162
伯特	-11.6162
你的手	-11.6163
硬盘	-11.6163
日报	-11.6163
将自己	-11.6164
创造一个	-11.6164
iso	-11.6165
别再	-11.6165
统计数字	-11.6166
指甲	-11.6167
晋	-11.6169
的标志	-11.6169
方面取得进展	-11.617
孟	-11.617
eg	-11.6171
也包括	-11.6171
该小组	-11.6172
金色	-11.6172
的代码	-11.6174
淘汰	-11.6175
法律文书	-11.6176
和挑战	-11.6176
的建筑	-11.6176
▁我很抱歉	-11.6177
我看到	-11.6177
的重视	-11.6178
敦	-11.6179
和援助	-11.6179
解决方法	-11.6179
帮助我们	-11.6181
而采取的措施	-11.6181
国家法律	-11.6181
条目	-11.6182
设施和	-11.6182
直流	-11.6182
偶像	-11.6183
▁无论如何	-11.6183
评级	-11.6184
▁重申	-11.6184
迷人	-11.6185
的丈夫	-11.6185
拉加经委会	-11.6187
寂寞	-11.6187
和中国	-11.6188
▁我要你	-11.6188
开放的	-11.6188
受到影响	-11.6189
和一些	-11.6192
数控	-11.6192
保护措施	-11.6193
树上	-11.6193
同期	-11.6193
外壳	-11.6194
连锁	-11.6195
第十	-11.6195
致命的	-11.6196
详	-11.6197
跑到	-11.6197
避孕	-11.6199
▁那时	-11.6199
重返社会	-11.62
聋	-11.6202
找到一个	-11.6202
掠夺	-11.6202
残余	-11.6203
病情	-11.6205
安全保障	-11.6205
泄露	-11.6206
bp	-11.6208
缔约国应	-11.6208
家用	-11.6208
不可或缺的	-11.621
宪法法院	-11.621
鼓舞	-11.621
糟糕的	-11.6211
大事	-11.6211
多年的	-11.6213
巨人	-11.6213
任务规定	-11.6214
肤色	-11.6214
普拉	-11.6214
钓	-11.6215
的指示	-11.6215
名词	-11.6215
备选办法	-11.6218
艾滋病的	-11.6218
04	-11.6221
电线	-11.6224
菲尔	-11.6225
委员会欢迎	-11.6226
以此作为	-11.6227
族人	-11.6227
民族和解	-11.6227
开头	-11.6228
钢管	-11.6229
着陆	-11.623
log	-11.623
修补	-11.623
移动电话	-11.6231
▁即便	-11.6232
所在的	-11.6233
受益者	-11.6234
技术人员	-11.6234
特拉	-11.6234
需要采取	-11.6236
街上	-11.6238
做出贡献	-11.6238
联合国各	-11.6242
充分参与	-11.6242
纳税人	-11.6243
放大器	-11.6243
装运	-11.6244
信道	-11.6245
的同事	-11.6245
凌晨	-11.6246
的保留	-11.6246
夸张	-11.6247
4-	-11.6247
作斗争	-11.6247
这些数据	-11.6248
伪装	-11.6248
法和	-11.6249
只不过	-11.6249
提供者	-11.625
定义的	-11.6252
腐	-11.6252
沉淀	-11.6252
社会保险	-11.6252
待在	-11.6253
布鲁	-11.6254
措辞	-11.6255
述及	-11.6257
被害人	-11.6257
和可持续发展	-11.6258
立法机构	-11.6258
主义的	-11.6259
警惕	-11.6259
世纪的	-11.626
真是个	-11.626
做一些	-11.6265
林肯	-11.6265
做了什么	-11.6265
nt	-11.6266
协调一致的	-11.6267
宣	-11.6269
转基因	-11.6269
gh	-11.6269
▁你一定	-11.627
开端	-11.627
的大脑	-11.627
复杂性	-11.627
依然存在	-11.6274
高档	-11.6274
甲状腺	-11.6275
主管机构	-11.6276
里克	-11.6276
与社会	-11.6276
厨师	-11.6277
武装冲突中	-11.6278
ros	-11.6278
用药	-11.6279
同胞	-11.628
违法行为	-11.6282
复员和重返社会	-11.6282
125	-11.6282
酸奶	-11.6283
国际人权法	-11.6283
地名	-11.6284
与国家	-11.6285
的社区	-11.6286
▁迄今为止	-11.6286
移交给	-11.6287
学说	-11.6288
可以是	-11.6288
计算的	-11.6289
中产阶级	-11.6289
和行动	-11.629
隐瞒	-11.629
主要由	-11.6293
的宣传	-11.6294
三分之二	-11.6297
基因组	-11.6297
匠	-11.6297
对你来说	-11.6298
的实质性	-11.6298
人类发展	-11.6299
▁你以前	-11.6299
方面存在	-11.6301
甜蜜	-11.6302
就应该	-11.6302
是一	-11.6302
完成任务	-11.6303
必定	-11.6303
比重	-11.6303
一级的	-11.6304
容纳	-11.6304
我真	-11.6304
巴勒斯坦问题	-11.6306
编写一份	-11.6306
国际上	-11.6306
显示器	-11.6307
只是想	-11.6307
少于	-11.6308
农田	-11.6309
工作人员和	-11.631
时空	-11.6313
壶	-11.6314
的款项	-11.6315
激烈的	-11.6318
的出现	-11.6319
饮水	-11.6321
其他方面	-11.6322
厨	-11.6323
ji	-11.6323
出庭	-11.6325
受到限制	-11.6326
哥本哈根	-11.6327
第一次会议	-11.6328
后勤基地	-11.6328
回顾了	-11.633
澳	-11.633
南极	-11.633
很高的	-11.633
过我	-11.6331
话语	-11.6332
嘘	-11.6333
最常见的	-11.6333
肘	-11.6334
的暴力行为	-11.6334
注定	-11.6334
执照	-11.6334
肺炎	-11.6335
的年龄	-11.6336
尽头	-11.6337
丛林	-11.6337
▁在本报告所述期间	-11.6338
的适用	-11.6339
派驻	-11.6339
琼	-11.634
要知道	-11.6341
谜	-11.6342
委员会和	-11.6343
地下室	-11.6343
拿起	-11.6345
阿拉	-11.6346
▁我再	-11.6346
梭	-11.6347
什么的	-11.6347
莱斯	-11.6348
饶	-11.6348
伊斯兰会议组织	-11.6348
内部控制	-11.6348
▁老	-11.6348
舞台上	-11.6349
资产的	-11.6349
淹没	-11.635
参见	-11.6352
嗜	-11.6352
又不是	-11.6353
del	-11.6355
危	-11.6355
提出上诉	-11.6355
绳子	-11.6357
底层	-11.6361
▁但他们	-11.6361
与各	-11.6363
汲取	-11.6363
摄影师	-11.6365
但是它	-11.6365
还要求	-11.6366
要求在	-11.6366
又一次	-11.6366
制药	-11.6367
0.0	-11.6368
编制的	-11.6372
什么意思	-11.6372
▁妈	-11.6372
磁性	-11.6373
巴特	-11.6373
▁我又	-11.6374
贱	-11.6375
为重点	-11.6375
出卖	-11.6377
的相关性	-11.6377
同时又	-11.6379
布雷	-11.6379
兑换	-11.6381
基础设施和	-11.6383
pr	-11.6384
cm	-11.6385
矢量	-11.6386
.11	-11.6387
的独立性	-11.6387
/2008/	-11.6388
抚	-11.6389
ju	-11.639
准备金	-11.639
罕	-11.639
是多少	-11.6391
咯	-11.6392
小册子	-11.6393
第三国	-11.6393
hr	-11.6394
▁介绍	-11.6395
/2007/	-11.6396
自决权	-11.6398
这片	-11.6398
2)。	-11.6398
做些	-11.6399
/9	-11.64
巢	-11.64
这份报告	-11.6401
所以我们	-11.6401
之日	-11.6403
负责任的	-11.6405
成一个	-11.6405
午夜	-11.6405
宅	-11.6406
用手	-11.6407
供资的	-11.6407
不合	-11.6407
亚历山大	-11.6407
冰淇淋	-11.6407
直布罗陀	-11.6407
公布了	-11.6408
召唤	-11.6408
洞穴	-11.6409
看作	-11.6409
几乎是	-11.641
臣	-11.641
牵引	-11.6411
部长们	-11.6413
的区别	-11.6414
的索赔	-11.6415
▁伦敦	-11.6415
备受	-11.6416
安德鲁	-11.6417
和提高	-11.6419
▁我正在	-11.6419
在法国	-11.6419
▁定于	-11.642
通话	-11.6421
痒	-11.6422
找我	-11.6423
多个国家	-11.6424
西方国家	-11.6424
敏捷	-11.6425
▁95.	-11.6425
的创新	-11.6427
》;	-11.6429
有时间	-11.643
器材	-11.6433
其他成员	-11.6434
gr	-11.6434
看似	-11.6434
追查	-11.6438
苏珊	-11.6438
调查和	-11.6438
之道	-11.6442
运作的	-11.6442
笔记	-11.6442
许多发展中国家	-11.6443
的时候了	-11.6443
本科	-11.6444
路面	-11.6444
留下的	-11.6445
上世纪	-11.6447
动词	-11.6447
状的	-11.6448
化学武器	-11.6448
你都	-11.6448
并不意味着	-11.6449
的复杂性	-11.6449
重要问题	-11.645
任何国家	-11.6451
罗姆	-11.6451
国产	-11.6451
贞	-11.6452
会影响	-11.6453
达尔	-11.6454
出生的	-11.6455
▁我很高兴	-11.6456
建构	-11.6456
图标	-11.6457
就是一个	-11.6458
暗杀	-11.6458
的行动计划	-11.6458
装有	-11.6459
考虑了	-11.6461
这种行为	-11.6463
法医	-11.6463
财务报告	-11.6465
▁我们也	-11.6465
可惜	-11.6467
利益有关者	-11.6467
肯尼迪	-11.6467
监管机构	-11.6468
各部	-11.6469
冷战	-11.6471
是一件	-11.6473
年审议大会	-11.6474
巴斯	-11.6475
组分	-11.6476
买的	-11.6478
机床	-11.6479
的血	-11.6479
每个国家	-11.6481
队列	-11.6482
oo	-11.6483
简洁	-11.6483
(2	-11.6484
机的	-11.6484
预算中	-11.6485
不是我	-11.6486
简易	-11.6486
过去十年	-11.6487
逆转	-11.6488
获得的	-11.6489
航运	-11.6489
做完	-11.649
密钥	-11.649
风险的	-11.649
那么做	-11.6491
不管是	-11.6491
部长级	-11.6492
▁最好	-11.6492
高兴地	-11.6492
还与	-11.6493
光滑	-11.6494
伊拉克政府	-11.6495
日开始	-11.6495
amp	-11.6495
烯	-11.6497
说他们	-11.6497
混淆	-11.6497
贪婪	-11.6497
瀑布	-11.6497
幼儿园	-11.6497
订购	-11.6498
效率和	-11.6498
沃尔	-11.65
什么都没	-11.6502
的气氛	-11.6502
在我们的	-11.6502
▁e	-11.6503
的婚姻	-11.6503
刚开始	-11.6504
电位	-11.6504
也都	-11.6504
七年	-11.6504
比其他	-11.6505
两年前	-11.6505
我的手	-11.6506
国情	-11.6507
解决这些问题	-11.6507
优先权	-11.6508
二十一世纪	-11.6509
▁把你	-11.6509
约瑟夫	-11.6512
司司长	-11.6513
祝你	-11.6515
前锋	-11.6515
的问题是	-11.6515
汀	-11.6515
纤	-11.6515
总监	-11.6518
殿	-11.652
12%	-11.6521
第一批	-11.6522
充实	-11.6524
▁恐怕	-11.6525
采样	-11.6525
这家公司	-11.6526
琪	-11.6527
纳入其	-11.6527
冰川	-11.6529
角度看	-11.6529
我爸爸	-11.653
名成员	-11.6533
瓶子	-11.6533
服饰	-11.6534
的方式来	-11.6534
是个好	-11.6535
死亡的	-11.6535
需要进行	-11.6535
舌头	-11.6537
习惯法	-11.6539
秒钟	-11.654
尔德	-11.6541
拘押	-11.6542
血浆	-11.6544
卖掉	-11.6546
又要	-11.6546
备选方案	-11.6547
传来	-11.6547
和平解决	-11.6549
气动	-11.6549
全面执行	-11.655
号法	-11.655
建立信任	-11.6552
制冷	-11.6552
很奇怪	-11.6553
市的	-11.6553
不加	-11.6553
健康状况	-11.6554
▁彼得	-11.6556
栽	-11.6557
得益于	-11.6557
荒谬	-11.6557
功效	-11.6557
男友	-11.6559
投降	-11.6559
全国性	-11.6559
杯子	-11.6559
▁这两个	-11.656
闪电	-11.6561
断了	-11.6562
潮湿	-11.6564
▁凡	-11.6566
监测组	-11.6566
催	-11.6566
米尔	-11.6567
掩	-11.6567
工商	-11.6567
坚	-11.6568
详尽	-11.6568
哨	-11.6568
经济的	-11.6568
▁到目前为止	-11.657
咖啡机	-11.6571
什么都不	-11.6572
认为自己	-11.6572
国际安全	-11.6572
各项建议	-11.6572
收益率	-11.6572
登记的	-11.6573
使她	-11.6574
统计资料	-11.6576
的比率	-11.6579
战斗人员	-11.6579
也是一个	-11.658
迫	-11.6581
变态	-11.6581
能为	-11.6582
时钟	-11.6583
这使	-11.6583
▁巴基斯坦	-11.6583
迪亚	-11.6583
有限元	-11.6587
挑衅	-11.6587
拦截	-11.6587
审判分庭	-11.6588
巴勒斯坦难民	-11.6589
并确定	-11.659
祝愿	-11.6591
改革进程	-11.6591
熏	-11.6592
匹	-11.6592
修饰	-11.6593
深海	-11.6593
高等法院	-11.6594
中医	-11.6595
的热	-11.6595
产生的影响	-11.6596
很抱歉	-11.6599
栋	-11.6599
中国经济	-11.6599
美国经济	-11.66
的家	-11.6601
的安排	-11.6602
犹豫	-11.6602
让步	-11.6602
有种	-11.6603
治疗方法	-11.6603
销售额	-11.6603
的私人	-11.6603
城区	-11.6603
握	-11.6604
快乐的	-11.6605
已向	-11.6605
az	-11.6605
常设论坛	-11.6605
方案规划	-11.6605
侵犯了	-11.6607
咨询和	-11.6607
农村发展	-11.6611
颜	-11.6612
第二大	-11.6613
盘子	-11.6613
可以选择	-11.6614
并协助	-11.6614
和评价	-11.6614
赶到	-11.6614
有罪不罚	-11.6616
书记官长	-11.6618
名工作人员	-11.6618
德国人	-11.6618
废弃	-11.6618
即便是	-11.6619
对我说	-11.662
愈合	-11.6621
平等机会	-11.6623
ek	-11.6624
驳回	-11.6628
会很	-11.6628
变了	-11.6629
贬值	-11.6633
摩加迪沙	-11.6633
蚕	-11.6633
视网膜	-11.6633
自制	-11.6633
询	-11.6634
减少灾害风险	-11.6635
写下	-11.6635
血统	-11.6636
状态下	-11.6636
这是因为	-11.6636
》(《	-11.6637
所有有关	-11.6637
云南	-11.6637
▁她还	-11.6638
反恐怖主义委员会	-11.6639
委员会应	-11.6641
站着	-11.6641
经济效益	-11.6641
找到他	-11.6642
上尉	-11.6643
的人来说	-11.6643
善政	-11.6644
公安	-11.6645
辩护律师	-11.6646
趣	-11.6646
取得的	-11.6647
的工人	-11.6647
无条件	-11.6647
资发基金	-11.6648
学的	-11.6648
雕塑	-11.6648
防止和	-11.6648
降临	-11.6649
北韩	-11.665
赐	-11.665
我们看到	-11.6651
▁93.	-11.6651
想让	-11.6652
特别是对	-11.6653
赔偿责任	-11.6653
香水	-11.6654
▁波	-11.6655
泊	-11.6655
摇滚	-11.6656
如何处理	-11.6657
接种	-11.6657
热门	-11.6658
口袋	-11.6658
以西班牙语	-11.6658
提议的	-11.666
不信	-11.6661
今早	-11.6663
的最终	-11.6664
喷雾	-11.6664
了么	-11.6665
这份工作	-11.6665
淋浴	-11.6667
前期	-11.6667
关键问题	-11.6669
信函	-11.667
下游	-11.667
一丝	-11.6671
和地方	-11.6673
提供的服务	-11.6673
▁别再	-11.6676
国际人权文书	-11.6677
他父亲	-11.6678
垒	-11.6678
冈	-11.6678
禅	-11.6678
杠杆	-11.6679
委员会关于	-11.6679
院长	-11.6679
和改进	-11.6679
注销	-11.668
发掘	-11.668
mat	-11.6681
善意	-11.6682
游说	-11.6682
福德	-11.6682
不见	-11.6683
的合法性	-11.6683
出席会议	-11.6684
优越	-11.6684
空间技术	-11.6685
格斯	-11.6685
为此目的	-11.6686
我爱	-11.6686
就职	-11.6687
重新开始	-11.6688
你不是	-11.6688
源代码	-11.6688
这篇文章	-11.6691
反对党	-11.6691
已完成	-11.6692
ation	-11.6692
颤	-11.6692
店里	-11.6692
的观念	-11.6692
薪资	-11.6694
07	-11.6695
助长	-11.6695
▁国际社会	-11.6696
战斗机	-11.6696
错过了	-11.6696
文件和	-11.6697
马车	-11.6697
将导致	-11.67
推迟到	-11.67
老公	-11.67
为联合国	-11.67
包括与	-11.67
越来越大	-11.6701
总督	-11.6702
ser	-11.6702
总局	-11.6705
预后	-11.6706
驱动器	-11.6707
肉体	-11.6707
监测系统	-11.6707
他有	-11.6708
项链	-11.6708
唑	-11.6709
我吗	-11.671
如果有	-11.671
化石	-11.671
款额	-11.671
不断变化的	-11.671
深深	-11.6712
与政府	-11.6712
/2001/	-11.6713
波长	-11.6713
拘禁	-11.6713
同时也是	-11.6714
土著社区	-11.6714
我们今天	-11.6714
当地人	-11.6714
先例	-11.6714
太久	-11.6715
生的	-11.6715
有关部门	-11.6715
任何人都	-11.6717
一封信	-11.6719
拥	-11.672
个月内	-11.6721
第二委员会	-11.6721
出名	-11.6722
房舍	-11.6722
一个由	-11.6723
取样	-11.6723
安定	-11.6724
圆柱	-11.6724
红色的	-11.6725
剧烈	-11.6725
不动产	-11.6725
仍然在	-11.6726
荷载	-11.6726
▁认识到	-11.6726
tar	-11.6726
实现可持续发展	-11.6727
二战	-11.6727
▁96.	-11.6727
拿来	-11.6728
超声波	-11.6728
▁至少	-11.6729
军备	-11.6732
/2010/	-11.6733
要找	-11.6735
固化	-11.6736
经受	-11.6737
法律保护	-11.6737
联塞部队	-11.674
不怕	-11.674
受欢迎	-11.6741
min	-11.6743
各国的	-11.6744
静电	-11.6744
外围	-11.6745
你方	-11.6748
宁愿	-11.6748
坐下来	-11.6749
文盲	-11.6749
承包	-11.6749
但是你	-11.675
萨尔	-11.6751
水管	-11.6753
所有者	-11.6753
豹	-11.6753
悟	-11.6754
伸出	-11.6755
是可以	-11.6755
▁圣	-11.6756
服役	-11.6756
和平协定	-11.6757
积极地	-11.6758
引爆	-11.6758
该怎么办	-11.6759
流行的	-11.6759
参加会议	-11.676
会说	-11.676
▁这是我	-11.6761
ker	-11.6761
kh	-11.6764
尼尔	-11.6764
精细	-11.6766
称呼	-11.6767
大会通过	-11.6767
特质	-11.6768
完善的	-11.6768
热线	-11.6768
的光	-11.6769
树林	-11.6769
担任主席	-11.677
苷	-11.677
绅士	-11.677
宴	-11.6771
把枪	-11.6771
扩充	-11.6771
阻挠	-11.6771
局长	-11.6772
威胁到	-11.6773
带头	-11.6774
妥	-11.6774
极少	-11.6776
生命周期	-11.6776
你却	-11.6777
▁注	-11.6778
是这样的	-11.678
漫	-11.678
四方	-11.6781
望着	-11.6783
为主的	-11.6783
▁但是我们	-11.6784
大多数国家	-11.6785
关上	-11.6785
之下的	-11.6785
喘	-11.6785
添加到	-11.6786
审慎	-11.6786
必将	-11.6786
宇航员	-11.6786
也为	-11.6789
大气层	-11.679
▁g	-11.679
提供帮助	-11.6791
冲突中	-11.6791
合格的	-11.6792
核证	-11.6793
计画	-11.6793
历来	-11.6795
了出来	-11.6795
转子	-11.6796
毛病	-11.6797
代表发言	-11.6798
的讲话	-11.6799
▁我可	-11.6799
背叛	-11.68
pt	-11.68
审计委员会建议	-11.68
定理	-11.6801
教科书	-11.6801
雅虎	-11.6803
▁半	-11.6803
写入	-11.6803
公益	-11.6803
应与	-11.6803
表征	-11.6804
▁一切	-11.6804
进行协调	-11.6804
一个关于	-11.6805
这一次	-11.6807
应对措施	-11.6808
的两倍	-11.6808
培训活动	-11.6808
下车	-11.6811
苍	-11.6811
▁你就是	-11.6812
在去年	-11.6812
▁黑	-11.6813
委员会指出	-11.6815
这些原则	-11.6815
日历	-11.6816
必须采取	-11.6816
结尾	-11.6816
95%	-11.6816
中小型企业	-11.6817
劫持	-11.6817
西欧	-11.6817
ns	-11.6818
#	-11.6818
的年度报告	-11.6819
▁他表示	-11.6819
层的	-11.6819
手枪	-11.682
追加	-11.6821
景色	-11.6821
气流	-11.6821
互补	-11.6821
剩	-11.6822
之人	-11.6823
▁即使是	-11.6824
字节	-11.6824
和参与	-11.6826
▁一切都	-11.6826
雀	-11.6828
的测试	-11.683
1998-1999	-11.6832
湖泊	-11.6833
天生	-11.6834
度的	-11.6836
烟雾	-11.6836
侵权行为	-11.6837
卓越	-11.6839
等因素	-11.6841
少数族裔	-11.6841
一些代表团	-11.6841
政府已	-11.6841
封面	-11.6842
弱点	-11.6843
挑战性	-11.6843
盟友	-11.6843
成立一个	-11.6844
bs	-11.6844
例行	-11.6846
与非	-11.6847
亿人	-11.6847
性问题	-11.6848
订阅	-11.6848
的局面	-11.6848
关于第	-11.6848
显微镜	-11.6849
补给	-11.6849
免费提供	-11.6849
▁开发署	-11.685
缔约国在	-11.6851
梯度	-11.6851
并执行	-11.6851
▁我先	-11.6853
描写	-11.6853
奇异	-11.6855
个星期	-11.6855
和经验	-11.6856
口袋里	-11.6856
一夜	-11.6858
为目标	-11.6859
发表意见	-11.686
▁这家	-11.686
我看	-11.6862
▁不错	-11.6863
一份关于	-11.6863
神学	-11.6863
▁本文主要	-11.6863
核不扩散	-11.6863
(2013	-11.6863
稀土	-11.6864
岁了	-11.6865
车祸	-11.6866
准备工作	-11.6868
通过了关于	-11.6868
教皇	-11.6868
pu	-11.6868
是其	-11.6869
叙述了	-11.687
并对其	-11.687
十分钟	-11.687
认出	-11.687
并提出了	-11.6871
和就业	-11.6872
已从	-11.6873
以保护	-11.6874
必须以	-11.6874
104	-11.6877
医学院	-11.6878
我们正在	-11.6878
现今	-11.6878
相辅相成	-11.6879
把那	-11.688
刹车	-11.6881
软弱	-11.6882
无烟	-11.6883
有多大	-11.6885
我给你	-11.6886
该法案	-11.6886
的意图	-11.6888
他不	-11.6888
介意	-11.6888
称作	-11.6889
的第一次	-11.689
情景	-11.6891
不太可能	-11.6892
all	-11.6892
寡妇	-11.6894
了他们的	-11.6896
大象	-11.6897
口译	-11.6898
武汉	-11.6898
多糖	-11.6898
采用的	-11.6899
吉姆	-11.6899
并敦促	-11.69
可以用来	-11.6902
不影响	-11.6903
怎么样了	-11.6903
的传播	-11.6903
有信心	-11.6904
专业知识	-11.6904
联合国总部	-11.6904
最好的朋友	-11.6905
他们所	-11.6906
▁亚洲	-11.6906
和政府	-11.6906
这款	-11.6907
▁伙计们	-11.6909
可能产生	-11.6909
有形	-11.6909
的爱情	-11.691
宣传和	-11.6911
以色列政府	-11.6911
紫外线	-11.6912
发音	-11.6912
▁他也	-11.6913
▁红	-11.6914
恢复了	-11.6916
国内立法	-11.6917
却在	-11.6917
▁在过去的	-11.6917
勉强	-11.6917
其余的	-11.6917
会发现	-11.6917
我保证	-11.6919
水流	-11.6919
一本书	-11.6922
应采取	-11.6922
▁资料来源	-11.6922
他们自己	-11.6923
婆	-11.6923
促进可持续发展	-11.6923
的歌	-11.6924
限度	-11.6925
秘	-11.6925
身为	-11.6926
服务员	-11.6926
表情	-11.6928
地理位置	-11.6929
盐酸	-11.6929
年以前	-11.6929
下班	-11.6929
阻塞	-11.693
挪	-11.6932
全面审查	-11.6935
董事长	-11.6935
字典	-11.6936
结果是	-11.6936
双眼	-11.6936
我的生活	-11.6936
帆	-11.6937
才有	-11.6937
日渐	-11.6939
对立	-11.6939
具有良好的	-11.694
非自治领土	-11.694
继续为	-11.694
▁缔约国应	-11.6941
不信任	-11.6941
集束弹药	-11.6941
保护区	-11.6942
铝合金	-11.6943
非政府	-11.6944
提高效率	-11.6944
诱发	-11.6945
开发人员	-11.6945
功夫	-11.6946
扣除	-11.6946
谁会	-11.6946
控制和	-11.6946
留意	-11.6946
巴尔	-11.6948
液晶	-11.6948
浦	-11.6949
▁第一个	-11.6952
国际经济	-11.6952
圆满	-11.6953
鼓励各国	-11.6953
的公共	-11.6953
请不要	-11.6954
▁但是如果	-11.6956
强力	-11.6956
舵	-11.6957
迁徙	-11.6957
sql	-11.6957
约占	-11.6957
全民投票	-11.6957
弄得	-11.6958
笔记本	-11.6961
有哪些	-11.6961
les	-11.6961
▁本文从	-11.6963
复审	-11.6963
只剩下	-11.6963
在世界各地	-11.6964
汇总	-11.6964
的一大	-11.6965
▁你也	-11.6966
逢	-11.6967
和消除	-11.6968
聘请	-11.6969
由国家	-11.6969
要走	-11.6969
的女	-11.6969
嵌	-11.697
的策略	-11.6971
的话题	-11.6971
共同主席	-11.6971
他曾	-11.6972
侦探	-11.6973
减灾	-11.6973
他希望	-11.6975
讨论中	-11.6975
加强与	-11.6975
▁各国	-11.6975
尊敬的	-11.6975
选票	-11.6976
话说	-11.6976
0%	-11.6976
严峻	-11.6979
无家可归	-11.698
香味	-11.698
了若干	-11.6981
毛巾	-11.6981
应通过	-11.6982
示威者	-11.6982
联合国人权事务高级专员	-11.6984
▁唔	-11.6986
其所	-11.6987
坊	-11.6988
持久性有机污染物	-11.6988
相互依存	-11.6988
▁你喜欢	-11.6988
信赖	-11.6989
新年	-11.6989
的男孩	-11.6989
结构调整	-11.699
▁几乎	-11.699
可能被	-11.6991
ant	-11.6991
当他们	-11.6992
低压	-11.6994
存货	-11.6994
创造出	-11.6994
准时	-11.6997
袜	-11.6997
双方都	-11.6999
▁给你	-11.6999
其他组织	-11.6999
漫长	-11.7
打死	-11.7
的生活方式	-11.7
155	-11.7001
▁由此	-11.7002
完整性	-11.7004
动摇	-11.7004
要求提供	-11.7004
▁古	-11.7005
一切形式的	-11.7005
问题工作组	-11.7007
他能	-11.7009
更能	-11.7009
上一	-11.7011
家务	-11.7011
国旗	-11.7013
见上文第	-11.7013
矿床	-11.7014
乳腺癌	-11.7015
夹克	-11.7015
损耗	-11.7015
巴拉	-11.7017
在德国	-11.7017
事例	-11.7018
遥远的	-11.7019
娃娃	-11.702
坟墓	-11.702
的一致性	-11.7023
还想	-11.7024
口径	-11.7025
的主要因素	-11.7027
2.2	-11.7028
gen	-11.7028
成立了一个	-11.7029
人间	-11.703
的患者	-11.7031
的转变	-11.7031
该条	-11.7032
屏幕上	-11.7034
凌	-11.7035
而定	-11.7035
史蒂夫	-11.7036
冯	-11.7036
超出了	-11.7036
螺	-11.7036
的代价	-11.7038
观赏	-11.7038
是用来	-11.7038
程度上	-11.7038
近日	-11.7039
平板	-11.7039
之间存在	-11.7041
灾难性	-11.7043
也对	-11.7044
变迁	-11.7045
国家公园	-11.7047
▁黄	-11.7047
他们要	-11.7048
信中	-11.7049
▁她要	-11.705
安全理事会主席	-11.7051
所有成员	-11.7051
惩治	-11.7051
梅尔	-11.7052
忽然	-11.7052
做梦	-11.7053
sar	-11.7053
并得到	-11.7053
拉伸	-11.7055
鹅	-11.7056
107	-11.7056
管理工作	-11.7057
三倍	-11.7058
分隔	-11.706
向安全理事会	-11.706
▁刚才	-11.7061
某些国家	-11.7062
适合于	-11.7062
因为这是	-11.7064
结核	-11.7064
我从	-11.7064
oc	-11.7065
标本	-11.7066
既不	-11.7067
包括关于	-11.7067
常驻联合国代表给秘书长的信	-11.7067
本案	-11.7068
届会议上	-11.7068
诚意	-11.7068
实际的	-11.7069
阿拉伯国家联盟	-11.7069
每一次	-11.707
管理机构	-11.707
2016	-11.707
▁97.	-11.7071
马克思	-11.7071
补充资料	-11.7073
筹备工作	-11.7073
有很大的	-11.7074
过剩	-11.7074
共和党人	-11.7075
前方	-11.7075
原谅我	-11.7078
好像是	-11.7078
深层	-11.7078
所处的	-11.7079
纺织品	-11.7079
少了	-11.708
事务的	-11.708
▁99.	-11.7081
车库	-11.7081
基础教育	-11.7084
听力	-11.7084
了几	-11.7084
▁目的研究	-11.7085
同其他	-11.7085
部族	-11.7086
反向	-11.7086
▁意大利	-11.7089
鲜花	-11.709
买下	-11.709
反叛	-11.7091
的思考	-11.7091
这些方案	-11.7091
做到了	-11.7092
▁我们相信	-11.7093
靴	-11.7093
规程	-11.7094
人们在	-11.7095
生态环境	-11.7095
说出来	-11.7095
利益的	-11.7095
阶段的	-11.7096
水里	-11.7098
薇	-11.7099
硼	-11.7099
她也	-11.7099
香槟	-11.7099
陪伴	-11.7099
精子	-11.71
举行了一次	-11.7101
程式	-11.7102
居住的	-11.7102
为原料	-11.7103
的表情	-11.7103
庙	-11.7105
慢慢地	-11.7106
小狗	-11.7106
分析及	-11.7107
草地	-11.7108
狮	-11.7108
侦察	-11.7109
门户	-11.7109
的训练	-11.711
当做	-11.7111
区域和国家	-11.7111
缆	-11.7111
时间的	-11.7113
103	-11.7113
那份	-11.7114
的确是	-11.7115
估计为	-11.7115
事务处	-11.7115
旨在促进	-11.7115
哮喘	-11.7115
总结了	-11.7116
一瓶	-11.7117
这些国家的	-11.7117
托克劳	-11.7117
研究机构	-11.7118
的专题	-11.7119
灰尘	-11.712
深感	-11.7121
tri	-11.7121
▁我爱你	-11.7122
▁瑞士	-11.7122
世人	-11.7123
硬度	-11.7123
▁你可能	-11.7123
的良好	-11.7124
和我一起	-11.7124
税率	-11.7125
我们能够	-11.7125
不应当	-11.7127
内衣	-11.7127
忠	-11.7128
舟	-11.7128
▁我只能	-11.7128
的注意力	-11.7129
宠	-11.7129
海边	-11.713
公爵	-11.713
皇后	-11.713
悠	-11.713
》)	-11.713
第三委员会	-11.7131
辣椒	-11.7131
西蒙	-11.7131
所学校	-11.7132
事件中	-11.7132
减少到	-11.7132
这对于	-11.7132
五月	-11.7133
是他的	-11.7134
一线	-11.7134
纽约市	-11.7135
日本人	-11.7136
将把	-11.7137
▁委员会注意到	-11.7137
五分钟	-11.7138
/69/	-11.7138
的各个方面	-11.7138
日本政府	-11.7138
升值	-11.7139
由联合国	-11.7139
并购	-11.7139
官僚	-11.714
的实验	-11.714
经销商	-11.714
项建议	-11.7141
账单	-11.7142
低下	-11.7142
曾是	-11.7143
▁i	-11.7143
过失	-11.7143
打包	-11.7144
中风	-11.7144
提交一份	-11.7145
羽毛	-11.7145
和责任	-11.7146
的第二	-11.7146
看看你	-11.7146
杀了你	-11.7147
卤	-11.7147
可不是	-11.7147
跨部门	-11.7147
ay	-11.7148
他们没有	-11.7148
108	-11.7149
旧的	-11.7149
衰老	-11.7149
相等	-11.715
东耶路撒冷	-11.7151
ze	-11.7152
这个城市	-11.7152
救了	-11.7152
辨	-11.7152
重庆	-11.7152
预算编制	-11.7154
是目前	-11.7155
tion	-11.7156
简短	-11.7157
原有	-11.7158
的透明度	-11.7158
导管	-11.7159
想念	-11.7159
上级	-11.716
巴哈马	-11.7161
贡	-11.7162
荣幸	-11.7162
蛮	-11.7162
詹	-11.7162
还有什么	-11.7163
重构	-11.7163
悲观	-11.7164
会是	-11.7164
的协定	-11.7165
武器的	-11.7165
双边和多边	-11.7165
械	-11.7165
这么想	-11.7166
缴付	-11.7167
两组	-11.7167
目击者	-11.7167
桂	-11.7168
别想	-11.7168
全力支持	-11.7168
经济政策	-11.7169
▁你很	-11.7169
场的	-11.7169
什么了	-11.7171
离心	-11.7174
当时的	-11.7174
成份	-11.7176
雄性	-11.7176
的次数	-11.7177
举止	-11.7177
研究显示	-11.7179
迈阿密	-11.7179
评判	-11.718
今天下午	-11.718
▁古巴	-11.718
杀了我	-11.7181
并采取	-11.7181
认可的	-11.7181
que	-11.7181
代表了	-11.7182
感染艾滋病毒	-11.7182
树枝	-11.7184
衍生	-11.7184
们在	-11.7184
的案例	-11.7186
重重	-11.7186
哪一个	-11.7187
磁带	-11.7188
升起	-11.7188
爪	-11.719
专家委员会	-11.7191
的主人	-11.7191
制造的	-11.7192
拾	-11.7192
有其	-11.7193
郑	-11.7193
捐	-11.7194
越大	-11.7194
无权	-11.7194
等其他	-11.7194
留着	-11.7194
那不是	-11.7195
与众不同	-11.7195
上市公司	-11.7195
到这里	-11.7196
遵约	-11.7196
兑	-11.7197
这么大	-11.7197
土地退化	-11.7197
成千上万	-11.7198
起到了	-11.72
退休金	-11.72
没必要	-11.7201
的其它	-11.7201
109	-11.7202
ng	-11.7202
力图	-11.7203
来得	-11.7203
做出决定	-11.7204
tal	-11.7205
哈佛	-11.7205
一系列的	-11.7205
ov	-11.7205
▁专家组	-11.7205
但这些	-11.7207
骨骼	-11.7209
给您	-11.7209
赛事	-11.7209
具体问题	-11.7211
mil	-11.7211
注释	-11.7212
使用情况	-11.7212
1983	-11.7212
普京	-11.7213
有不同的	-11.7214
实现这些目标	-11.7214
维和人员	-11.7214
流产	-11.7215
的答案	-11.7216
▁你这	-11.7216
严格遵守	-11.7218
分层	-11.7218
/2009/	-11.7219
你家	-11.722
旅费	-11.722
aa	-11.7221
芒	-11.7221
国家工作队	-11.7222
知道自己	-11.7222
没办法	-11.7223
其他形式的	-11.7223
纳斯	-11.7224
我愿	-11.7224
102	-11.7226
估值	-11.7226
程序中	-11.7226
财政年度	-11.7227
妳	-11.7227
by	-11.7228
tor	-11.7229
sta	-11.7229
有时会	-11.7229
的人群	-11.7229
召开了	-11.7229
在制定	-11.723
语言的	-11.7231
35%	-11.7232
地板上	-11.7233
听上去	-11.7233
拍照	-11.7233
▁2014	-11.7234
有效和	-11.7234
在一次	-11.7236
开发了	-11.7236
该战略	-11.7236
我爸	-11.7237
加权	-11.7237
转达	-11.7237
香烟	-11.7238
▁我听到	-11.7238
号文件所载	-11.7239
艰巨	-11.7239
宣传运动	-11.7239
电容	-11.724
小时内	-11.7241
正在考虑	-11.7242
窒息	-11.7243
酗酒	-11.7243
希拉里	-11.7244
便会	-11.7246
东北部	-11.7246
和精神	-11.7247
坏人	-11.7248
联合国工作人员	-11.7248
今天晚上	-11.7249
消除种族歧视委员会	-11.7249
嘴巴	-11.725
之间建立	-11.725
经修订的	-11.725
不完全	-11.7251
那家	-11.7252
布莱	-11.7252
联络小组	-11.7252
尤其如此	-11.7254
中列入	-11.7254
可选	-11.7255
湖人	-11.7255
最棒的	-11.7255
不高	-11.7255
环境的	-11.7255
紧紧	-11.7256
▁很多人	-11.7257
这种现象	-11.7258
小波	-11.7258
凑	-11.7259
白色的	-11.7259
/2011/	-11.7259
敷	-11.7259
屏蔽	-11.726
这段时间	-11.726
工具和	-11.7263
友善	-11.7265
这一项目	-11.7265
不对称	-11.7265
101	-11.7265
出自	-11.7266
▁世界上	-11.7269
常用的	-11.7269
品尝	-11.7269
国集团和中国	-11.727
金牌	-11.727
拉美	-11.727
就读	-11.727
为使	-11.7271
词典	-11.7271
引发的	-11.7272
袋子	-11.7274
是完全	-11.7274
更有效	-11.7276
逾	-11.7277
调查员	-11.7278
能让你	-11.7278
▁我不明白	-11.7279
观察员部队	-11.7279
政府将	-11.7279
等国	-11.728
新一代	-11.728
等方面的	-11.728
导入	-11.728
对有关	-11.728
和改善	-11.7281
正直	-11.7282
早点	-11.7282
问卷	-11.7282
与其它	-11.7282
分发给	-11.7283
纯粹	-11.7283
差额	-11.7284
的全	-11.7284
不符	-11.7285
预防犯罪和刑事司法	-11.7285
更有效的	-11.7286
钻井	-11.7286
代表们	-11.7288
公认	-11.7288
1971	-11.7289
联阿援助团	-11.7292
月中旬	-11.7292
▁我不会	-11.7293
日后	-11.7294
认真的	-11.7294
广阔的	-11.7296
高端	-11.73
的诊断	-11.73
指导意见	-11.7301
津	-11.7303
成千上万的	-11.7305
dec	-11.7305
内核	-11.7309
tra	-11.7311
乔伊	-11.7311
救护车	-11.7312
我也是	-11.7312
van	-11.7314
非常感谢	-11.7314
艰难的	-11.7314
▁你不知道	-11.7314
一致的	-11.7315
印度洋	-11.7315
▁毕竟	-11.7315
sub	-11.7316
评分	-11.7317
/10	-11.7317
1(	-11.7318
本国工作人员	-11.7318
散布	-11.7318
的皮肤	-11.7318
结局	-11.7319
两年期内	-11.7319
的天气	-11.732
ez	-11.732
侵权	-11.7321
打算在	-11.7321
证词	-11.7322
物质的	-11.7322
▁我本来	-11.7322
的言论	-11.7324
探险	-11.7324
出差	-11.7324
崔	-11.7324
海洛因	-11.7324
鸦片	-11.7325
盈	-11.7325
火车站	-11.7326
误导	-11.7326
捡	-11.7326
领土的	-11.7327
家庭生活	-11.7327
细致	-11.7328
坏事	-11.7328
说是	-11.7329
一号	-11.7329
的步骤	-11.733
此一	-11.733
3)。	-11.733
为人	-11.7331
所有各方	-11.7332
喝一杯	-11.7332
之前就	-11.7333
1.4	-11.7334
的表面	-11.7336
所附	-11.7337
没有被	-11.7337
重要的作用	-11.7337
去见	-11.7338
的最佳做法	-11.7338
奸	-11.7338
▁感觉	-11.7339
摩纳哥	-11.7341
失衡	-11.7341
高风险	-11.7342
全职	-11.7342
潜能	-11.7342
日举行的第	-11.7344
土著人民的	-11.7344
fl	-11.7345
秋季	-11.7348
▁想想	-11.7349
▁但是在	-11.7349
数月	-11.7349
死人	-11.735
有关的活动	-11.7353
并提高	-11.7354
法律草案	-11.7354
进行对话	-11.7355
决定性	-11.7355
获益	-11.7356
一个地方	-11.7356
此案	-11.7357
归咎于	-11.7357
铵	-11.7357
抵御	-11.7357
兵力	-11.7358
不歧视	-11.7358
不限成员名额	-11.7359
国际化	-11.7359
或许是	-11.7359
对决议草案	-11.7359
也一样	-11.736
主流化	-11.7361
迪拜	-11.7361
奉行	-11.7362
ver	-11.7362
身处	-11.7362
和能力	-11.7362
的货物	-11.7363
的预测	-11.7363
生活水平	-11.7363
9000	-11.7365
的家人	-11.7365
抗菌	-11.7367
预期的	-11.7367
该特派团	-11.7367
▁法院	-11.7368
号公约	-11.737
新政府	-11.7371
的成绩	-11.7371
持久和平	-11.7371
▁布	-11.7372
阿森纳	-11.7373
和欧洲	-11.7373
遗址	-11.7373
药物滥用	-11.7374
上车	-11.7375
经济状况	-11.7376
最重要的是	-11.7376
促进两性平等	-11.7377
尽量减少	-11.7377
采取必要措施	-11.7378
氛围	-11.7378
兰德	-11.7378
去拿	-11.7379
土地和	-11.738
1973	-11.738
ei	-11.7381
打架	-11.7381
这表明	-11.7382
.19	-11.7382
教养	-11.7382
旱	-11.7383
更长	-11.7384
应当是	-11.7385
疯狂的	-11.7386
前沿	-11.7386
适当地	-11.7387
也未	-11.7387
作出答复	-11.7387
高盛	-11.7388
高性能	-11.7389
偿付	-11.739
潜艇	-11.739
黎明	-11.7391
的图像	-11.7391
废料	-11.7392
并继续	-11.7394
通向	-11.7394
矫正	-11.7395
传统上	-11.7397
肇事者	-11.7398
该地区的	-11.7398
幸福的	-11.7398
监护人	-11.7401
▁的确	-11.7401
告别	-11.7402
致死	-11.7402
迪克	-11.7403
▁新型	-11.7404
举起	-11.7404
旅程	-11.7406
南斯拉夫联盟共和国	-11.7406
萨摩亚	-11.7406
送你	-11.7407
科比	-11.7407
跟他们	-11.7408
联合国和	-11.7408
闭幕	-11.7409
务必	-11.7409
继续下去	-11.741
所得税	-11.7411
分析法	-11.7411
十九	-11.7411
部分原因是	-11.7411
气球	-11.7414
安全局势	-11.7415
防火	-11.7415
发型	-11.7415
保持着	-11.7415
2500	-11.7416
的门	-11.7417
[...]
