<unk>	0
<s>	0
</s>	0
,	-3.04399
。	-3.30828
的	-3.56443
▁	-3.56653
和	-4.4451
、	-4.82116
在	-4.88508
是	-5.48086
了	-5.5116
;	-5.54912
(	-5.60187
年	-5.60814
对	-5.64782
中	-5.67311
)	-5.68389
与	-5.76252
为	-5.88653
:	-6.07379
有	-6.13363
上	-6.13635
将	-6.19393
人	-6.20956
或	-6.22722
月	-6.26866
不	-6.28307
并	-6.28791
我	-6.34292
》	-6.35243
《	-6.36867
时	-6.37946
他	-6.41848
地	-6.42521
以	-6.46428
quot	-6.49491
一个	-6.52756
性	-6.54009
&	-6.54197
而	-6.54532
到	-6.61641
其	-6.62159
说	-6.6217
▁在	-6.62481
就	-6.63725
被	-6.6417
问题	-6.64348
及	-6.67362
从	-6.67729
日	-6.67794
来	-6.68825
以及	-6.69341
你	-6.71758
向	-6.7211
进行	-6.74905
用	-6.75147
国家	-6.78143
我们	-6.78942
一	-6.78952
第	-6.79569
?	-6.81498
后	-6.82065
会	-6.83689
大	-6.83897
他们	-6.84687
也	-6.86355
工作	-6.86903
-	-6.87615
可	-6.87864
.	-6.88522
包括	-6.89717
下	-6.90203
提供	-6.90579
于	-6.90903
关于	-6.913
所	-6.91322
/	-6.9291
通过	-6.93267
“	-6.94368
可以	-6.96062
1	-6.97023
这些	-6.97892
法	-6.98458
里	-7.00539
要	-7.02305
没有	-7.02972
委员会	-7.03181
都	-7.04955
水	-7.05812
但	-7.06173
a	-7.06581
还	-7.07098
"	-7.086
政府	-7.08978
着	-7.09475
研究	-7.10918
”	-7.11826
系统	-7.12243
等	-7.12377
者	-7.12648
能	-7.12772
使用	-7.14775
需要	-7.16192
她	-7.16268
该	-7.16616
它	-7.16786
多	-7.16829
2	-7.16959
出	-7.17083
内	-7.18168
应	-7.19035
个	-7.19753
把	-7.2032
3	-7.20997
联合国	-7.21513
子	-7.21633
新	-7.22098
这	-7.22156
▁我	-7.2281
由	-7.23018
高	-7.23274
前	-7.24358
已	-7.25546
方面	-7.26011
去	-7.26476
发展	-7.28282
小	-7.2845
有关	-7.31082
·	-7.32477
技术	-7.32952
无	-7.33585
管理	-7.34417
组织	-7.34509
公司	-7.34869
之	-7.36158
国际	-7.36167
活动	-7.36483
已经	-7.36752
化	-7.36758
方案	-7.37373
6	-7.37635
使	-7.38881
这个	-7.39283
5	-7.39501
所有	-7.39959
4	-7.39975
斯	-7.40426
可能	-7.40493
报告	-7.42177
比	-7.4271
点	-7.43637
更	-7.43751
机	-7.43959
一些	-7.44495
10	-7.45048
方法	-7.45367
过	-7.45884
要求	-7.46301
名	-7.46999
支持	-7.47866
中国	-7.47929
执行	-7.48297
分析	-7.48456
c	-7.48894
服务	-7.49695
经济	-7.50504
12	-7.50965
必须	-7.51512
分	-7.51747
处理	-7.52493
本	-7.52514
社会	-7.53241
作为	-7.53543
认为	-7.5362
项目	-7.53667
得	-7.54173
▁他	-7.54296
7	-7.55417
长	-7.55587
体	-7.55671
会议	-7.56029
器	-7.56536
计划	-7.57477
给	-7.57959
好	-7.58023
最	-7.58506
这种	-7.58691
这一	-7.58858
拉	-7.58958
9	-7.60224
美国	-7.60493
建议	-7.60518
头	-7.60917
机构	-7.61208
)。	-7.61735
特	-7.61857
根据	-7.62281
能够	-7.62284
开始	-7.62759
其他	-7.64089
条	-7.64296
家	-7.64343
妇女	-7.65416
▁(	-7.65636
外	-7.66182
表示	-7.66332
具有	-7.66854
公约	-7.67151
式	-7.68801
教育	-7.68959
因为	-7.6922
手	-7.69297
8	-7.69443
b	-7.69677
时间	-7.69762
情况	-7.70004
线	-7.70397
保护	-7.70765
任何	-7.7086
那	-7.70972
控制	-7.71289
决定	-7.71291
继续	-7.71399
各	-7.71596
行动	-7.71915
自	-7.72064
!	-7.72242
国	-7.72245
实现	-7.72974
▁我们	-7.72989
代表	-7.73004
信息	-7.73032
的人	-7.73215
同	-7.73646
力	-7.7439
影响	-7.74411
心	-7.75292
获得	-7.7534
先生	-7.75662
非	-7.75779
天	-7.75906
做	-7.76576
主要	-7.76751
中的	-7.76753
政策	-7.76809
得到	-7.76838
学	-7.7703
措施	-7.77174
安全	-7.77328
型	-7.77352
法律	-7.77584
如	-7.77809
很	-7.77979
数据	-7.78184
世界	-7.7902
德	-7.79064
自己	-7.79073
合作	-7.79103
地区	-7.79104
建立	-7.79904
又	-7.80277
流	-7.80359
热	-7.80672
区	-7.81169
车	-7.81319
面	-7.81586
至	-7.8184
增加	-7.81909
带	-7.82433
三	-7.82874
s	-7.83103
段	-7.83343
生	-7.83927
11	-7.8395
正在	-7.84405
发	-7.84572
利	-7.84644
促进	-7.84744
利用	-7.84867
提高	-7.84905
光	-7.85961
行	-7.86357
设计	-7.87104
成	-7.87221
中心	-7.87543
正	-7.87678
尔	-7.87804
但是	-7.8792
开	-7.88402
让	-7.88406
努力	-7.88574
加	-7.9
程序	-7.90207
就是	-7.90355
文件	-7.90553
一种	-7.90669
区域	-7.90975
加强	-7.91289
受	-7.91517
起	-7.91524
及其	-7.91557
并且	-7.91708
部分	-7.91814
环境	-7.92458
量	-7.9263
资源	-7.92861
克	-7.93181
成为	-7.93357
儿童	-7.93925
部	-7.93992
而且	-7.94243
花	-7.94588
目标	-7.94667
想	-7.94709
马	-7.94739
看	-7.94982
e	-7.95009
确保	-7.95107
现在	-7.95687
的影响	-7.96597
两	-7.96622
低	-7.96746
重	-7.96764
提出	-7.96822
权	-7.97083
参与	-7.97192
20	-7.97597
再	-7.97627
实施	-7.97643
不同	-7.97756
或者	-7.97969
度	-7.98373
市场	-7.98951
如果	-7.98972
能力	-7.99019
当	-7.99101
希望	-7.99194
气	-7.99728
全球	-7.99839
减少	-8.0002
指出	-8.00457
打	-8.00492
道	-8.00503
d	-8.00691
金	-8.01259
结构	-8.01307
相	-8.01706
之后	-8.0195
用于	-8.02366
像	-8.02547
▁如果	-8.03142
一样	-8.03234
规定	-8.03533
则	-8.03609
19	-8.03676
风	-8.03684
生产	-8.03707
西	-8.03783
采取	-8.03843
调查	-8.03954
治疗	-8.04138
号	-8.04245
即	-8.04248
门	-8.04253
因	-8.04313
新的	-8.04789
海	-8.04875
期	-8.04907
审查	-8.04977
率	-8.0514
的时候	-8.05512
解决	-8.05712
非常	-8.05816
大会	-8.05924
l	-8.0605
是一个	-8.06085
进一步	-8.06506
对于	-8.06895
发现	-8.07031
卡	-8.07039
选择	-8.07187
管	-8.07194
油	-8.07559
们	-8.07714
入	-8.07746
特别	-8.07757
人员	-8.07796
处	-8.07937
它们	-8.08156
作用	-8.0825
山	-8.08392
文	-8.08544
企业	-8.08741
那些	-8.08744
标准	-8.08768
发生	-8.08824
不能	-8.09034
网络	-8.09079
物	-8.09277
之间	-8.09628
表	-8.09727
C	-8.09737
15	-8.09769
基	-8.09866
请	-8.1005
机制	-8.10177
应该	-8.10696
全	-8.10839
帮助	-8.10962
产品	-8.11085
确定	-8.11104
电	-8.11191
采用	-8.11511
其中	-8.11551
讨论	-8.11571
战略	-8.11714
他的	-8.11737
二	-8.12296
如何	-8.12442
评估	-8.12465
数	-8.12636
▁这	-8.12928
接受	-8.1293
▁因此	-8.13078
类	-8.13144
▁但是	-8.13164
领域	-8.13278
单	-8.13351
人们	-8.13452
方式	-8.13575
只	-8.13648
因此	-8.1433
事	-8.14483
期间	-8.1457
缔约国	-8.14647
吗	-8.14689
层	-8.14707
各种	-8.1529
美元	-8.15295
你的	-8.154
政治	-8.15418
人权	-8.15617
未	-8.15652
位	-8.15684
行为	-8.15686
之前	-8.15815
30	-8.1595
是否	-8.1596
场	-8.16514
相关	-8.16518
号决议	-8.17092
科	-8.17312
关系	-8.17343
设备	-8.17498
制	-8.17608
许多	-8.1783
回	-8.18332
经	-8.18807
考虑	-8.19417
部门	-8.19675
▁你	-8.19907
作	-8.20148
路	-8.20175
18	-8.2066
称	-8.20713
主	-8.20784
方	-8.21311
P	-8.2138
达	-8.21439
却	-8.21653
款	-8.21884
间	-8.22161
图	-8.22337
由于	-8.22456
结果	-8.2282
见	-8.22822
投资	-8.22844
总	-8.22961
美	-8.23372
成员	-8.23414
A	-8.23499
各国	-8.23591
文化	-8.23734
的工作	-8.23891
次	-8.24078
身	-8.24146
布	-8.24208
还是	-8.24597
制度	-8.24597
市	-8.24783
条件	-8.2481
目前	-8.24913
变	-8.24927
动	-8.25588
特别是	-8.25648
参加	-8.25802
无法	-8.25806
片	-8.26583
自由	-8.26665
完成	-8.2696
阿	-8.27123
家庭	-8.27196
受到	-8.27437
病	-8.27598
值	-8.2761
▁他们	-8.27631
书	-8.27647
安	-8.27742
组	-8.27847
白	-8.27848
巴	-8.27915
的问题	-8.28042
四	-8.28596
您	-8.28801
大学	-8.28807
协调	-8.2884
运动	-8.28916
制定	-8.28961
城市	-8.28968
开展	-8.29024
球	-8.29106
两个	-8.29125
自己的	-8.29439
转	-8.29681
有效	-8.29701
完全	-8.29808
以便	-8.29896
▁此外	-8.29899
同时	-8.29904
之一	-8.30355
16	-8.30361
生活	-8.30364
板	-8.30471
进行了	-8.30605
亚	-8.30728
支助	-8.30761
▁她	-8.30813
说明	-8.31002
贸易	-8.31222
节	-8.31416
米	-8.31435
负责	-8.32085
核	-8.32334
▁“	-8.32591
开发	-8.32933
M	-8.33004
万	-8.33478
应当	-8.33538
格	-8.33596
口	-8.33779
直接	-8.33783
皮	-8.33794
S	-8.33963
14	-8.34766
一次	-8.34773
产生	-8.34892
声	-8.35394
小组	-8.35396
审议	-8.35417
走	-8.35888
T	-8.3605
波	-8.36432
和其他	-8.36532
应用	-8.36727
13	-8.36823
共同	-8.36925
质	-8.37038
爱	-8.37165
▁该	-8.37226
罗	-8.37249
重新	-8.37285
B	-8.37481
保持	-8.37523
一项	-8.37793
细胞	-8.37841
进	-8.37868
权利	-8.37911
存在	-8.38119
都是	-8.38156
空间	-8.38184
半	-8.38373
剂	-8.38751
▁这些	-8.39083
费用	-8.39319
秘书处	-8.39791
▁然而	-8.39828
调	-8.40408
模式	-8.40532
语	-8.40776
拥有	-8.40795
改革	-8.40866
银行	-8.40918
合	-8.40926
培训	-8.41
材料	-8.41166
才	-8.41293
南	-8.41398
L	-8.41583
火	-8.41674
援助	-8.41785
上的	-8.41786
模型	-8.41973
双	-8.41974
评价	-8.42023
D	-8.42085
学习	-8.42148
改善	-8.42264
定	-8.42302
然后	-8.42555
个人	-8.42575
非洲	-8.43032
了解	-8.43289
纳	-8.43294
业务	-8.4336
预算	-8.43378
不会	-8.43386
p	-8.43674
来自	-8.43947
按	-8.44007
任务	-8.44253
。”	-8.44309
这样	-8.44365
每	-8.44769
色	-8.44887
17	-8.44935
的报告	-8.45039
什么	-8.4505
台	-8.4524
工	-8.45516
出现	-8.45594
联合	-8.45634
和平	-8.45702
作出	-8.458
尼	-8.4589
资料	-8.46145
州	-8.46267
看到	-8.46501
女	-8.46546
约	-8.4694
主席	-8.47023
▁当	-8.47082
级	-8.47148
网	-8.47269
▁但	-8.47303
神	-8.47318
方面的	-8.4734
老	-8.47412
包	-8.4745
框架	-8.47455
项	-8.47679
我的	-8.47723
员	-8.47845
重要	-8.47941
过程	-8.47953
形	-8.48062
边	-8.48093
强调	-8.48235
——	-8.48339
工作人员	-8.48466
代表团	-8.48575
来说	-8.48612
通	-8.48669
石	-8.48732
压	-8.48764
因素	-8.48775
g	-8.49066
那么	-8.49154
人民	-8.4917
F	-8.49719
反	-8.49855
平	-8.49967
水平	-8.50033
放	-8.50062
地方	-8.50138
此	-8.50178
计算	-8.502
干	-8.50234
用户	-8.50269
显示	-8.50578
学生	-8.50583
仍然	-8.50622
的国家	-8.50644
不是	-8.50748
进入	-8.50775
明	-8.50819
空	-8.50848
工具	-8.51183
按照	-8.51192
原则	-8.51213
木	-8.51644
造成	-8.51654
学校	-8.52066
表明	-8.52128
提供了	-8.52478
五	-8.5253
内容	-8.52667
改变	-8.52843
局	-8.53058
进程	-8.53081
吃	-8.53302
知道	-8.53437
的一个	-8.53566
G	-8.5385
的研究	-8.53874
导致	-8.53924
眼	-8.53938
写	-8.54067
资金	-8.54118
林	-8.54296
基金	-8.54338
公	-8.54365
涉及	-8.54422
感	-8.54563
微	-8.54564
充分	-8.54647
注意到	-8.54671
专家	-8.54727
安排	-8.54842
协助	-8.54876
太	-8.54887
一直	-8.55244
基于	-8.55342
----	-8.55405
人类	-8.55522
近	-8.55779
这是	-8.55854
比较	-8.55906
试验	-8.56101
整个	-8.56207
呢	-8.56271
红	-8.56424
测试	-8.56776
提交	-8.57099
秘书长	-8.57469
准备	-8.57563
选举	-8.57564
保证	-8.57799
他们的	-8.57811
最后	-8.57973
商	-8.58027
夫	-8.58174
全面	-8.58237
以色列	-8.58258
工作组	-8.58304
解	-8.58395
基本	-8.58506
阶段	-8.58525
之间的	-8.5873
电子	-8.58838
科学	-8.58939
原	-8.59054
听	-8.59092
质量	-8.59095
严重	-8.59214
协议	-8.5931
只有	-8.59541
理论	-8.59759
事务	-8.59764
N	-8.60018
健康	-8.60214
2010	-8.6029
法院	-8.6032
▁它	-8.60473
记录	-8.60536
限制	-8.60579
价值	-8.60605
队	-8.60757
工程	-8.60833
种	-8.60837
针对	-8.60849
达到	-8.6087
更加	-8.60921
装	-8.61016
增长	-8.61163
一名	-8.61208
鼓励	-8.61351
均	-8.61383
的情况	-8.61428
河	-8.61588
事件	-8.6161
承诺	-8.61693
举行	-8.61716
意	-8.61758
只是	-8.6189
强	-8.62331
变化	-8.62375
:“	-8.62388
公共	-8.62694
改进	-8.62801
派	-8.62812
酸	-8.62849
抗	-8.6303
具体	-8.63097
长期	-8.63261
f	-8.63288
状	-8.63392
▁由于	-8.6344
曾	-8.6349
检查	-8.63525
E	-8.63647
星	-8.63858
例	-8.64002
欧洲	-8.64034
H	-8.64124
你们	-8.64183
轮	-8.64378
甚至	-8.6443
责任	-8.64485
总统	-8.64532
产	-8.64556
理事会	-8.64624
接	-8.64726
战	-8.64797
情	-8.64807
省	-8.64925
选	-8.64963
连	-8.65077
死	-8.65173
行业	-8.65187
需求	-8.65239
2000	-8.65285
同意	-8.65303
恢复	-8.65373
t	-8.65473
承认	-8.65538
2005	-8.65686
人口	-8.65792
日本	-8.65836
汽车	-8.66021
钱	-8.66036
持续	-8.66039
冲突	-8.66085
综合	-8.66113
联	-8.66183
品	-8.66209
一般	-8.66211
语言	-8.66546
挑战	-8.6656
社区	-8.66749
第二	-8.66764
发展中国家	-8.66863
集团	-8.66872
工业	-8.66973
塔	-8.6709
军	-8.67413
访问	-8.67426
团	-8.6743
费	-8.67624
清	-8.67725
2008	-8.67765
n	-8.67818
极	-8.67952
犯罪	-8.67956
收入	-8.68048
业	-8.68231
也是	-8.68239
办公室	-8.6833
素	-8.68522
监测	-8.68566
的话	-8.6866
没	-8.68704
从而	-8.68808
一起	-8.68823
特派团	-8.68871
为了	-8.68894
快	-8.68981
关注	-8.6902
占	-8.69024
21	-8.69039
药	-8.69062
先	-8.69122
深	-8.69141
黑	-8.69629
远	-8.69678
感到	-8.69731
不断	-8.69774
内部	-8.69797
2006	-8.69878
岁	-8.69901
交	-8.70003
专业	-8.70018
毛	-8.70038
伊	-8.70128
2009	-8.70142
树	-8.70169
25	-8.70194
最终	-8.70203
便	-8.70323
问	-8.70372
膜	-8.70492
并不	-8.7055
实际	-8.70637
系	-8.70656
室	-8.70696
奥	-8.7077
还有	-8.709
教	-8.71133
介绍	-8.71304
2007	-8.71408
反应	-8.71457
范围	-8.71647
孩子	-8.71884
会员国	-8.71977
通常	-8.72133
尽管	-8.72258
维	-8.72325
过程中	-8.72433
很多	-8.72628
机会	-8.72656
条约	-8.72809
▁根据	-8.72896
液	-8.72949
报	-8.72986
起来	-8.73147
独立	-8.73262
经常	-8.73267
仍	-8.7332
欢迎	-8.73403
合同	-8.73468
安全理事会	-8.73527
推动	-8.73585
源	-8.73777
规则	-8.73788
列	-8.74021
风险	-8.74038
哈	-8.7408
防止	-8.74325
协定	-8.74335
R	-8.74384
价格	-8.74391
落	-8.74521
真	-8.74536
批准	-8.74742
y	-8.7478
角	-8.74916
自然	-8.75016
论	-8.75057
雷	-8.75064
件	-8.75135
50	-8.75223
司法	-8.75239
生物	-8.7524
至少	-8.75371
普	-8.75573
信	-8.75652
办法	-8.75679
探讨	-8.757
消除	-8.75732
骨	-8.75749
i	-8.7576
k	-8.75789
h	-8.75964
24	-8.75986
架	-8.76045
加入	-8.76061
城	-8.76174
超	-8.76188
O	-8.76222
血	-8.76261
差	-8.76295
全国	-8.76302
法庭	-8.76315
▁本文	-8.76343
的主要	-8.76443
2004	-8.76555
令人	-8.76598
每个	-8.76803
效果	-8.76818
吧	-8.76832
例如	-8.76859
状况	-8.76957
形式	-8.77083
意义	-8.77087
以下	-8.77139
交易	-8.77144
检测	-8.77223
具	-8.77236
的权利	-8.77292
站	-8.7734
提出了	-8.77353
托	-8.77393
▁从	-8.77418
防	-8.77596
建设	-8.77698
注意	-8.77734
取得	-8.77871
证明	-8.78003
萨	-8.78072
房	-8.78256
上述	-8.78349
所以	-8.78558
装置	-8.78787
短	-8.78796
盘	-8.78854
传统	-8.78888
经验	-8.7895
鱼	-8.78977
收	-8.79233
一位	-8.79306
船	-8.79321
人的	-8.79413
共	-8.79426
操作	-8.79517
过去	-8.79586
意见	-8.79594
沙	-8.79834
国内	-8.79896
行政	-8.79938
特征	-8.79965
国际社会	-8.79998
纸	-8.80026
黄	-8.80189
环	-8.80346
集	-8.80378
扩大	-8.80395
的是	-8.805
的方法	-8.80694
结	-8.8079
是一种	-8.80911
稳定	-8.81136
兰	-8.81156
新闻	-8.81186
最近	-8.81228
叶	-8.81274
似乎	-8.8134
警察	-8.81497
而言	-8.81823
m	-8.8201
英国	-8.8205
出口	-8.82271
解释	-8.82296
几	-8.824
联系	-8.82414
31	-8.82452
符合	-8.82519
我们的	-8.82556
立法	-8.82659
允许	-8.82663
调整	-8.82785
形成	-8.82797
王	-8.83003
特性	-8.83154
北	-8.83184
库	-8.83219
铁	-8.8322
”。	-8.83344
她的	-8.83377
界	-8.8338
软件	-8.83389
住	-8.83391
六	-8.83483
▁这个	-8.83688
性能	-8.83734
结束	-8.83745
适当	-8.83833
知识	-8.8396
脚	-8.84062
禁止	-8.84139
农业	-8.84184
根	-8.84237
将会	-8.84239
当地	-8.84255
华	-8.84275
困难	-8.84286
古	-8.84413
危机	-8.84448
东	-8.84461
是在	-8.84509
压力	-8.84546
更多	-8.84661
积极	-8.84787
谈判	-8.84878
金属	-8.8488
民主	-8.84991
降低	-8.85001
工艺	-8.85033
武器	-8.85108
22	-8.85303
草	-8.85355
协会	-8.85406
▁这是	-8.85427
o	-8.85463
且	-8.85772
功能	-8.85869
商业	-8.86006
其它	-8.86193
体系	-8.86222
传	-8.86229
价	-8.86308
2003	-8.8633
某些	-8.8657
常	-8.86574
运行	-8.86597
呼吁	-8.86609
供	-8.8662
指标	-8.86663
满	-8.86789
温	-8.86806
诺	-8.86825
印度	-8.86897
跟	-8.87064
患者	-8.87074
23	-8.87106
取	-8.87214
的能力	-8.87309
理	-8.87418
不要	-8.87508
土	-8.87568
恩	-8.87623
计	-8.87719
广泛	-8.87756
叫	-8.87804
世	-8.8784
部队	-8.87971
今天	-8.87995
倒	-8.87997
音	-8.88036
较	-8.8804
视	-8.88058
提	-8.88076
大量	-8.88155
代	-8.88338
难	-8.88375
监督	-8.88378
当局	-8.88388
才能	-8.8847
端	-8.88502
卫生	-8.88693
以来	-8.88728
如此	-8.88787
缺乏	-8.8885
请求	-8.88867
灯	-8.88968
一切	-8.88983
实验	-8.89177
迪	-8.89235
日至	-8.89257
的方式	-8.89289
快速	-8.89369
精	-8.89678
确认	-8.89746
女性	-8.90047
2002	-8.90072
支付	-8.90184
普遍	-8.90259
除	-8.90269
钢	-8.90296
的所有	-8.90333
非政府组织	-8.9045
客户	-8.905
可能会	-8.90571
规划	-8.90654
案	-8.90717
▁为了	-8.90724
精神	-8.90934
论坛	-8.91019
军事	-8.91041
伤	-8.91046
2011	-8.91106
反对	-8.91286
设施	-8.91442
有关的	-8.91521
al	-8.91535
原因	-8.91649
V	-8.91795
制造	-8.91878
成本	-8.91884
明确	-8.91947
虽然	-8.9199
威胁	-8.92038
第一	-8.92064
喜欢	-8.92069
超过	-8.92186
就业	-8.92289
尤其是	-8.92297
地位	-8.9233
民	-8.92455
以前	-8.92558
打击	-8.92563
能源	-8.92782
重大	-8.92843
状态	-8.92855
画	-8.92894
任	-8.93107
满足	-8.93181
别	-8.93198
▁对	-8.93263
排	-8.93312
立	-8.93359
女士	-8.9355
再次	-8.93563
保留	-8.93628
销售	-8.93699
暴力	-8.93781
这样的	-8.939
纳入	-8.93903
历史	-8.94014
英语	-8.94121
飞	-8.94129
问题的	-8.94214
测量	-8.94254
主义	-8.94341
有一个	-8.94345
组成	-8.94348
建筑	-8.94477
保障	-8.94483
丝	-8.94552
自动	-8.94619
申请	-8.94626
土地	-8.94633
对话	-8.94637
掉	-8.9473
);	-8.94853
元	-8.9505
相信	-8.95072
那个	-8.95357
植物	-8.95474
决议草案	-8.95515
往	-8.95607
现象	-8.95675
出来	-8.9573
张	-8.95766
旨在	-8.95773
▁虽然	-8.95922
类型	-8.95951
做出	-8.95959
▁尽管	-8.96123
战争	-8.96149
金融	-8.96181
索	-8.96188
官员	-8.96201
28	-8.96204
计算机	-8.96284
送	-8.96287
脑	-8.96321
保	-8.96351
块	-8.96449
成果	-8.96529
胶	-8.96533
这项	-8.96611
资产	-8.96692
▁*	-8.96708
给予	-8.9685
公民	-8.96878
案件	-8.97063
伊拉克	-8.97122
数字	-8.97129
动物	-8.97133
27	-8.97227
竞争	-8.97248
非法	-8.97256
应对	-8.9726
令	-8.97335
了一个	-8.97337
▁目的	-8.97343
不可	-8.97436
底	-8.97446
2012	-8.97518
发言	-8.97537
交流	-8.97607
物质	-8.97688
圣	-8.97803
I	-8.97804
基础	-8.97927
读	-8.98013
1999	-8.98116
平等	-8.98172
十分	-8.98228
词	-8.98282
指	-8.98391
增强	-8.98506
一份	-8.98517
的情况下	-8.98683
媒体	-8.9877
.1	-8.98776
观察	-8.98784
曼	-8.98844
司	-8.98861
统计	-8.9888
损失	-8.9892
塞	-8.98941
40	-8.98949
讲	-8.99075
课程	-8.99158
奇	-8.99301
提出的	-8.99427
班	-8.99505
料	-8.99522
有些	-8.99552
程度	-8.99589
表面	-8.9962
赛	-8.99689
▁2.	-8.9971
早	-8.99746
买	-8.99758
儿	-8.99793
理解	-8.99801
在其	-8.99978
就会	-8.99986
实	-8.99987
难民	-9.00025
勒	-9.00073
2001	-9.00138
宪法	-9.00285
人道主义	-9.00313
信号	-9.00332
一年	-9.00338
失	-9.00338
▁通过	-9.00357
▁中国	-9.00367
正式	-9.00393
总是	-9.00486
吉	-9.00504
训练	-9.00606
宣布	-9.00691
飞机	-9.00711
字	-9.00841
26	-9.00929
不同的	-9.01025
]	-9.01094
位于	-9.01117
瓦	-9.01168
致	-9.01184
成功	-9.01206
分子	-9.01231
酒	-9.01237
▁现在	-9.01383
网站	-9.0141
一下	-9.01591
有助于	-9.01774
世纪	-9.01822
预防	-9.01934
到了	-9.02055
森	-9.02082
分配	-9.02189
异	-9.0221
套	-9.0222
估计	-9.0223
离	-9.02247
制订	-9.02307
单位	-9.02359
维持	-9.02385
运输	-9.02678
离开	-9.02889
切	-9.03111
1998	-9.03244
财务	-9.03314
进展	-9.03318
党	-9.03373
时期	-9.03392
创造	-9.03423
三个	-9.03609
少	-9.03668
的新	-9.03676
缔约方	-9.03758
仅	-9.03764
乐	-9.03787
连接	-9.03801
食	-9.03869
重申	-9.03992
一条	-9.04088
冷	-9.04147
座	-9.04331
现代	-9.04396
届会议	-9.0453
的时间	-9.04554
每年	-9.04786
职业	-9.04792
遵守	-9.04907
关	-9.04955
直	-9.0508
艺术	-9.05175
香	-9.05175
的地方	-9.05197
百	-9.05213
义务	-9.05242
正常	-9.0528
洛	-9.05301
它的	-9.0534
亿美元	-9.05427
增	-9.05483
更多的	-9.055
的发展	-9.05666
轻	-9.05842
减	-9.05856
属于	-9.05898
•	-9.06025
脱	-9.0605
孔	-9.06061
朋友	-9.06079
首	-9.06386
歧视	-9.06421
电话	-9.06485
设立	-9.06671
的建议	-9.06682
电影	-9.06703
数量	-9.06734
避免	-9.06818
平衡	-9.06843
声明	-9.06967
传播	-9.06984
找到	-9.07003
领导	-9.07058
果	-9.07155
姆	-9.07281
配	-9.07353
几乎	-9.07504
目的	-9.07535
60	-9.07707
细	-9.07726
群	-9.07729
参数	-9.07743
言	-9.07769
性别	-9.078
r	-9.079
实体	-9.07907
指导	-9.0792
死亡	-9.07923
大多数	-9.0794
宗教	-9.07966
法官	-9.0809
迅速	-9.08103
法国	-9.08172
29	-9.08245
股	-9.08279
年度	-9.08396
肉	-9.08554
构成	-9.0898
通知	-9.09093
周	-9.0922
明显	-9.09228
艾滋病	-9.09282
定义	-9.09422
食品	-9.09455
龙	-9.0949
000	-9.09591
▁对于	-9.09608
分布	-9.09614
现有	-9.09653
算法	-9.09665
接触	-9.09699
以上	-9.09733
修	-9.09853
性的	-9.09922
安装	-9.1005
日第	-9.1005
夜	-9.10091
票	-9.10095
带来	-9.10319
▁不过	-9.10384
游戏	-9.10419
化学	-9.10487
教学	-9.10502
她们	-9.10516
的作用	-9.10533
额	-9.10549
标	-9.10567
移民	-9.10665
联盟	-9.10701
利益	-9.10706
▁3.	-9.10782
若干	-9.10791
疾病	-9.10885
结合	-9.10929
德国	-9.11027
速度	-9.11121
履行	-9.1118
海洋	-9.11273
2013	-9.11355
十	-9.11524
预测	-9.11688
院	-9.11695
矿	-9.11741
办事处	-9.11753
▁这种	-9.11861
▁关于	-9.11941
象	-9.12006
试图	-9.12123
莱	-9.12153
森林	-9.12159
效率	-9.12188
糖	-9.12189
情况下	-9.12192
草案	-9.12238
加工	-9.12303
步	-9.12376
预	-9.12448
统一	-9.12481
尊重	-9.125
不仅	-9.12552
粉	-9.12569
手段	-9.12629
版	-9.12634
几个	-9.12689
青年	-9.12702
而不是	-9.13
万美元	-9.13082
温度	-9.13163
留	-9.1325
药物	-9.13271
冰	-9.13375
将在	-9.13427
散	-9.13432
临时	-9.13537
▁美国	-9.1354
推	-9.13544
含	-9.1361
适用	-9.13672
协商	-9.13716
成员国	-9.13744
速	-9.13772
倡议	-9.13864
现	-9.13952
包含	-9.14014
经过	-9.14033
宣传	-9.14276
顶	-9.14335
关键	-9.14351
准则	-9.14371
数据库	-9.14379
专门	-9.14389
in	-9.14445
岩	-9.14489
相互	-9.14497
亚洲	-9.14563
表达	-9.14563
以后	-9.14568
创新	-9.14571
导	-9.14579
医疗	-9.14598
▁最后	-9.14743
处于	-9.14815
七	-9.14968
设置	-9.15
实行	-9.15125
岛	-9.1531
聚	-9.15483
条款	-9.15524
衣	-9.15632
八	-9.15724
伙伴	-9.15738
一家	-9.15778
我国	-9.15789
未来	-9.15884
假	-9.15985
▁本	-9.16085
圆	-9.16091
的一部分	-9.16203
落实	-9.1633
货	-9.1634
该国	-9.16356
收到	-9.16357
基因	-9.16369
曲	-9.16497
事项	-9.16546
样	-9.16562
举行的	-9.1657
1.	-9.16583
表现	-9.16609
游	-9.16641
拒绝	-9.16782
障碍	-9.16813
编制	-9.16818
简单	-9.16818
是个	-9.16892
w	-9.16959
▁1.	-9.17013
3.	-9.17154
▁如果你	-9.17168
100	-9.17208
记	-9.17309
话	-9.17399
活	-9.17429
印	-9.17494
音乐	-9.17548
补充	-9.17549
从事	-9.1757
重点	-9.17682
财政	-9.17735
医生	-9.17863
地球	-9.17912
轴	-9.17941
感染	-9.17986
er	-9.18187
复	-9.18238
各项	-9.18273
身体	-9.18357
规范	-9.18373
支出	-9.18375
贝	-9.18509
采购	-9.18561
依据	-9.18647
跑	-9.18735
享有	-9.18826
同样	-9.18975
联邦	-9.19004
箱	-9.19137
随	-9.19186
使得	-9.19191
适用于	-9.1921
▁而	-9.1923
通信	-9.19234
方向	-9.19363
考虑到	-9.19517
[	-9.19518
登记	-9.19811
U	-9.19868
列入	-9.19989
群体	-9.19995
债务	-9.20011
洗	-9.20027
盖	-9.20114
危险	-9.20134
实践	-9.20176
K	-9.20223
厂	-9.20233
证	-9.20236
不过	-9.20292
系统的	-9.20386
做法	-9.20401
感谢	-9.20484
自我	-9.20569
有效的	-9.20587
谁	-9.2059
X	-9.20668
专	-9.20671
普通	-9.2078
审计	-9.20925
税	-9.2098
W	-9.21016
照	-9.21047
届	-9.21075
鲁	-9.21076
下降	-9.21382
并在	-9.21454
松	-9.21572
一点	-9.21596
尽	-9.21617
建	-9.2168
为什么	-9.21686
莫	-9.21764
雪	-9.21858
决策	-9.21881
的活动	-9.2192
牛	-9.2197
大部分	-9.21977
民族	-9.21983
安理会	-9.22042
议会	-9.22048
分别	-9.2205
笑	-9.22082
求	-9.22155
运	-9.22178
士	-9.2225
东西	-9.22264
紧	-9.22389
维护	-9.22533
中的应用	-9.22623
相比	-9.22646
收集	-9.22672
卷	-9.22675
副	-9.22704
博	-9.2275
机械	-9.2283
公开	-9.22855
攻击	-9.22879
2.	-9.22981
年龄	-9.23
云	-9.23005
固定	-9.23029
退	-9.23115
居	-9.23234
属	-9.23239
u	-9.23254
电脑	-9.23255
空气	-9.23357
易	-9.23372
加拿大	-9.23471
思想	-9.23477
大约	-9.23526
修改	-9.2355
客	-9.23674
领	-9.23761
优先	-9.2383
对象	-9.23973
的重要	-9.23989
加以	-9.23993
亲	-9.24019
然	-9.24084
本身	-9.24107
罪	-9.24115
的行为	-9.24251
耐	-9.24372
那样	-9.24378
这类	-9.24526
一天	-9.24546
试	-9.24664
生命	-9.24719
人数	-9.24735
族	-9.24777
适应	-9.2479
报道	-9.24808
提交人	-9.24826
冲	-9.24852
1997	-9.24869
神经	-9.24993
的目标	-9.25016
伯	-9.25055
财产	-9.25082
保险	-9.25099
学院	-9.25129
就像	-9.25139
本国	-9.25197
部署	-9.25347
曾经	-9.25389
银	-9.2539
现实	-9.25516
▁4.	-9.25627
不足	-9.25661
两年期	-9.25692
员额	-9.25718
份	-9.2578
平均	-9.25798
女孩	-9.25975
造	-9.2601
错误	-9.26032
所有的	-9.26096
电视	-9.26162
足	-9.26188
第三	-9.26216
):	-9.26314
破坏	-9.26315
存	-9.26502
跳	-9.26525
愿意	-9.26586
受害者	-9.26682
完	-9.26695
高级	-9.26761
移动	-9.2681
拿	-9.26898
图像	-9.26955
盐	-9.27024
的规定	-9.27184
购买	-9.27253
公众	-9.27363
村	-9.2738
的信息	-9.27389
特殊	-9.27391
烟	-9.27407
伙伴关系	-9.27463
楼	-9.27466
伦	-9.27499
注	-9.27515
地址	-9.27533
一致	-9.27546
章	-9.27564
外国	-9.27631
咨询	-9.27649
贫困	-9.27694
阿富汗	-9.27752
立即	-9.27778
停止	-9.27818
整	-9.27831
x	-9.27851
菌	-9.27925
零	-9.27947
宣言	-9.28024
共和国	-9.28043
床	-9.28112
基础设施	-9.2813
▁《	-9.28138
店	-9.28154
团体	-9.28218
概念	-9.28253
刀	-9.28383
.2	-9.28401
J	-9.28505
面临	-9.28584
软	-9.28605
断	-9.28648
特别报告员	-9.28685
污染	-9.28708
密	-9.28762
介绍了	-9.28769
福	-9.28774
倍	-9.28865
运作	-9.28886
4.	-9.28899
师	-9.28918
混合	-9.28962
这里	-9.28996
投	-9.29053
算	-9.29074
来源	-9.29157
千	-9.29172
ar	-9.29189
▁基于	-9.29234
富	-9.29269
刚	-9.29408
担任	-9.29441
弹	-9.29532
/2	-9.29666
母	-9.29675
开放	-9.29713
当前	-9.29744
越	-9.29747
既	-9.29777
养	-9.29809
炎	-9.2986
兵	-9.2987
查	-9.30047
认识到	-9.30066
此类	-9.30144
清单	-9.30164
甲	-9.30197
相关的	-9.30228
病毒	-9.30239
藏	-9.30243
应用程序	-9.30286
英	-9.30299
尚未	-9.30362
预计	-9.30511
石油	-9.30526
的法律	-9.30541
,“	-9.30612
链	-9.30622
之外	-9.30626
往往	-9.30638
保健	-9.30691
载	-9.30717
当时	-9.30811
某	-9.30878
食物	-9.30893
5%	-9.30906
测	-9.30919
0.	-9.30921
居民	-9.30954
▁&	-9.30973
虫	-9.31002
寻求	-9.31066
范围内	-9.31123
下列	-9.31174
改	-9.3118
侧	-9.31261
发挥	-9.3132
不再	-9.31334
汉	-9.31388
▁例如	-9.31514
模	-9.31587
的机会	-9.31595
县	-9.3161
蛋白	-9.31643
母亲	-9.31644
啊	-9.31721
茶	-9.31761
击	-9.31922
碳	-9.31966
思	-9.32072
偏	-9.32076
描述	-9.32138
流动	-9.3215
体制	-9.32206
谈	-9.32227
回顾	-9.32284
遭受	-9.32327
交通	-9.32405
违反	-9.32457
▁5.	-9.3248
工人	-9.32489
医院	-9.32507
升	-9.32549
次会议	-9.32555
v	-9.32566
引起	-9.32572
指定	-9.32605
复杂	-9.32619
劳动	-9.32655
只能	-9.32695
特定	-9.3284
相对	-9.32844
位置	-9.32852
巴勒斯坦	-9.33027
核心	-9.33065
换	-9.3307
需	-9.33129
寻找	-9.3318
6.	-9.33185
re	-9.33252
迷	-9.33265
有可能	-9.33299
狗	-9.3334
顿	-9.33429
酶	-9.33436
职	-9.33536
职位	-9.33565
▁目前	-9.33612
诊断	-9.33618
真正	-9.3371
......	-9.33743
服务器	-9.33745
▁委员会	-9.33759
组合	-9.33815
全部	-9.33821
制作	-9.33911
支	-9.33928
授权	-9.3395
乳	-9.33957
炉	-9.33958
的结果	-9.33976
绿	-9.34135
鞋	-9.34211
营	-9.34229
an	-9.34322
5.	-9.34401
页	-9.34508
事情	-9.34576
玻璃	-9.34578
修订	-9.34636
平台	-9.34653
另一	-9.34704
菜	-9.34728
赔偿	-9.34855
牌	-9.34896
第一次	-9.34918
步骤	-9.34924
大家	-9.34929
找	-9.34948
en	-9.34964
动态	-9.34985
”,	-9.35008
定期	-9.35102
旅游	-9.35118
恐怖主义	-9.35141
容易	-9.35149
铜	-9.35215
玩	-9.35227
的小	-9.35235
损害	-9.35259
圈	-9.35312
行动计划	-9.35316
艾滋病毒	-9.35327
力量	-9.35395
义	-9.3546
所述	-9.3556
奖	-9.35584
循环	-9.3562
背	-9.35825
领导人	-9.35838
双方	-9.35856
是由	-9.35969
纤维	-9.35973
商品	-9.36137
停	-9.36148
牙	-9.36151
时代	-9.36223
气候变化	-9.36363
随着	-9.3637
住房	-9.36428
最大的	-9.36429
一只	-9.36446
议程	-9.36472
在一起	-9.36548
议程项目	-9.36624
首先	-9.3666
并没有	-9.36694
笔	-9.36762
有着	-9.36765
麦	-9.36859
犯	-9.36863
旧	-9.3692
俄罗斯	-9.36972
特点	-9.36999
一场	-9.37028
领土	-9.37246
坐	-9.37309
第四	-9.3733
▁请	-9.37331
可持续发展	-9.37332
朝	-9.3735
,”	-9.37485
代码	-9.37536
重视	-9.37609
编写	-9.37611
启动	-9.378
担心	-9.3784
仪	-9.37863
▁一个	-9.37879
条例	-9.37881
归	-9.37889
人士	-9.37945
这次	-9.37988
帕	-9.3805
性质	-9.38153
贷款	-9.38299
紧急	-9.38319
供应	-9.38397
别人	-9.3843
杀	-9.38477
其中包括	-9.38571
予以	-9.38687
返回	-9.38708
野	-9.38716
那里	-9.38755
感觉	-9.38789
主题	-9.38818
获取	-9.38834
西班牙	-9.38836
经营	-9.38874
创建	-9.38922
预期	-9.3893
认识	-9.38933
邀请	-9.38991
...	-9.39061
雨	-9.39066
丁	-9.39157
▁同时	-9.39175
让我	-9.39211
术	-9.39227
变得	-9.39286
更新	-9.39297
分离	-9.39335
的生活	-9.39369
决议	-9.39372
巴西	-9.39409
症	-9.39419
策略	-9.39434
部长	-9.39463
有限公司	-9.39489
有人	-9.39503
承担	-9.39532
高度	-9.39547
青	-9.39711
局势	-9.39743
员工	-9.39747
律师	-9.39755
旅行	-9.39812
蓝	-9.39935
总部	-9.39937
技能	-9.39999
证据	-9.40028
太阳	-9.4004
杆	-9.40082
管制	-9.40151
模拟	-9.40156
及时	-9.40176
提议	-9.40327
除了	-9.4034
能力建设	-9.4035
想要	-9.40437
提到	-9.4044
消费	-9.40509
须	-9.40682
致力于	-9.40697
放在	-9.40746
残疾人	-9.40761
枪	-9.40774
相当	-9.40804
运用	-9.40837
意大利	-9.40879
穿	-9.40905
的东西	-9.40939
磁	-9.40946
田	-9.41097
课	-9.41135
初	-9.41219
设	-9.41269
登	-9.41307
告诉	-9.41307
权力	-9.41322
对其	-9.41345
的一种	-9.41349
关切	-9.41355
培养	-9.41371
每天	-9.41381
蒂	-9.41643
射	-9.41679
条第	-9.41707
一系列	-9.41782
九	-9.4182
的关系	-9.41853
北京	-9.41879
z	-9.41912
中央	-9.41987
厚	-9.42001
赫	-9.4203
专题	-9.42114
重要的	-9.42125
苏	-9.42199
议定书	-9.42223
面对	-9.42251
痛	-9.42273
镜	-9.42282
之中	-9.42296
觉得	-9.42346
举措	-9.42347
趋势	-9.4235
适当的	-9.42391
准	-9.42393
附件	-9.42454
梅	-9.42588
分类	-9.42594
一定	-9.42705
公平	-9.42778
些	-9.42813
若	-9.42831
命令	-9.42913
ra	-9.42951
交换	-9.42983
井	-9.42991
引	-9.42994
癌	-9.43006
联合国系统	-9.43013
官	-9.43018
也不	-9.43061
杯	-9.43065
势	-9.43116
劳	-9.4316
职能	-9.43251
直到	-9.43261
控	-9.43343
最大	-9.43353
大型	-9.43416
粮食	-9.43456
小时	-9.4346
▁据	-9.4353
也许	-9.43546
含量	-9.43581
都有	-9.43616
工作的	-9.43733
湖	-9.43733
广告	-9.43751
待	-9.43751
地图	-9.43821
个月	-9.43874
的努力	-9.43957
类似	-9.43998
壁	-9.44016
年代	-9.44024
岁的	-9.44036
编	-9.44056
澳大利亚	-9.44082
连续	-9.44105
镇	-9.4415
元素	-9.4416
目	-9.44179
下来	-9.44325
7.	-9.44346
配置	-9.44356
以确保	-9.44396
今年	-9.44417
父母	-9.44484
消息	-9.44491
过渡	-9.44508
手术	-9.44519
味	-9.4455
欧洲联盟	-9.44637
比赛	-9.44642
欧	-9.44698
最高	-9.44726
享受	-9.44885
墨西哥	-9.44904
显著	-9.44909
滑	-9.44974
晚	-9.44987
的重要性	-9.45084
的原因	-9.45091
▁在这方面	-9.45276
毒	-9.4536
)(	-9.45438
▁6.	-9.45478
农	-9.45525
地点	-9.4553
都会	-9.45706
用来	-9.45732
侵犯	-9.45915
私人	-9.45989
卫星	-9.46271
提供的	-9.4628
并非	-9.46364
▁另外	-9.46376
拟订	-9.46447
负	-9.46468
国际法	-9.46503
宽	-9.46548
政	-9.4664
男子	-9.46747
un	-9.46826
外部	-9.46922
投入	-9.46984
驻	-9.46998
营养	-9.47036
丽	-9.47093
病人	-9.47108
早期	-9.47149
桥	-9.47212
错	-9.47304
释放	-9.47322
卖	-9.47327
凯	-9.47335
观	-9.47355
靠	-9.4738
距离	-9.47481
函数	-9.47485
通过了	-9.47531
将其	-9.47536
各国政府	-9.47597
而是	-9.47605
教师	-9.47715
的任何	-9.47742
比例	-9.47856
有必要	-9.47911
伤害	-9.47921
科技	-9.47953
施	-9.47969
移	-9.48029
生长	-9.48324
合成	-9.48447
ch	-9.48447
上升	-9.4845
记者	-9.48474
日益	-9.48499
▁结论	-9.48529
打算	-9.48613
le	-9.48632
最佳	-9.48687
尾	-9.4876
贫穷	-9.48844
效应	-9.48933
的要求	-9.4905
亿	-9.49065
的数据	-9.49176
另一个	-9.49179
优化	-9.49192
不得	-9.4927
永远	-9.49383
宁	-9.49472
系列	-9.4953
备	-9.49564
袭击	-9.49737
意识	-9.49747
刻	-9.49812
差异	-9.49902
难以	-9.49947
多边	-9.49952
杰	-9.4999
救	-9.50017
▁有	-9.50057
▁这一	-9.50062
据	-9.50254
的基础上	-9.50361
校	-9.50453
蒙	-9.50463
友	-9.50554
薄	-9.50648
匹配	-9.50763
亮	-9.5111
很难	-9.51121
理由	-9.51166
货物	-9.51215
发出	-9.51271
补	-9.5128
磨	-9.51289
古巴	-9.51343
地区的	-9.51365
欧盟	-9.51434
值得	-9.51451
输入	-9.51596
的关键	-9.5166
心理	-9.5167
回到	-9.51674
/1	-9.51682
展	-9.51688
边界	-9.5173
硬	-9.51744
的第	-9.51768
习惯	-9.51855
号决定	-9.51886
农村	-9.51886
免费	-9.51986
上帝	-9.52009
绝	-9.52111
动力	-9.52127
确实	-9.52189
他说	-9.52215
沉	-9.52255
发射	-9.52271
发布	-9.52312
最不发达国家	-9.52318
▁所以	-9.524
下午	-9.52438
耳	-9.52457
瑞	-9.52574
巴基斯坦	-9.52654
墙	-9.52683
产业	-9.5276
签署	-9.52842
团队	-9.52885
贡献	-9.52895
军队	-9.52967
喝	-9.52983
给我	-9.53018
降	-9.53089
息	-9.53157
歌	-9.53205
举	-9.53214
贴	-9.53221
多数	-9.53277
护	-9.53291
45	-9.53293
裂	-9.5336
分享	-9.53376
监狱	-9.53408
喷	-9.53414
必	-9.53421
更为	-9.53423
江	-9.53437
多个	-9.53453
玛	-9.53469
境	-9.53522
转移	-9.53528
临床	-9.53545
个国家	-9.53569
苏丹	-9.53624
多少	-9.53653
集中	-9.53718
频	-9.53747
苦	-9.53748
1996	-9.53903
机关	-9.53973
审判	-9.54054
▁他说	-9.54095
敦促	-9.54253
灰	-9.54349
el	-9.54416
治理	-9.54417
真的	-9.54451
绿色	-9.5451
最好	-9.54723
得到了	-9.54725
2014	-9.5473
厅	-9.54752
拘留	-9.54802
皮肤	-9.54876
对此	-9.5489
80	-9.54932
黎巴嫩	-9.55003
指数	-9.55018
获	-9.55047
▁随着	-9.55051
暴	-9.55068
有时	-9.55083
资本	-9.55126
纽约	-9.55127
事实	-9.55229
另外	-9.55244
越来越	-9.55268
评论	-9.55272
货币	-9.55297
附	-9.55322
测定	-9.55354
服	-9.55398
500	-9.55409
常常	-9.55431
跨	-9.55444
影	-9.55453
能量	-9.55477
袋	-9.55478
35	-9.55533
程	-9.55582
坚持	-9.55605
教授	-9.55811
时候	-9.55859
两种	-9.55865
免疫	-9.55884
埃	-9.56005
乱	-9.5602
斯特	-9.56025
各方	-9.56202
发表	-9.56228
阿拉伯	-9.56281
必要的	-9.56301
题为	-9.5631
知	-9.56311
泵	-9.56399
社	-9.56433
8.	-9.56473
扎	-9.56551
梦	-9.56554
活动的	-9.56605
地震	-9.5662
下的	-9.56722
左	-9.56727
父亲	-9.5676
材	-9.56772
怎么	-9.56802
我想	-9.56873
史	-9.56905
上海	-9.56942
埃及	-9.56951
希	-9.57016
就可以	-9.57028
柱	-9.57031
开发署	-9.5707
展开	-9.57088
延长	-9.57148
分钟	-9.57176
看见	-9.57202
阀	-9.57233
氧化	-9.57287
今后	-9.57319
重建	-9.57378
▁7.	-9.57407
外交	-9.57412
失败	-9.57414
态	-9.57543
有权	-9.57559
投票	-9.57565
禁	-9.57573
吸	-9.57573
.3	-9.57583
遭到	-9.57589
有限	-9.57683
也会	-9.57719
有机	-9.57871
周期	-9.57925
st	-9.57961
破	-9.57973
泰	-9.57994
在于	-9.58085
的其他	-9.58126
如下	-9.58139
翻	-9.58184
经历	-9.58215
进口	-9.58248
睡	-9.58254
经费	-9.58448
驱动	-9.58475
针	-9.58478
威	-9.58562
的资料	-9.58696
气候	-9.58705
办	-9.58725
男性	-9.58752
举办	-9.58754
与会者	-9.58787
妈妈	-9.58851
男人	-9.58863
麻	-9.58868
主管	-9.58882
采取行动	-9.58904
燃料	-9.5891
替代	-9.58913
尤其	-9.59002
▁用	-9.59065
硅	-9.59069
在内的	-9.59096
国家的	-9.59099
尝试	-9.59166
任命	-9.59222
出生	-9.59233
弗	-9.59287
付	-9.59314
建立了	-9.59471
望	-9.59486
索赔	-9.59507
公布	-9.59728
讲习班	-9.598
在一个	-9.59838
大会第	-9.59849
效	-9.59867
兹	-9.59873
add	-9.59893
打开	-9.59905
腿	-9.59946
作了	-9.59952
十年	-9.59959
200	-9.60044
日期	-9.60084
70	-9.60094
0	-9.60103
突然	-9.60176
意味着	-9.60223
守	-9.60233
规定的	-9.60246
的决定	-9.60262
男	-9.60316
必要	-9.60327
南部	-9.60428
婚	-9.60429
公正	-9.60498
合理	-9.6056
或许	-9.60566
乌	-9.60609
使其	-9.60619
氧	-9.60633
壳	-9.60717
正确	-9.60756
这个问题	-9.60822
也有	-9.60914
只要	-9.60979
背景	-9.61049
现金	-9.61252
听到	-9.61259
修正	-9.61339
伊朗	-9.61364
鸟	-9.61384
的一些	-9.61453
顾问	-9.61549
齐	-9.61559
这么	-9.61619
的基本	-9.61655
的政策	-9.61888
核武器	-9.6192
方便	-9.61987
消费者	-9.6203
置	-9.62062
多种	-9.62086
纯	-9.62151
32	-9.62194
中间	-9.62218
私	-9.62235
可持续	-9.62349
吸收	-9.62367
▁那	-9.62405
贸发会议	-9.6255
积	-9.62566
反映	-9.62679
》(	-9.62693
回答	-9.6272
体育	-9.62731
脸	-9.62769
索马里	-9.62783
晚上	-9.62837
丹	-9.62848
消	-9.62886
某种	-9.62912
合法	-9.62939
领域的	-9.62953
坏	-9.62985
资助	-9.63036
参考	-9.63064
生成	-9.63066
显然	-9.63089
棒	-9.63159
愿	-9.6318
复合	-9.63183
灵	-9.63196
划	-9.63204
胜	-9.63205
混	-9.63239
平民	-9.6326
is	-9.63295
最低	-9.63329
至关重要	-9.63377
锁	-9.63404
暗	-9.63504
良好	-9.63515
车辆	-9.63526
命	-9.63574
您的	-9.63607
女人	-9.63608
规模	-9.63613
进步	-9.6371
显	-9.63713
四个	-9.63777
探	-9.63941
戴	-9.63975
广	-9.63986
码	-9.64159
辩论	-9.64176
随后	-9.64242
治	-9.6429
指示	-9.64306
露	-9.64306
煤	-9.64437
尚	-9.64519
刺激	-9.64561
密切	-9.64578
手机	-9.64594
放弃	-9.64691
优先事项	-9.64699
提升	-9.64781
西方	-9.64809
一个人	-9.64814
文书	-9.64842
首次	-9.6491
扩展	-9.64917
余	-9.64966
国民	-9.64978
浆	-9.65148
国际组织	-9.65166
存储	-9.65212
依赖	-9.65283
创	-9.65318
酒店	-9.65405
覆盖	-9.65481
境内	-9.6555
演	-9.65557
这一点	-9.65583
爆炸	-9.65633
港	-9.65654
盛	-9.65659
土壤	-9.65693
--	-9.65756
看起来	-9.65785
的事情	-9.65789
肯定	-9.65844
土耳其	-9.65846
销	-9.65878
艾	-9.65885
途径	-9.65905
成立	-9.65913
1995	-9.65936
起诉	-9.6596
适合	-9.65971
历	-9.66004
3%	-9.66046
详细	-9.66077
烧	-9.66125
湿	-9.66213
增加了	-9.6623
之下	-9.66288
的意见	-9.66373
顺	-9.66439
▁因为	-9.66528
不知道	-9.66529
好的	-9.66533
的任务	-9.66544
这样做	-9.66594
裁军	-9.66605
公司的	-9.66709
考	-9.6671
也可以	-9.66743
作品	-9.66752
文本	-9.66758
参	-9.66775
比如	-9.66781
逐渐	-9.66786
翻译	-9.6679
粗	-9.66863
封	-9.66886
讨论了	-9.66942
道德	-9.67011
on	-9.67025
深入	-9.67025
著	-9.67097
故事	-9.67117
宝	-9.67125
香港	-9.67191
识别	-9.67216
全世界	-9.67243
视频	-9.67296
老师	-9.67304
良好的	-9.67307
羊	-9.67362
独	-9.67422
最好的	-9.67462
福利	-9.67466
医	-9.67501
▁所属	-9.67519
土著人民	-9.67601
工资	-9.67609
▁作为	-9.67645
瓶	-9.67651
▁8.	-9.67673
身上	-9.67691
附近	-9.67718
突出	-9.67799
雅	-9.67818
馆	-9.67842
的变化	-9.67854
投资者	-9.67876
窗	-9.67922
也没有	-9.68021
相同	-9.6803
挂	-9.68046
婚姻	-9.68052
48	-9.68182
一张	-9.68244
的做法	-9.68264
的事	-9.68373
90	-9.68419
满意	-9.68501
面积	-9.68502
弄	-9.6853
37	-9.6854
他在	-9.68541
瑞士	-9.68542
研究所	-9.68611
2%	-9.68635
整体	-9.68663
j	-9.68688
合并	-9.68856
▁9.	-9.68888
工厂	-9.68908
出了	-9.68914
强度	-9.68918
未能	-9.68963
和发展	-9.68965
粒	-9.68988
代理	-9.68994
的项目	-9.69076
检	-9.69127
终	-9.69135
分析了	-9.69157
阳	-9.69165
园	-9.692
急	-9.69202
脂	-9.6927
依然	-9.69271
推进	-9.69289
自愿	-9.69383
胸	-9.69395
将继续	-9.69463
小型	-9.69465
▁自	-9.69561
有所	-9.6958
▁结果	-9.6961
惊	-9.69616
事故	-9.69664
▁今天	-9.6973
贵	-9.69737
关闭	-9.69864
快乐	-9.69879
苯	-9.69892
博士	-9.69916
品牌	-9.69981
咖啡	-9.69981
上面	-9.70009
去年	-9.70021
借	-9.70047
▁10.	-9.70048
本组织	-9.70182
航	-9.70183
阅读	-9.7032
粘	-9.70365
可能是	-9.70565
采	-9.7063
面前	-9.70707
剧	-9.70841
调节	-9.70897
核准	-9.70919
合金	-9.70954
看看	-9.70955
是因为	-9.70956
依照	-9.71052
转换	-9.71057
生态	-9.71115
氢	-9.71207
优势	-9.71288
缔约方会议	-9.71327
刺	-9.71328
的各种	-9.7134
寄	-9.71372
折	-9.71381
36	-9.71447
追	-9.71483
的代表	-9.71516
作业	-9.71526
吸引	-9.71532
条件下	-9.71568
▁然后	-9.71587
刑事	-9.71594
佛	-9.7162
横	-9.71742
不可能	-9.7175
静	-9.71768
事业	-9.71832
集体	-9.71867
男女	-9.71917
包装	-9.71932
激光	-9.71951
的经济	-9.71965
种族	-9.71971
制裁	-9.71984
酯	-9.72022
生存	-9.72112
33	-9.7222
专家组	-9.72228
抽	-9.72251
第一个	-9.72255
不到	-9.72263
航空	-9.72282
诗	-9.72285
34	-9.72287
用途	-9.72331
ma	-9.72369
保存	-9.72392
8%	-9.72399
指南	-9.72438
插	-9.72542
怀	-9.72559
晶	-9.72589
即使	-9.72707
重复	-9.72761
录	-9.72814
观点	-9.72894
是为了	-9.72901
or	-9.72907
然而	-9.72919
酷刑	-9.72932
研讨会	-9.72968
流程	-9.72989
真正的	-9.72999
版本	-9.73081
南非	-9.7311
人口基金	-9.73129
拍	-9.73345
出版	-9.73349
流行	-9.73363
日在	-9.73498
接近	-9.73582
域	-9.73621
辐射	-9.73705
浮	-9.73758
持	-9.73843
是什么	-9.73861
电路	-9.73884
塑料	-9.73888
如果你	-9.74003
发生的	-9.74064
农民	-9.74078
召开	-9.74218
害	-9.74228
初步	-9.743
并将	-9.74323
李	-9.74348
旋	-9.74358
铝	-9.74368
本报告	-9.74377
各个	-9.74385
的设计	-9.74557
1%	-9.74615
尖	-9.7462
示	-9.74633
单元	-9.74778
结论	-9.74826
或是	-9.74868
瘤	-9.74945
达成	-9.75005
街	-9.75073
夹	-9.75243
造成的	-9.75291
怀疑	-9.75309
输出	-9.75319
鸡	-9.7538
报告中	-9.75464
ri	-9.75471
取消	-9.75481
年期间	-9.75496
原理	-9.75526
频率	-9.75533
即将	-9.75582
武装	-9.75584
杂	-9.75605
肝	-9.75642
护理	-9.75695
飞行	-9.75755
围	-9.75809
氏	-9.75834
所需的	-9.75834
在这里	-9.75856
一级	-9.75889
更好地	-9.75933
年以来	-9.75986
棉	-9.76076
男孩	-9.76082
定位	-9.76084
右	-9.76099
血管	-9.76101
;;	-9.76132
抑制	-9.7617
有点	-9.76246
的需求	-9.76264
足够	-9.76271
给你	-9.76385
法案	-9.7659
希腊	-9.76612
ro	-9.76639
格式	-9.76649
38	-9.76659
杜	-9.76698
绝对	-9.76732
现场	-9.76739
红色	-9.7675
乡	-9.76846
订	-9.76893
的政治	-9.76898
景	-9.76983
舞	-9.76992
.5	-9.77025
哪些	-9.77054
变成	-9.77108
你可以	-9.77156
民间社会	-9.77161
行使	-9.77208
建立一个	-9.77234
审	-9.77306
末	-9.77338
沃	-9.77343
性和	-9.7738
实际上	-9.77392
'	-9.77396
患	-9.77471
建造	-9.77486
里面	-9.7755
让人	-9.77562
属性	-9.776
检验	-9.77609
凡	-9.77763
让你	-9.77806
旁	-9.77813
推广	-9.77836
电力	-9.77846
莉	-9.77922
根本	-9.77936
地面	-9.7794
情报	-9.77954
—	-9.77999
正是	-9.78164
世界上	-9.7818
除非	-9.78237
主任	-9.78289
特别是在	-9.78314
物理	-9.78341
各级	-9.7835
la	-9.78368
▁11.	-9.78375
闭	-9.7842
休	-9.78443
候选人	-9.78452
此种	-9.78461
机器	-9.78462
磋商	-9.78535
荷兰	-9.78546
进行的	-9.78548
当然	-9.78607
道路	-9.78619
成了	-9.78668
缩	-9.78781
团结	-9.7884
作为一个	-9.78898
次会议上	-9.78917
参加了	-9.78932
官方	-9.78934
两年	-9.78941
伦敦	-9.79004
-1	-9.7902
扩散	-9.79049
隔	-9.79109
的各项	-9.79191
39	-9.7928
征	-9.79287
名单	-9.79296
气体	-9.79325
)、	-9.79332
实质性	-9.79342
一套	-9.79355
隐	-9.7939
每一个	-9.79406
署	-9.79411
因而	-9.79456
洋	-9.79459
依	-9.79513
可以在	-9.79531
儿童基金会	-9.796
户	-9.79659
来到	-9.79668
幅	-9.79734
有利于	-9.79758
第五	-9.7979
供资	-9.79887
妻子	-9.79943
得以	-9.7995
判决	-9.80016
房间	-9.8002
思考	-9.80052
在第	-9.80066
身份	-9.80079
产生的	-9.8008
协作	-9.80115
经理	-9.80171
紧张	-9.80249
月份	-9.8036
准确	-9.80366
洞	-9.80461
期望	-9.80547
千年发展目标	-9.80577
还要	-9.80749
扬	-9.80771
损伤	-9.8083
猫	-9.80862
医学	-9.80981
拟	-9.81017
添加	-9.81037
取决于	-9.81047
阻止	-9.8105
互	-9.81089
坐在	-9.81171
主要是	-9.81236
大小	-9.81261
呈	-9.81272
1990	-9.81297
跟踪	-9.81322
▁我想	-9.81334
监管	-9.8135
的责任	-9.81372
照片	-9.81407
转让	-9.81458
在这方面	-9.81468
es	-9.81492
离子	-9.81507
总理	-9.81516
补偿	-9.81519
白色	-9.81528
康	-9.81579
剪	-9.8158
尿	-9.81592
数额	-9.81652
摆	-9.81667
公园	-9.81888
的内容	-9.81954
婴儿	-9.8196
承	-9.81999
弱	-9.82018
很快	-9.8204
杂志	-9.82054
仅仅	-9.82092
施工	-9.82115
阴	-9.82118
的国际	-9.82126
佩	-9.82141
者的	-9.82169
称为	-9.82214
争取	-9.82338
助	-9.82339
肌	-9.82376
清洁	-9.82519
斗	-9.82538
us	-9.82561
国际合作	-9.82589
55	-9.82592
完善	-9.82608
探索	-9.82616
年轻	-9.82703
文学	-9.82709
尽可能	-9.82719
不受	-9.82723
高级别	-9.82745
生效	-9.82826
都在	-9.82908
肥	-9.82943
简	-9.82944
记忆	-9.82974
胡	-9.82988
幸福	-9.83073
提及	-9.83081
夏	-9.83087
里的	-9.83092
传输	-9.83168
怎样	-9.8317
储存	-9.83172
戈	-9.83186
注册	-9.83187
提取	-9.83217
固	-9.83347
敏感	-9.83387
声称	-9.83405
子女	-9.83429
透明	-9.83446
虚	-9.83503
负担	-9.83528
在美国	-9.83553
净	-9.83606
菲	-9.83614
加速	-9.83639
娜	-9.83687
这两个	-9.83753
巨大的	-9.83766
眼睛	-9.83767
起草	-9.83792
任择议定书	-9.83805
逻辑	-9.83806
清楚	-9.83901
作者	-9.8396
垫	-9.83992
提交的	-9.8402
警	-9.84242
看来	-9.84263
主权	-9.84291
风格	-9.84405
含有	-9.84454
诸如	-9.84483
卫	-9.84491
赶	-9.84496
呼吸	-9.8456
周围	-9.84589
辛	-9.84617
陈	-9.84637
商定	-9.84641
失去	-9.84672
300	-9.84677
涂	-9.84692
等待	-9.84727
梁	-9.84735
屋	-9.84742
钻	-9.84759
明白	-9.84781
徒	-9.84789
淡	-9.84808
亦	-9.84837
差距	-9.84849
▁要	-9.84916
限	-9.84962
氯	-9.84985
吹	-9.84993
句	-9.85025
还没有	-9.85074
取代	-9.85163
批评	-9.85175
餐	-9.85209
慢	-9.85212
6%	-9.85273
7%	-9.85281
4%	-9.853
不应	-9.85307
做了	-9.8537
工作方案	-9.85375
情绪	-9.85416
▁采用	-9.85417
开发计划署	-9.85419
▁12.	-9.85499
春	-9.85513
活性	-9.8552
颜色	-9.85581
它是	-9.85584
的合作	-9.8563
念	-9.85754
肿瘤	-9.85816
务	-9.85883
居住	-9.85901
减轻	-9.85904
占领	-9.86028
学会	-9.86031
账户	-9.86048
略	-9.861
招	-9.86142
键	-9.86152
人权委员会	-9.86155
泡	-9.86177
缺陷	-9.86178
缓	-9.86253
角色	-9.86287
考试	-9.86321
胃	-9.86346
不得不	-9.86351
就能	-9.86385
哪	-9.86387
指控	-9.86472
豆	-9.86485
这位	-9.86508
后来	-9.86542
斑	-9.86739
某个	-9.86758
双边	-9.86877
响	-9.86898
逐步	-9.86928
采取了	-9.86956
嘴	-9.86962
其实	-9.86998
巨大	-9.87029
总体	-9.87079
来文	-9.87081
黑色	-9.87133
一块	-9.87138
58	-9.87145
大大	-9.87145
浅	-9.87217
私营部门	-9.8722
委	-9.87245
拖	-9.8732
迟	-9.87427
证实	-9.87479
到达	-9.87482
球员	-9.8754
层面	-9.87547
腔	-9.87579
边缘	-9.87606
苹果	-9.87613
北部	-9.87711
的基础	-9.87772
▁13.	-9.8784
诉讼	-9.87855
中东	-9.87857
很少	-9.87864
所需	-9.87866
囊	-9.8791
充满	-9.87953
在中国	-9.87967
接收	-9.87992
两性平等	-9.88
把它	-9.88001
共享	-9.88011
雇员	-9.88014
罪行	-9.88218
肠	-9.88223
两国	-9.88224
通讯	-9.88229
乘	-9.88255
桑	-9.88287
的社会	-9.88305
2015	-9.88376
77	-9.88383
it	-9.88409
后的	-9.8841
没有任何	-9.88447
的大	-9.88488
联络	-9.88491
有效地	-9.88527
哥伦比亚	-9.8858
本文	-9.88593
礼	-9.88594
左右	-9.88635
胆	-9.8864
相似	-9.88695
汤	-9.88728
久	-9.88775
研究了	-9.88836
.4	-9.88902
与其他	-9.88921
-2	-9.88923
混凝土	-9.88971
天气	-9.89068
辅助	-9.89072
拟议	-9.89103
那种	-9.89163
科学家	-9.89211
第六	-9.89281
年前	-9.89289
答复	-9.89325
互联网	-9.89373
44	-9.89407
自身	-9.89419
申诉	-9.89422
在这个	-9.89426
并对	-9.89428
at	-9.8945
纪念	-9.89492
严格	-9.89495
士兵	-9.89503
盒	-9.89565
的一项	-9.8957
制备	-9.89578
响应	-9.89628
大鼠	-9.89669
输	-9.89671
具备	-9.8975
珠	-9.89752
霍	-9.89762
我要	-9.89789
无论	-9.89822
并不是	-9.89887
验证	-9.89903
人物	-9.89905
资格	-9.89946
▁首先	-9.9001
缺	-9.90042
丈夫	-9.90059
稳定性	-9.9008
肺	-9.90085
碱	-9.90089
残疾	-9.90108
开关	-9.90118
▁除了	-9.9012
发达国家	-9.90122
和社会	-9.90129
难民署	-9.90171
痛苦	-9.90201
▁14.	-9.9021
潮	-9.90266
篇	-9.90341
斜	-9.90349
46	-9.90376
电流	-9.90413
将于	-9.90418
筒	-9.90451
透	-9.90504
问题上	-9.90524
槽	-9.90555
现有的	-9.90562
的安全	-9.90647
模糊	-9.90658
彻底	-9.90659
在此	-9.90691
掌握	-9.90756
鉴于	-9.90825
人工	-9.90866
泥	-9.90885
我会	-9.90889
甜	-9.90953
供应商	-9.90978
砂	-9.91043
付款	-9.91056
燃烧	-9.9106
恶	-9.91083
64	-9.91096
朗	-9.91113
成熟	-9.91144
低于	-9.91164
安保	-9.91221
氮	-9.91256
孩子们	-9.91269
的承诺	-9.91308
业绩	-9.91314
基地	-9.91319
谱	-9.91343
回来	-9.91348
束	-9.91383
的支持	-9.91401
碎	-9.91422
以外	-9.91438
47	-9.91441
构建	-9.9145
成就	-9.91457
多年	-9.9148
态度	-9.9149
干事	-9.91505
查明	-9.91581
全球化	-9.91599
短期	-9.91609
猪	-9.91747
信任	-9.91813
乔	-9.91843
捐款	-9.92047
政策和	-9.92069
废	-9.92246
更好的	-9.9231
暖	-9.92353
俱乐部	-9.92367
仿真	-9.92377
何	-9.92406
堂	-9.92414
65	-9.92451
决心	-9.92498
▁17.	-9.92509
钟	-9.9256
始终	-9.92573
模块	-9.92594
密度	-9.92625
▁方法	-9.92687
喜	-9.92694
俄罗斯联邦	-9.92733
所涉	-9.92759
成长	-9.92776
系数	-9.92785
呼	-9.92855
法治	-9.92879
数目	-9.92964
觉	-9.92984
在那里	-9.93037
腐败	-9.93069
十二	-9.93084
咨询委员会	-9.93103
的可能性	-9.93182
观察员	-9.93191
毒品	-9.93266
de	-9.93288
家人	-9.93352
年轻人	-9.93361
经济及社会理事会	-9.93378
」	-9.93388
形态	-9.9345
故障	-9.93483
虐待	-9.93532
实例	-9.93549
人力资源	-9.93694
前往	-9.93704
裁决	-9.93747
惩罚	-9.93799
贩运	-9.93848
小说	-9.93895
认真	-9.93929
止	-9.93979
滴	-9.94109
唯一	-9.94114
评	-9.94127
轨道	-9.9416
的核心	-9.94246
还在	-9.94276
季	-9.94277
小组委员会	-9.94283
传统的	-9.9429
枝	-9.94299
出去	-9.94372
奥巴马	-9.94381
彩	-9.94384
实验室	-9.94393
1994	-9.94439
韩国	-9.94441
为此	-9.94452
现行	-9.94492
的经验	-9.94526
堆	-9.94548
一道	-9.94635
关心	-9.94646
甘	-9.94699
曲线	-9.9471
解决方案	-9.94718
一直在	-9.94744
严重的	-9.94785
废物	-9.94808
站在	-9.94887
或其他	-9.94889
租	-9.94911
会计	-9.94914
默	-9.94935
韦	-9.94939
下去	-9.94961
否则	-9.94981
会议上	-9.95071
li	-9.95113
卢	-9.95148
利润	-9.95181
as	-9.95209
缝	-9.95241
撒	-9.95251
名称	-9.9526
排放	-9.95268
物品	-9.95336
很大	-9.95345
▁以	-9.95351
每一	-9.95431
促使	-9.95462
旋转	-9.95483
干预	-9.95497
儿子	-9.95504
的行动	-9.95516
饭	-9.9552
的具体	-9.95529
待遇	-9.9555
的措施	-9.95689
广泛的	-9.957
修复	-9.95703
回应	-9.95785
额外	-9.9579
空中	-9.95793
机场	-9.95808
扣	-9.95825
醇	-9.95868
期限	-9.95875
化学品	-9.95884
开支	-9.95899
股票	-9.95929
灭	-9.9599
节目	-9.96037
cn	-9.96078
罐	-9.96092
组织的	-9.96094
持久	-9.96096
逃	-9.96131
配合	-9.96163
了一些	-9.96177
搜索	-9.96198
一座	-9.962
成分	-9.96201
沟通	-9.96264
文章	-9.96294
收益	-9.96324
结婚	-9.96341
便利	-9.96343
56	-9.96364
一旦	-9.96366
冲击	-9.96428
其他国家	-9.96463
标志	-9.96534
展示	-9.9656
什	-9.96591
阿根廷	-9.96621
51	-9.96724
你会	-9.96727
政府间	-9.9673
播	-9.96839
构造	-9.96864
书面	-9.96987
人生	-9.97075
垃圾	-9.97152
强烈	-9.97159
的原则	-9.97161
衡量	-9.97168
54	-9.97171
回家	-9.97208
池	-9.97232
▁当然	-9.97293
恐怖	-9.97315
少数	-9.97332
帮	-9.9734
融资	-9.974
意识到	-9.97464
人群	-9.97502
残	-9.97515
上诉	-9.9753
举行了	-9.97537
采取措施	-9.97544
大量的	-9.9755
引起的	-9.97561
工发组织	-9.97579
▁事实上	-9.97585
许	-9.9764
遇到	-9.97675
▁16.	-9.97729
取得了	-9.97807
发送	-9.97873
耶	-9.97901
仲裁	-9.97924
经济增长	-9.97939
鼻	-9.97961
ic	-9.97973
分发	-9.97982
电池	-9.98023
幕	-9.98067
▁一些	-9.98068
通用	-9.98072
偷	-9.98106
纹	-9.98132
访	-9.9816
房子	-9.98192
高速	-9.98256
利比里亚	-9.98331
兴	-9.98338
对策	-9.98347
上午	-9.98403
逮捕	-9.98426
制品	-9.98449
阵	-9.98452
ing	-9.98457
溶	-9.98471
编辑	-9.98492
异常	-9.98514
49	-9.98516
法规	-9.9871
铁路	-9.9878
诉	-9.98829
赞扬	-9.98874
与其	-9.98874
ta	-9.98927
审计委员会	-9.98942
三年	-9.99045
滚	-9.99053
得出	-9.99082
尺寸	-9.99089
留下	-9.99102
宫	-9.99176
扫描	-9.99198
动作	-9.99209
融合	-9.9921
武装冲突	-9.99232
毁	-9.99248
的应用	-9.99248
▁15.	-9.99254
肩	-9.99306
的认识	-9.99308
另	-9.99319
浓度	-9.99334
9%	-9.99508
利益攸关方	-9.99524
不需要	-9.99579
摇	-9.99609
灾	-9.99609
后果	-9.99628
它们的	-9.99655
可用	-9.99723
削减	-9.99767
及其他	-9.99792
尘	-9.99812
的风险	-9.99899
▁如	-9.9991
同步	-9.9994
青少年	-10.0004
通道	-10.0005
科索沃	-10.0005
罗马	-10.0007
唐	-10.0007
产量	-10.0009
压缩	-10.0013
中有	-10.0019
沿	-10.0037
▁第	-10.004
科威特	-10.004
赋予	-10.0041
▁同样	-10.0043
带着	-10.0056
持有	-10.0062
生活在	-10.0062
有了	-10.0065
的声音	-10.0066
来看	-10.0071
摩	-10.0073
忙	-10.0074
出售	-10.0076
乙	-10.0076
学家	-10.0087
逆	-10.0089
解决办法	-10.0103
刚果民主共和国	-10.0106
警方	-10.0107
消失	-10.0108
基金会	-10.0117
▁联合国	-10.0117
防治	-10.0119
同一	-10.013
最初	-10.0138
以英语发言	-10.014
育	-10.014
磷	-10.014
文明	-10.0143
土著	-10.0147
现状	-10.0149
规律	-10.0151
虚拟	-10.0151
的观点	-10.0156
资	-10.0165
隆	-10.0166
品质	-10.0168
争议	-10.0174
发动机	-10.0181
答	-10.0183
干扰	-10.0184
▁利用	-10.0186
岸	-10.0194
革命	-10.0196
成绩	-10.0196
终于	-10.0199
案例	-10.0203
图书馆	-10.0207
以为	-10.0209
改造	-10.0212
幼	-10.0214
目的是	-10.0215
案文	-10.0223
编码	-10.0224
的概念	-10.0226
提案	-10.023
战斗	-10.0235
我就	-10.0236
焊	-10.024
总结	-10.0248
告	-10.025
汇	-10.025
众	-10.0251
熔	-10.0251
种植	-10.0253
照顾	-10.0253
的标准	-10.0254
经济发展	-10.0257
的执行情况	-10.026
信托基金	-10.0264
鼠	-10.0268
蛋	-10.0269
美国人	-10.027
43	-10.0271
太多	-10.0291
并未	-10.0295
国外	-10.0301
ad	-10.0303
球队	-10.0304
因为它	-10.0305
观念	-10.0313
ed	-10.0314
继	-10.0317
是不	-10.0319
发生了	-10.032
财富	-10.032
判断	-10.0321
延	-10.0327
售	-10.0337
购	-10.0338
泰国	-10.0338
平面	-10.0339
在线	-10.034
国会	-10.034
让我们	-10.034
出席	-10.034
高于	-10.0342
通报	-10.0346
递	-10.0347
图片	-10.0349
漏	-10.0352
兄弟	-10.0353
中国的	-10.0354
容	-10.0361
想象	-10.0367
▁19.	-10.0369
ba	-10.0387
印度尼西亚	-10.0387
瑞典	-10.0388
行动纲领	-10.0388
丰富	-10.0391
sa	-10.0397
第二次	-10.0401
怪	-10.0402
译	-10.0404
新型	-10.0408
太平洋	-10.041
▁目的探讨	-10.0415
衣服	-10.0417
类型的	-10.0424
角度	-10.0425
的名字	-10.0428
大陆	-10.0428
印刷	-10.0434
原子	-10.0437
毫无	-10.0439
传感器	-10.0444
用品	-10.0453
父	-10.0455
人权理事会	-10.0455
内的	-10.0456
吊	-10.0456
单独	-10.0463
di	-10.0466
谢	-10.0474
手册	-10.0481
da	-10.0482
性别平等	-10.0482
信贷	-10.0492
追求	-10.0492
五年	-10.0498
工作队	-10.0499
民众	-10.0499
标记	-10.0501
可靠	-10.0506
这场	-10.0507
to	-10.0508
出现了	-10.0512
触	-10.0515
伊斯兰	-10.0516
天然	-10.0516
技术援助	-10.0517
肾	-10.0525
住在	-10.0529
涵盖	-10.0537
对待	-10.0537
加快	-10.0537
联合王国	-10.0538
克斯	-10.054
带有	-10.0541
危害	-10.0548
是我	-10.0549
兼	-10.0552
▁一种	-10.0552
执行局	-10.0557
迹	-10.0568
穆	-10.0571
装备	-10.0575
大规模	-10.058
鼓	-10.0582
▁18.	-10.0588
邮	-10.059
下面	-10.059
克服	-10.0592
截至	-10.0595
挪威	-10.0595
对比	-10.0596
59	-10.0603
载有	-10.0604
善	-10.0608
认可	-10.0619
海地	-10.0624
告诉我	-10.0629
新西兰	-10.063
两次	-10.0632
▁"	-10.0634
;(	-10.0638
振动	-10.0639
峰	-10.064
获得了	-10.064
脂肪	-10.0645
距	-10.0648
齿	-10.065
核查	-10.0658
的同时	-10.0664
唱	-10.0668
组成的	-10.0669
高效	-10.0673
关联	-10.0673
约翰	-10.0675
400	-10.0676
遗传	-10.0677
接口	-10.0679
智	-10.0682
目录	-10.0685
声音	-10.0686
ir	-10.0687
叙利亚	-10.0688
流量	-10.0689
地理	-10.0691
公路	-10.0694
的在线电子	-10.07
常规	-10.0706
铺	-10.0712
莎	-10.0712
误	-10.0715
的儿童	-10.0718
的讨论	-10.0719
灾难	-10.0721
阻碍	-10.0723
振	-10.0725
与发展	-10.0727
烤	-10.0735
缘	-10.0737
症状	-10.0738
▁大	-10.0738
信仰	-10.0746
应力	-10.075
我们将	-10.075
好像	-10.075
英文	-10.0751
每次	-10.0753
某一	-10.0756
间的	-10.0758
出于	-10.0769
很容易	-10.0771
询问	-10.0771
家庭暴力	-10.0774
安全和	-10.0775
信心	-10.0779
钙	-10.0782
朝鲜	-10.0783
的世界	-10.0785
拨	-10.0787
惠	-10.0792
失业	-10.0793
要素	-10.0796
回收	-10.0805
终止	-10.0807
可是	-10.0809
同事	-10.0813
过度	-10.0813
存在的	-10.0814
42	-10.0816
请秘书长	-10.0818
刚刚	-10.0821
雄	-10.0824
复杂的	-10.0832
干燥	-10.0842
世界银行	-10.0845
最新	-10.0845
冠	-10.0849
说话	-10.0856
一半	-10.0858
管道	-10.0858
批	-10.0859
的妇女	-10.0859
弹性	-10.086
是指	-10.0864
机构间	-10.0865
舍	-10.0873
后面	-10.0874
以往	-10.0885
大使	-10.0887
▁双	-10.0889
扫	-10.0889
哲学	-10.089
爱情	-10.0891
而不	-10.0891
智能	-10.0891
66	-10.0895
检察官	-10.0896
主动	-10.0901
几年	-10.0901
视为	-10.0904
遗	-10.0908
电压	-10.0911
刷	-10.0913
数学	-10.0918
很好	-10.0925
耶稣	-10.0926
表演	-10.0929
尽快	-10.093
老板	-10.0934
这些国家	-10.0934
谷	-10.0938
本地	-10.0943
提醒	-10.0951
抓	-10.0953
相同的	-10.0954
讲话	-10.0955
在本	-10.0959
融入	-10.0965
互动	-10.0968
议	-10.0977
se	-10.098
西部	-10.0981
68	-10.0982
的技术	-10.0984
形状	-10.0985
_	-10.0986
的办法	-10.0993
na	-10.0993
政党	-10.0994
当中	-10.0998
et	-10.0998
不久	-10.1
▁21.	-10.1003
ac	-10.1005
密封	-10.101
▁许多	-10.1011
ur	-10.1025
种族主义	-10.1034
呆	-10.1034
灵活	-10.1036
切实	-10.1036
注重	-10.1039
墨	-10.1042
他人	-10.1042
安全理事会第	-10.1046
秩序	-10.1047
秘密	-10.1047
q	-10.1047
符	-10.105
62	-10.1051
首脑会议	-10.1052
类别	-10.1053
该公司	-10.1057
邦	-10.1057
使用的	-10.106
众多	-10.1061
应在	-10.1063
之处	-10.1067
饰	-10.1067
il	-10.1071
的费用	-10.1083
机理	-10.1084
发育	-10.1085
的资金	-10.1086
细菌	-10.1086
房屋	-10.1086
任期	-10.1086
的确	-10.1088
设法	-10.1094
似	-10.1095
猎	-10.1096
吨	-10.1096
这一问题	-10.1097
层次	-10.1097
随机	-10.1101
-3	-10.1102
引发	-10.1103
菲律宾	-10.1108
证券	-10.1108
国籍	-10.1109
动脉	-10.1119
浸	-10.1119
爬	-10.112
大脑	-10.1121
很好的	-10.1123
阳光	-10.1126
看着	-10.1128
▁介绍了	-10.1129
台湾	-10.1134
液体	-10.1137
议题	-10.1138
▁它们	-10.1139
技术和	-10.1142
的特点	-10.1145
▁20.	-10.1151
前面	-10.1156
已有	-10.1157
所载	-10.1158
载于	-10.1159
国王	-10.1165
巴黎	-10.117
合作伙伴	-10.1172
强化	-10.1173
期待	-10.1176
律	-10.1176
装饰	-10.1178
柜	-10.1179
功	-10.1184
一片	-10.1186
还将	-10.1188
斗争	-10.1192
缅甸	-10.1194
论文	-10.1204
一件	-10.1206
不够	-10.121
广播	-10.1211
订正	-10.1211
显得	-10.1217
武	-10.122
多次	-10.1222
▁22.	-10.1222
拟定	-10.1223
足球	-10.1226
公里	-10.1228
正如	-10.123
Y	-10.1231
上了	-10.1234
焦	-10.1249
ha	-10.1259
立场	-10.1263
所有国家	-10.1267
▁正如	-10.1269
海岸	-10.1272
柔	-10.1272
一边	-10.1278
美利坚合众国	-10.1281
所列	-10.1281
陷入	-10.1282
▁小	-10.1282
急性	-10.1284
佳	-10.1285
职责	-10.1287
明天	-10.1288
所在	-10.1291
发展的	-10.1294
形象	-10.1297
那时	-10.1298
▁此	-10.1308
夫人	-10.1311
▁不要	-10.1312
凝	-10.1316
径	-10.1317
制止	-10.1322
炮	-10.1323
第十	-10.1324
发行	-10.1325
41	-10.1327
有害	-10.1329
机构的	-10.1334
简单的	-10.1337
的历史	-10.1339
vi	-10.134
硫	-10.1342
裤	-10.1345
文档	-10.1347
充	-10.1347
续	-10.1347
共有	-10.135
仍然是	-10.1351
恶化	-10.1352
级别	-10.1353
将来	-10.1353
锡	-10.1356
假设	-10.1357
的孩子	-10.1363
67	-10.1364
季度	-10.1369
哥	-10.1371
狂	-10.1376
突	-10.1379
继承	-10.1382
黑暗	-10.1384
种子	-10.1385
天空	-10.1388
从未	-10.1389
各自	-10.1395
搭	-10.1396
▁鉴于	-10.1396
更大	-10.1399
胺	-10.1401
但我	-10.1402
该区域	-10.1412
议员	-10.1415
1993	-10.142
非正式	-10.1422
co	-10.1423
财	-10.1423
和第	-10.1424
更大的	-10.1424
反恐	-10.1431
传递	-10.1433
第二个	-10.1435
ol	-10.1437
00	-10.144
颁布	-10.1441
脉冲	-10.1443
被视为	-10.1444
艺	-10.1444
补贴	-10.1445
作出了	-10.1451
出发	-10.1457
恐惧	-10.1457
刚果	-10.1459
场所	-10.1466
尼日利亚	-10.1469
区别	-10.1469
删除	-10.1485
毕业	-10.1491
产出	-10.1492
确立	-10.1496
▁您	-10.1497
的最	-10.1501
东部	-10.1502
爆发	-10.1507
分为	-10.1513
十六	-10.1518
肯尼亚	-10.1521
刑法	-10.1521
鲜	-10.1522
给他	-10.1523
劳工	-10.1524
非洲联盟	-10.1528
他们在	-10.1529
等方面	-10.1532
故	-10.1533
办公	-10.1534
依靠	-10.1534
有什么	-10.1536
坦	-10.1537
主持	-10.1538
排除	-10.154
加热	-10.1542
帽	-10.1544
▁人们	-10.1545
维持和平行动	-10.1546
有很多	-10.1547
我在	-10.1548
外地	-10.155
耗	-10.1553
宾	-10.1554
华盛顿	-10.1559
争	-10.1562
富有	-10.1562
陆	-10.1562
长度	-10.1562
出版物	-10.1563
熟	-10.1573
此外	-10.1575
me	-10.1575
伴	-10.1577
▁结果表明	-10.1577
妇	-10.1578
文字	-10.1584
纳米	-10.1585
事实上	-10.1591
随时	-10.1596
等等	-10.1597
雇主	-10.1597
中期	-10.1599
强迫	-10.1613
全体	-10.1621
熟悉	-10.1623
-4	-10.1624
相反	-10.1631
列表	-10.1631
因子	-10.1631
框	-10.1633
星期	-10.1634
茨	-10.1635
去了	-10.1636
树脂	-10.1638
胜利	-10.1641
本人	-10.1648
高压	-10.165
的数量	-10.1651
会有	-10.1652
「	-10.1652
▁而且	-10.1654
灾害	-10.1657
引入	-10.1657
产生了	-10.1659
以期	-10.166
变形	-10.1661
体现	-10.1663
lo	-10.1667
执法	-10.1667
想到	-10.1671
警告	-10.1674
丙	-10.1675
旗	-10.1675
构	-10.1676
品种	-10.1676
增进	-10.1678
目前正在	-10.1683
调用	-10.1687
帐	-10.1687
老年人	-10.1687
升级	-10.1693
澄清	-10.1701
顾客	-10.1701
57	-10.1701
赞同	-10.1704
谴责	-10.1713
科特迪瓦	-10.1714
都不	-10.1719
发生在	-10.1721
理想	-10.1723
震	-10.1724
繁荣	-10.1727
血液	-10.1729
颗粒	-10.1732
焊接	-10.1739
的目的	-10.1741
正确的	-10.1742
作家	-10.1744
免	-10.1751
伏	-10.1757
败	-10.1758
肯	-10.176
设想	-10.1763
朱	-10.1766
和管理	-10.1771
许可	-10.1772
’	-10.1779
彼此	-10.178
方程	-10.178
▁新	-10.1781
精确	-10.1781
单一	-10.1785
五个	-10.1789
跌	-10.1792
贾	-10.1792
原来	-10.1794
导弹	-10.1795
俄	-10.1795
实用	-10.1799
玉	-10.1803
监控	-10.1806
泽	-10.1814
特别委员会	-10.1814
纱	-10.1818
?”	-10.1819
▁为此	-10.182
腹	-10.1822
转向	-10.1822
局部	-10.1823
前景	-10.1825
冷却	-10.1827
and	-10.1828
弯	-10.1829
的资源	-10.1829
转变	-10.1834
环境署	-10.1839
得多	-10.1843
腺	-10.1844
1992	-10.1847
的相关	-10.1847
种类	-10.1849
该地区	-10.1854
有机会	-10.1856
助理	-10.1863
复制	-10.1864
拜	-10.1869
杨	-10.1871
还可以	-10.1873
紫	-10.1875
瓜	-10.1882
Q	-10.1884
组件	-10.1886
的形式	-10.1886
▁多	-10.1887
后续	-10.1889
赖	-10.1889
制定了	-10.1891
ti	-10.1893
移徙	-10.1893
清除	-10.1906
二十	-10.1908
丰	-10.1908
爱尔兰	-10.1911
宗	-10.1912
任意	-10.1916
汁	-10.1917
可以通过	-10.1923
th	-10.1923
物体	-10.1925
调动	-10.1926
发起	-10.1932
▁主席	-10.1934
缺少	-10.1935
遵循	-10.1937
债券	-10.1938
变革	-10.1938
移植	-10.194
埃塞俄比亚	-10.1941
联合会	-10.1941
许多人	-10.1944
敌人	-10.1944
会议室	-10.1945
如今	-10.1948
舰	-10.1951
人权高专办	-10.1951
总额	-10.1958
尤	-10.1959
脉	-10.1962
貌	-10.1963
+	-10.1964
设定	-10.1972
序列	-10.1975
推迟	-10.1978
奶	-10.1979
▁其中	-10.198
的位置	-10.1982
捐助	-10.1984
相应	-10.1984
小学	-10.1986
南方	-10.1988
也在	-10.199
邮件	-10.199
东帝汶	-10.1991
演讲	-10.1994
▁委员会还	-10.1997
链接	-10.1997
掌	-10.2
▁即使	-10.2
妇女的	-10.2
证书	-10.2002
迈	-10.201
至今	-10.2014
优	-10.2015
搞	-10.2017
让他	-10.202
被告	-10.2022
临	-10.2028
驱	-10.2029
欲	-10.203
臂	-10.2032
是对	-10.2034
该项目	-10.2041
的那样	-10.2046
变量	-10.2048
独立的	-10.2051
正义	-10.2053
筹资	-10.2055
冒	-10.2056
63	-10.2059
休息	-10.2059
其他人	-10.2063
分散	-10.2074
两名	-10.2075
mi	-10.2077
一段	-10.2093
以及在	-10.2097
骑	-10.2097
目前的	-10.2099
首都	-10.2102
辩	-10.2102
几天	-10.2103
日内瓦	-10.2104
由此	-10.2105
牧	-10.2108
栏	-10.2111
教会	-10.2119
戏	-10.212
ay	-10.2122
走了	-10.2123
新加坡	-10.2125
心脏	-10.2127
ab	-10.2128
年至	-10.2133
特别代表	-10.2135
化合物	-10.2139
机器人	-10.214
和非	-10.2142
没有人	-10.2143
各类	-10.2144
腰	-10.2144
志	-10.2147
误差	-10.2158
益	-10.2158
应用于	-10.2163
形式的	-10.2164
一部分	-10.2168
武装部队	-10.2168
维修	-10.2169
利率	-10.217
一些国家	-10.2171
同样的	-10.2172
但他	-10.2172
▁当你	-10.2172
这种情况	-10.2181
年底	-10.2185
就此	-10.2191
52	-10.2191
乌克兰	-10.2193
环保	-10.2196
条规定	-10.2197
敌	-10.2199
而非	-10.2205
证人	-10.2206
审理	-10.2206
人才	-10.2206
约束	-10.2206
和谐	-10.2213
问题是	-10.2213
报纸	-10.2214
英里	-10.2224
污	-10.2227
im	-10.2233
他是	-10.2235
页面	-10.2248
卢旺达	-10.2248
缓解	-10.2251
出现在	-10.2257
氟	-10.2262
妨碍	-10.2264
说道	-10.2271
部件	-10.2273
系统中	-10.2274
技巧	-10.2276
查询	-10.2276
信息技术	-10.2276
创作	-10.2276
原子能机构	-10.2277
了一	-10.2279
节点	-10.2281
仪器	-10.2289
所作的	-10.2294
花费	-10.2296
穿着	-10.2297
将是	-10.2299
工会	-10.2302
的价值	-10.2304
带来的	-10.2305
翼	-10.231
线性	-10.2315
蛋白质	-10.2316
53	-10.2317
巨	-10.2318
▁24.	-10.232
▁25.	-10.232
席	-10.2323
项目的	-10.2326
账	-10.2326
阿尔	-10.2334
▁23.	-10.2335
并为	-10.2335
撞	-10.2344
大众	-10.2344
委员会注意到	-10.2349
一体化	-10.235
闪	-10.2351
累	-10.2355
渗	-10.2358
做的	-10.2358
冠军	-10.2364
色彩	-10.2367
实地	-10.2368
冻	-10.2368
桩	-10.2372
津贴	-10.2373
海外	-10.2374
为基础	-10.2378
发言人	-10.238
替	-10.238
都能	-10.2382
.6	-10.2388
真是	-10.2394
环境中	-10.2394
湾	-10.24
清晰	-10.2401
在他	-10.2404
稍	-10.241
做到	-10.2414
桶	-10.2414
一周	-10.2415
相应的	-10.2422
退休	-10.2427
认证	-10.2431
▁26.	-10.2431
寒	-10.2433
极端	-10.2436
有一些	-10.2436
蓝色	-10.2437
抱	-10.2438
竹	-10.2442
档案	-10.2444
不管	-10.2446
许多国家	-10.2451
滤	-10.2456
庄	-10.2457
不论	-10.246
汇率	-10.2462
形势	-10.2464
▁每	-10.2465
主张	-10.2467
交付	-10.247
激励	-10.247
良	-10.2475
▁高	-10.2477
的利益	-10.2477
酌情	-10.2478
的有效	-10.2481
的产品	-10.2482
俗	-10.2483
的方案	-10.2492
更改	-10.2492
的看法	-10.2494
谋	-10.2496
酮	-10.2497
轨	-10.2505
观测	-10.2508
但在	-10.2508
man	-10.2508
秒	-10.2512
经济体	-10.2514
会上	-10.2518
给了	-10.2519
甚	-10.252
75	-10.252
一辆	-10.2524
凉	-10.2526
职务	-10.2536
界定	-10.2537
am	-10.2538
能否	-10.2541
海关	-10.2544
有许多	-10.2545
的危险	-10.2547
赞成	-10.255
铅	-10.2551
注射	-10.2556
关节	-10.2558
边境	-10.2559
带来了	-10.256
引导	-10.2561
真实	-10.2561
记得	-10.2562
推出	-10.2563
仍在	-10.2566
管理局	-10.2567
越南	-10.2568
技术合作	-10.2569
如同	-10.2569
渠道	-10.257
▁只有	-10.257
老人	-10.2573
的一切	-10.2576
▁所有	-10.2582
路上	-10.2582
巩固	-10.2583
暂时	-10.2584
答案	-10.2585
设立了	-10.2592
闻	-10.2593
慢性	-10.2594
的理由	-10.2594
动力学	-10.2596
的想法	-10.2601
控制系统	-10.2609
辞	-10.2609
稀	-10.261
绕	-10.2616
拔	-10.2622
卵	-10.2622
ka	-10.2624
摩洛哥	-10.2626
加上	-10.2627
自然资源	-10.2636
化的	-10.2645
研制	-10.2647
更好	-10.2651
仔细	-10.2655
段中	-10.2657
发明	-10.2658
饮食	-10.2658
路径	-10.266
过来	-10.2667
耶和华	-10.2669
电子邮件	-10.2671
简化	-10.2677
足够的	-10.2677
600	-10.2685
庆祝	-10.2687
实时	-10.269
倾	-10.2692
丰富的	-10.2693
疫苗	-10.2699
偶	-10.27
日常	-10.2701
友好	-10.2702
捐助者	-10.2709
达尔富尔	-10.2712
提名	-10.2713
的成员	-10.2714
▁27.	-10.2715
破产	-10.2715
服务的	-10.2718
时刻	-10.2719
中所	-10.2719
敬	-10.2724
所做的	-10.2726
监禁	-10.2727
皇	-10.2727
表现出	-10.2732
的文件	-10.2732
序	-10.2735
是最	-10.2738
擦	-10.2739
这份	-10.274
马来西亚	-10.2741
因为他	-10.2741
领袖	-10.2741
储备	-10.2741
原始	-10.2742
号文件	-10.2744
电机	-10.2746
坡	-10.2751
熊	-10.2754
组成部分	-10.2755
透明度	-10.2756
的义务	-10.2759
美洲	-10.2761
浓	-10.2765
那是	-10.2767
被称为	-10.2768
受伤	-10.2769
方针	-10.277
秘书长关于	-10.2779
最近的	-10.2785
教育和	-10.2786
未经	-10.2787
这些问题	-10.2791
服装	-10.2793
敲	-10.2798
标签	-10.2799
都要	-10.2802
ni	-10.2804
沟	-10.2804
的挑战	-10.2807
薪	-10.281
垂	-10.2812
欠	-10.2812
舱	-10.2813
浪费	-10.2815
盆	-10.2823
就要	-10.2825
统治	-10.2826
▁阿	-10.2826
对这些	-10.2828
偿	-10.2844
和执行	-10.2845
修正案	-10.2848
被认为是	-10.2854
反射	-10.2856
宇宙	-10.2857
橡胶	-10.2857
割	-10.2862
摘要	-10.2863
法令	-10.2865
学术	-10.2869
想法	-10.2873
审议了	-10.2881
类似的	-10.2882
远程	-10.2889
严	-10.2893
宜	-10.2896
智利	-10.2905
年来	-10.2906
▁第二	-10.2906
为其	-10.2913
后者	-10.2915
十五	-10.2918
着手	-10.292
被迫	-10.292
是一项	-10.2925
人体	-10.2927
调解	-10.2932
水果	-10.2932
发现了	-10.2938
出现的	-10.294
的范围	-10.2942
口头	-10.2943
拍摄	-10.2945
秋	-10.2947
管理和	-10.295
灌	-10.2953
▁这样	-10.2954
康复	-10.2961
选项	-10.2969
名字	-10.2969
部门的	-10.2969
互相	-10.2973
加勒比	-10.2974
踏	-10.2974
消耗	-10.2976
此次	-10.2977
例外	-10.298
的学生	-10.2981
你要	-10.2982
赞赏	-10.2984
因为他们	-10.2984
我是	-10.2986
效力	-10.2986
的唯一	-10.2987
Web	-10.2989
布隆迪	-10.2989
ho	-10.2991
地说	-10.2998
寻	-10.2998
钉	-10.3003
当选	-10.301
极其	-10.3012
妇女在	-10.3013
已被	-10.3014
▁28.	-10.3021
缓慢	-10.3021
给出了	-10.3022
孙	-10.3033
智慧	-10.3033
的故事	-10.3041
生态系统	-10.3047
地下	-10.3047
税收	-10.3048
提高了	-10.3049
表决	-10.305
马里	-10.3053
日期间	-10.3057
法律和	-10.3057
爆	-10.3058
用作	-10.3061
▁针对	-10.3061
独特的	-10.3062
考察	-10.3063
是由于	-10.3064
玉米	-10.3066
no	-10.3067
浪	-10.3068
宪章	-10.3071
面向	-10.3071
际	-10.3076
纵	-10.3079
对方	-10.3079
基准	-10.3085
范	-10.3085
亡	-10.3089
面包	-10.3091
阶	-10.3091
逐	-10.3092
担保	-10.3097
其余	-10.3097
埋	-10.3107
矛盾	-10.3108
救济	-10.3108
方案和	-10.3109
商店	-10.311
有个	-10.3115
所有人	-10.3119
壮	-10.312
汞	-10.3123
最佳做法	-10.3129
包括在	-10.313
砖	-10.3138
犬	-10.3138
筹备	-10.3143
一部	-10.3149
执行情况	-10.3149
mo	-10.3149
漆	-10.315
您可以	-10.315
的过程	-10.3152
巧	-10.3152
极为	-10.3154
委员会的	-10.3155
为主	-10.3161
的比例	-10.3165
逊	-10.3166
不想	-10.3166
热情	-10.3168
适	-10.3168
冬	-10.317
一段时间	-10.3171
任何人	-10.3171
忘记	-10.3172
顺利	-10.3175
指挥	-10.3175
述	-10.3176
轴承	-10.318
着重	-10.318
梦想	-10.3182
隔离	-10.3184
一个新的	-10.319
非线性	-10.3192
明显的	-10.3192
号决议第	-10.3194
面临的	-10.3196
罩	-10.3198
生活的	-10.3199
sh	-10.32
电源	-10.3202
区的	-10.3208
泉	-10.3211
反映了	-10.3212
地雷	-10.3212
酚	-10.3213
丹麦	-10.3213
行为的	-10.3215
庭	-10.3223
上涨	-10.3225
聪明	-10.3229
静脉	-10.3229
则是	-10.3229
的最新	-10.3231
队伍	-10.3232
te	-10.3232
港口	-10.3233
的工作人员	-10.3235
谨	-10.3239
水泥	-10.3239
过于	-10.3241
勃	-10.3243
执	-10.3253
解放	-10.3255
之内	-10.3256
协调员	-10.3256
很可能	-10.3257
奈	-10.3258
赢得	-10.326
方案的	-10.3262
▁三	-10.3263
的个人	-10.3264
以及其他	-10.3265
大幅	-10.3267
▁国际	-10.3267
应付	-10.3269
出来的	-10.3269
我觉得	-10.3271
驾驶	-10.3272
不错	-10.3273
兴奋	-10.3274
忽视	-10.3274
害怕	-10.3274
的目的是	-10.3276
外国人	-10.3278
讯	-10.3281
女儿	-10.3283
作出的	-10.3283
暴力行为	-10.3285
攻	-10.3285
饼	-10.3287
文献	-10.3288
疏	-10.3289
爸爸	-10.3289
塞拉利昂	-10.3289
摆脱	-10.3291
原料	-10.3293
所示	-10.3293
的结论	-10.3296
生活中	-10.3296
腐蚀	-10.3298
ja	-10.3299
受害人	-10.3304
ot	-10.3305
的朋友	-10.3309
的环境	-10.3316
视觉	-10.3321
不安	-10.3324
暂停	-10.3326
永	-10.3328
见到	-10.3329
遗憾	-10.3332
▁最近	-10.3333
格鲁吉亚	-10.3335
驱逐	-10.3335
定期报告	-10.3337
一大	-10.3339
发放	-10.3339
把他	-10.3339
债	-10.3344
我们可以	-10.3346
在该	-10.3349
怀孕	-10.335
均匀	-10.3351
完整	-10.3351
象征	-10.3354
理念	-10.3356
对妇女	-10.3365
不良	-10.3369
非洲国家	-10.3369
▁一	-10.337
附加	-10.3375
的价格	-10.3376
与联合国	-10.3377
鬼	-10.338
的程序	-10.338
题	-10.3381
刑	-10.3384
ter	-10.3384
赛季	-10.3387
整合	-10.339
童	-10.3394
决	-10.3396
裙	-10.3396
交叉	-10.3397
首席	-10.3397
药品	-10.3398
硬件	-10.34
%	-10.3402
瑟	-10.3411
你知道	-10.3413
例子	-10.3416
岩石	-10.3418
每周	-10.3419
.7	-10.342
也将	-10.3426
的实际	-10.3426
锌	-10.3433
好处	-10.3433
光学	-10.3434
染	-10.3434
恋	-10.344
主体	-10.3444
款项	-10.3446
do	-10.3448
电信	-10.3449
泛	-10.3471
拼	-10.3471
不用	-10.3473
认	-10.3473
实在	-10.3475
▁29.	-10.3475
的决议草案	-10.3476
名为	-10.3476
成为一个	-10.348
疑	-10.3488
委员会在	-10.3491
潜在	-10.3492
▁大会	-10.3492
最为	-10.3493
魔	-10.3493
的一个重要	-10.3497
糖尿病	-10.3504
体内	-10.3506
1991	-10.3506
客观	-10.3507
学者	-10.351
主办	-10.3515
麻烦	-10.3522
操	-10.3522
黄色	-10.3522
穿过	-10.3526
围绕	-10.3526
都可以	-10.3534
不稳定	-10.3535
火箭	-10.3537
特色	-10.3537
我认为	-10.354
.1)	-10.354
过境	-10.354
事物	-10.3542
锅	-10.355
乌干达	-10.3551
运动员	-10.3557
数值	-10.3567
档	-10.3568
肌肉	-10.357
对该	-10.3573
有利	-10.3574
储	-10.3576
定于	-10.3577
社会发展	-10.3578
XML	-10.3582
利比亚	-10.3583
一支	-10.3585
当代	-10.3586
阻	-10.3594
并确保	-10.3595
制成	-10.3597
的贡献	-10.3598
荒	-10.3598
螺旋	-10.3598
利亚	-10.36
已成为	-10.3603
未来的	-10.3605
的选择	-10.3605
燃	-10.3609
稿	-10.3609
但它	-10.3612
三种	-10.3612
太空	-10.3615
强制	-10.362
开展了	-10.3622
你就	-10.3623
中学	-10.3624
影响的	-10.3626
串	-10.3628
工作者	-10.363
工程师	-10.3635
ah	-10.3636
存在着	-10.3637
介	-10.3637
海上	-10.3639
不少	-10.3639
民主党	-10.364
真空	-10.364
礼物	-10.3642
完成了	-10.3649
权利的	-10.365
基础上	-10.3651
(1)	-10.3652
之间的关系	-10.3656
管辖权	-10.3657
意外	-10.3657
的战略	-10.3658
时尚	-10.3659
娱乐	-10.3662
昨天	-10.3664
向大会	-10.3665
次区域	-10.3667
原因是	-10.367
比率	-10.3671
到底	-10.3676
穆斯林	-10.3677
还会	-10.3677
某人	-10.3683
绒	-10.3684
控制器	-10.3685
符号	-10.3689
的态度	-10.3692
囚犯	-10.3693
69	-10.37
现代化	-10.3709
维持和平	-10.3716
的质量	-10.3717
室内	-10.3721
波兰	-10.3726
800	-10.3726
最重要的	-10.3727
地质	-10.3734
一生	-10.3734
是我们	-10.3737
代价	-10.374
精度	-10.3741
库存	-10.3741
鉴定	-10.3742
▁这项	-10.3743
举办了	-10.3746
应急	-10.3746
的结构	-10.3747
专用	-10.3749
最小	-10.3756
少数群体	-10.3758
一般性	-10.3759
活力	-10.3769
ne	-10.3772
支撑	-10.3773
几个月	-10.3774
使他们	-10.3775
已在	-10.3776
ul	-10.3778
最高法院	-10.3778
滥用	-10.3779
潜力	-10.378
为止	-10.3781
阐述了	-10.3782
拨款	-10.3782
委员会主席	-10.3783
术后	-10.3786
绳	-10.379
总数	-10.3799
国际贸易	-10.3801
丧失	-10.3805
早上	-10.3809
差别	-10.3813
教堂	-10.3817
董事会	-10.3818
于是	-10.3819
这是一个	-10.3819
看上去	-10.3821
渴望	-10.3822
市场的	-10.3826
中心的	-10.3829
桃	-10.3837
蔬菜	-10.3837
在过去	-10.384
产品的	-10.3843
每月	-10.3846
记住	-10.3847
穷人	-10.3851
Z	-10.3853
火车	-10.386
执行主任	-10.3865
抛	-10.3865
网上	-10.3866
不利	-10.3869
反馈	-10.387
不好	-10.3871
读者	-10.3875
很有	-10.3881
讨论会	-10.3884
抢	-10.3885
扩张	-10.3886
竞选	-10.3886
铸	-10.3889
设立一个	-10.3891
你能	-10.3894
所有这些	-10.3899
无线	-10.3899
建设和平	-10.3902
▁32.	-10.3903
都没有	-10.3905
的请求	-10.3906
窗口	-10.3906
工作中	-10.3909
并向	-10.391
花园	-10.3911
观众	-10.3912
仪式	-10.3913
对抗	-10.3913
挡	-10.3913
儿童的	-10.3913
秀	-10.3914
主导	-10.3915
▁有些	-10.3915
住宅	-10.3918
竞争力	-10.3919
汽	-10.392
的计划	-10.3921
的分析	-10.3923
敏	-10.3927
荡	-10.393
的生命	-10.3933
泡沫	-10.3934
行星	-10.3938
据称	-10.3939
电缆	-10.3942
be	-10.3942
了一种	-10.3943
影响到	-10.3949
怒	-10.395
一组	-10.395
炼	-10.395
黄金	-10.395
意思	-10.3951
该组织	-10.3953
监督厅	-10.3953
维也纳	-10.3962
捕	-10.3965
阿尔及利亚	-10.3966
‘	-10.3966
芬兰	-10.3968
▁35.	-10.3968
▁他的	-10.397
会在	-10.3972
桌	-10.3976
下载	-10.3978
优质	-10.3978
来了	-10.398
▁可	-10.3981
陶瓷	-10.3983
我也	-10.3983
▁若	-10.3991
估计数	-10.3995
血清	-10.3995
庇护	-10.3999
完美	-10.4
IP	-10.4012
为期	-10.4013
帐户	-10.4016
不必	-10.4017
脆弱	-10.4018
和解	-10.4024
勤	-10.4028
近期	-10.4029
死刑	-10.4033
id	-10.4036
更有	-10.4036
1000	-10.4036
▁30.	-10.4038
▁日本	-10.4038
呈现	-10.4038
50%	-10.4044
物种	-10.4046
子里	-10.4047
较高	-10.4048
企图	-10.4049
营销	-10.405
列出	-10.405
生殖	-10.4053
的精神	-10.4056
以此	-10.4057
全面的	-10.4058
损	-10.4059
仿	-10.4059
约旦	-10.4065
垂直	-10.4066
决定草案	-10.4069
就在	-10.4077
重量	-10.408
猛	-10.4081
奥地利	-10.4081
承受	-10.4082
责	-10.4085
的服务	-10.4093
主人	-10.4099
私营	-10.4099
▁英国	-10.4101
龄	-10.4104
体验	-10.4104
▁与此同时	-10.4105
多样性	-10.4108
任职	-10.411
统	-10.4113
均衡	-10.4115
催化	-10.4115
伸	-10.4116
大楼	-10.4121
99	-10.4129
诚	-10.4131
休闲	-10.4131
细节	-10.4132
▁34.	-10.4132
质疑	-10.4133
截	-10.4137
可在	-10.4139
周末	-10.4139
钻石	-10.4141
架构	-10.4145
凭	-10.4146
丘	-10.4147
征聘	-10.4147
法定	-10.415
足以	-10.4153
让他们	-10.4156
思维	-10.4157
当你	-10.416
▁单	-10.4162
繁	-10.4163
毒品和犯罪问题办公室	-10.4164
超声	-10.4164
蛇	-10.4164
玛丽	-10.4166
同时也	-10.4169
很大的	-10.4172
ou	-10.4173
并通过	-10.4179
身边	-10.4185
10%	-10.4187
的存在	-10.4188
雾	-10.4195
阿塞拜疆	-10.4197
船舶	-10.4197
的部分	-10.4198
▁31.	-10.42
演员	-10.4202
超越	-10.4203
对手	-10.4206
恒	-10.4207
和安全	-10.4209
苗	-10.4212
游客	-10.4214
渣	-10.4214
超级	-10.4214
商务	-10.4215
分解	-10.4215
沉积	-10.4217
历史上	-10.4225
▁政府	-10.4226
节省	-10.4228
等级	-10.423
葡萄牙	-10.4231
蒙古	-10.4234
微笑	-10.4237
高温	-10.4237
和国际	-10.4238
这将	-10.424
赢	-10.4242
建设性	-10.4242
容器	-10.4243
有时候	-10.4243
所谓的	-10.4246
一步	-10.4247
痕	-10.4247
并与	-10.4247
对你	-10.4249
欧元	-10.425
事先	-10.4251
研究表明	-10.4254
波动	-10.4256
困	-10.426
练习	-10.4261
民间	-10.4262
芽	-10.4264
推荐	-10.4264
▁你们	-10.4273
玩具	-10.4278
塞浦路斯	-10.4281
死亡率	-10.4282
潜	-10.4282
收购	-10.4283
的特殊	-10.4288
金融危机	-10.4291
加大	-10.4293
专业人员	-10.4293
尊严	-10.4298
电动	-10.4299
可见	-10.43
较为	-10.4302
使之	-10.4303
强大的	-10.431
先前	-10.431
目标是	-10.431
奥运会	-10.431
的最佳	-10.431
看法	-10.4311
刊	-10.4311
选民	-10.4312
涨	-10.4315
布什	-10.4317
轻松	-10.4319
CT	-10.4321
遭	-10.4326
造成了	-10.4328
遮	-10.4331
尼泊尔	-10.4331
区分	-10.4332
委会	-10.4333
走向	-10.4334
堡	-10.4336
基督教	-10.4339
处罚	-10.434
有能力	-10.4342
组织和	-10.4343
实质	-10.4346
自治	-10.4348
博物馆	-10.4348
柄	-10.4348
抗议	-10.435
城镇	-10.4353
稳	-10.4353
告诉你	-10.4354
天然气	-10.4356
雷达	-10.4358
险	-10.436
争端	-10.4362
许可证	-10.4364
下跌	-10.4366
发展中国家的	-10.4369
指令	-10.4371
os	-10.4372
开展的	-10.438
合理的	-10.4383
的速度	-10.4385
清洗	-10.4385
法测定	-10.4386
塑	-10.4389
背景下	-10.4389
发展和	-10.4394
前进	-10.4398
信息和通信技术	-10.4399
成功的	-10.4399
的力量	-10.44
和技术	-10.4408
的效果	-10.4409
贝尔	-10.4412
▁非	-10.4416
减少了	-10.4417
也能	-10.4418
密码	-10.442
社会经济	-10.4421
运营	-10.4422
报告说	-10.4424
规	-10.4425
▁把	-10.4425
联合国宪章	-10.4425
付出	-10.4425
为何	-10.443
*	-10.4431
和平与安全	-10.4435
乔治	-10.4436
长的	-10.4437
双重	-10.4437
的非	-10.4439
网页	-10.444
清理	-10.4442
受影响	-10.4442
洁	-10.4443
哭	-10.445
的成果	-10.4452
也不会	-10.4458
回归	-10.4459
小孩	-10.4459
购物	-10.446
农场	-10.446
语文	-10.4462
框架内	-10.4465
对他	-10.4466
设立的	-10.4467
变换	-10.4469
轧	-10.4475
能在	-10.4476
拆	-10.448
十四	-10.4489
她说	-10.449
老年	-10.449
起到	-10.4491
阐述	-10.4492
的感觉	-10.4494
鹿	-10.4502
ca	-10.4504
融	-10.4504
无论是	-10.4504
政府和	-10.4505
必然	-10.4506
结构的	-10.4513
艰难	-10.452
失望	-10.4522
积极的	-10.4523
不平等	-10.4529
填	-10.4531
小鼠	-10.4534
扮演	-10.4536
技	-10.4536
外面	-10.4543
太阳能	-10.4544
基督	-10.4546
保罗	-10.4547
在我	-10.4548
我们在	-10.4549
简要	-10.4551
芬	-10.4552
衬	-10.4552
150	-10.4552
签订	-10.4555
再生	-10.4557
签	-10.4562
般	-10.4563
尽量	-10.4563
规定了	-10.4564
陷	-10.4567
妮	-10.4568
感情	-10.4569
教科文组织	-10.4571
聚集	-10.4574
安全性	-10.4577
夏天	-10.4579
此项	-10.4583
的定义	-10.4583
生理	-10.4584
庆	-10.4594
心灵	-10.4594
健	-10.4596
的歧视	-10.4601
诱导	-10.4607
种族歧视	-10.4608
剂量	-10.4611
过了	-10.4617
是如何	-10.4617
汇编	-10.4619
该委员会	-10.4627
凸	-10.4631
正当	-10.4632
重组	-10.4635
必须在	-10.4639
衫	-10.464
弹药	-10.4641
少数民族	-10.4642
和联合国	-10.4644
om	-10.4645
在联合国	-10.4648
在这	-10.465
编程	-10.4651
麦克	-10.4651
独特	-10.4654
大的	-10.4658
ce	-10.466
延迟	-10.4661
合适的	-10.4664
长时间	-10.467
噪声	-10.4676
典型	-10.4678
介质	-10.4679
集成	-10.4682
在全球	-10.4683
还需要	-10.4687
激素	-10.4688
▁按照	-10.4688
政权	-10.4689
大气	-10.4689
我们必须	-10.4691
剑	-10.4692
的立场	-10.4694
齿轮	-10.4696
越来越多的	-10.4701
此时	-10.4702
四年	-10.4706
开展工作	-10.4708
的临床	-10.4709
使我们	-10.471
谨慎	-10.4711
远远	-10.4711
产物	-10.4711
房地产	-10.4713
com	-10.4714
尤其是在	-10.472
舒	-10.4724
这方面的	-10.4728
大卫	-10.4728
光谱	-10.4729
共识	-10.4729
混乱	-10.473
引用	-10.4736
▁使用	-10.4736
纪	-10.4747
▁33.	-10.4748
管辖	-10.4753
是从	-10.4753
认定	-10.4757
线路	-10.4759
芯	-10.4761
内存	-10.4761
在你	-10.4763
是通过	-10.4764
▁38.	-10.4765
这条	-10.4766
▁还有	-10.4768
不了	-10.4769
流离失所	-10.4769
生育	-10.4769
雇用	-10.4771
插入	-10.4773
幻	-10.4775
世界各地	-10.4782
强调了	-10.4791
61	-10.4795
悬	-10.4796
▁我国	-10.4796
我可以	-10.4797
疼痛	-10.4799
谈到	-10.48
不起	-10.4804
尼亚	-10.4804
发言者	-10.4807
的共同	-10.4808
抓住	-10.4812
样品	-10.4815
嘉	-10.4816
三维	-10.4827
顺序	-10.4829
家族	-10.483
裔	-10.4832
女童	-10.4833
自动化	-10.4834
固体	-10.4834
协	-10.4845
效益	-10.4847
公式	-10.4851
干旱	-10.4853
这就是	-10.4854
钠	-10.4856
收到的	-10.4856
电磁	-10.486
镀	-10.4861
季节	-10.4862
追踪	-10.487
饮料	-10.4871
在这些	-10.4872
液压	-10.4875
的地位	-10.4876
提请	-10.4878
提供援助	-10.4879
表格	-10.4886
永久	-10.4888
▁37.	-10.4889
保守	-10.4891
代替	-10.4892
美国的	-10.4892
群岛	-10.4895
相当于	-10.49
欢	-10.4902
hi	-10.4903
厄立特里亚	-10.4905
吁请	-10.4909
表示关切	-10.491
CD	-10.4913
的家庭	-10.4916
无疑	-10.4917
了他	-10.4918
光纤	-10.4919
情感	-10.4921
荣	-10.4923
采访	-10.4924
wa	-10.4927
予	-10.4929
虎	-10.4932
航天	-10.4932
具体的	-10.4935
处境	-10.4935
根据第	-10.4936
叠	-10.4936
沿着	-10.4938
流体	-10.4945
两者	-10.4947
附近的	-10.495
sp	-10.4953
有些人	-10.4956
英格兰	-10.4959
合格	-10.4961
的不同	-10.4961
部位	-10.4963
设计的	-10.4966
采用了	-10.4966
申诉人	-10.4967
有一天	-10.4967
打破	-10.4968
专利	-10.4974
间接	-10.4977
酱	-10.4977
惯例	-10.4978
投诉	-10.4979
密切合作	-10.498
作物	-10.498
万人	-10.4981
▁截至	-10.4983
烷	-10.499
病例	-10.499
较大	-10.4993
▁这里	-10.4994
闹	-10.4995
抱怨	-10.4996
▁36.	-10.4997
72	-10.4998
即便	-10.4998
的过程中	-10.4999
无线电	-10.4999
优惠	-10.5014
公务员	-10.5014
力学	-10.5016
制约	-10.502
的儿子	-10.502
告知	-10.5022
家里	-10.5024
自主	-10.5026
克拉	-10.5027
争论	-10.503
bo	-10.5031
郎	-10.5032
飘	-10.5032
参观	-10.5033
火山	-10.5037
是以	-10.5038
弧	-10.5038
▁也许	-10.5039
图形	-10.504
这两	-10.5041
回报	-10.5043
小心	-10.5044
粒子	-10.5046
脱离	-10.5046
的调查	-10.505
扔	-10.505
一本	-10.5051
和政治	-10.5051
摩擦	-10.5052
乎	-10.5052
叫做	-10.5056
特殊的	-10.5059
荷	-10.5063
豁免	-10.5068
20%	-10.5069
核裁军	-10.5072
给出	-10.5072
委托	-10.5074
超出	-10.5075
高兴	-10.5076
的区域	-10.5078
前提	-10.5081
机构和	-10.5082
建筑物	-10.5083
挤	-10.5091
负债	-10.5094
人员的	-10.5095
研发	-10.5101
▁于是	-10.5102
实现了	-10.5103
屏	-10.5104
缸	-10.5104
展览	-10.5105
已经在	-10.5106
今	-10.5108
提示	-10.511
专家小组	-10.5115
700	-10.5116
覆	-10.5122
较高的	-10.5122
倡导	-10.5123
活跃	-10.5124
不太	-10.5124
印象	-10.5125
好了	-10.5126
提交了	-10.5126
起了	-10.5129
否认	-10.5131
种种	-10.5132
开采	-10.5135
能够在	-10.5135
扇	-10.5138
rev	-10.514
摄影	-10.5141
的最大	-10.5147
受理	-10.515
施加	-10.5152
明星	-10.5154
川	-10.5154
葡萄	-10.5155
明确的	-10.5162
▁第三	-10.5168
的培训	-10.5171
的保护	-10.5172
形成的	-10.5172
司机	-10.5174
管理人员	-10.5174
一群	-10.5175
卸	-10.5177
分裂	-10.5179
每个人都	-10.5182
诱	-10.5185
量的	-10.5185
内心	-10.5189
红外	-10.5189
儿童权利	-10.5191
盗	-10.5191
该方案	-10.5195
常见	-10.5195
该报告	-10.5196
颇	-10.5196
贫	-10.5196
回忆	-10.5196
秘鲁	-10.5197
财务报表	-10.5197
非常重要	-10.5198
▁你可以	-10.5202
夺	-10.5203
第三次	-10.5204
个体	-10.5206
术语	-10.521
国际人道主义法	-10.5211
的第一	-10.5211
喊	-10.5215
霜	-10.5215
白俄罗斯	-10.5216
专员	-10.5219
家长	-10.5223
马上	-10.5226
深度	-10.5228
会谈	-10.523
经典	-10.5233
煮	-10.5233
镍	-10.5233
可靠性	-10.5233
履行其	-10.5244
豪	-10.5246
因为我	-10.5248
可持续性	-10.5249
粮农组织	-10.5252
东道国	-10.5253
下一个	-10.5261
年度报告	-10.5264
最多	-10.5266
汗	-10.527
百分比	-10.527
获悉	-10.527
陈述	-10.5271
条约机构	-10.5272
卡尔	-10.5274
的需要	-10.5275
寿命	-10.5279
做好	-10.5281
生物学	-10.5282
管理系统	-10.5286
狼	-10.5289
愤怒	-10.5289
接着	-10.5297
的执行	-10.5298
预防和	-10.5302
!”	-10.5303
家具	-10.5304
不扩散条约	-10.5306
近年来	-10.5308
英尺	-10.5308
王国	-10.5308
毫米	-10.5309
的会议	-10.5309
族裔	-10.5309
薄膜	-10.5312
特定的	-10.5316
结果表明	-10.5319
影片	-10.5326
英雄	-10.5327
这样一个	-10.5328
核可	-10.5331
人在	-10.5333
辆	-10.5339
奏	-10.5342
函	-10.5342
引擎	-10.5344
渗透	-10.5345
命名	-10.5346
的水	-10.5349
pe	-10.5352
海军	-10.5353
日和	-10.5353
会导致	-10.5356
劳动力	-10.5367
醒	-10.5368
促请	-10.5371
不喜欢	-10.5372
和平进程	-10.5373
剩余	-10.5374
提案国	-10.5374
感受	-10.5379
矿物	-10.5381
踢	-10.5382
路线	-10.5386
影像	-10.5388
放松	-10.539
携带	-10.539
▁研究了	-10.5392
各位	-10.5393
退出	-10.5395
纽	-10.5399
▁实际上	-10.5401
玫瑰	-10.5401
睡眠	-10.5401
强奸	-10.5402
渔业	-10.5402
▁今年	-10.5406
▁无	-10.5407
人道主义援助	-10.5411
射线	-10.5414
候	-10.5414
▁一旦	-10.5415
基本上	-10.5417
偿还	-10.5418
下了	-10.542
一方	-10.542
计量	-10.5421
全体会议	-10.5422
ga	-10.5423
牛奶	-10.5432
猜	-10.5438
负责人	-10.544
坚决	-10.544
癌症	-10.5441
农村地区	-10.5444
委员会建议	-10.5445
器的	-10.5445
谈论	-10.5449
沿海	-10.545
热带	-10.5453
信息和	-10.5454
民事	-10.546
催化剂	-10.546
委员	-10.5461
确定了	-10.5466
餐厅	-10.5466
工作计划	-10.5469
是很	-10.5469
美丽的	-10.547
胎	-10.5471
以促进	-10.5474
担忧	-10.5475
紧密	-10.5476
留在	-10.5476
刘	-10.5477
字符	-10.5482
应该是	-10.5482
新鲜	-10.5484
是中国	-10.5485
剥夺	-10.5487
一直是	-10.5492
更高	-10.5492
茎	-10.5496
绝缘	-10.5497
进化	-10.5497
生物多样性	-10.5498
对外	-10.5498
该项	-10.55
杀害	-10.55
伟大的	-10.55
所谓	-10.5502
培训和	-10.5502
使他	-10.5503
会议的	-10.5504
迁移	-10.5504
副主席	-10.5505
你在	-10.5506
电阻	-10.5513
迄今	-10.5514
牵	-10.5517
很多人	-10.5517
资源的	-10.5526
巴勒斯坦人	-10.5534
因特网	-10.5534
的条件	-10.5535
普及	-10.5538
不应该	-10.5539
▁这位	-10.5539
孕	-10.5541
在纽约	-10.5541
发动	-10.5547
碰	-10.5549
邻国	-10.5551
提供服务	-10.5552
腾	-10.5553
▁经	-10.5554
项下	-10.5556
当作	-10.5558
试验研究	-10.5558
一类	-10.5562
给我们	-10.5565
金额	-10.5568
虽	-10.5571
屈	-10.5571
ct	-10.5571
相关性	-10.5575
探测	-10.5577
我国代表团	-10.5578
5)	-10.558
si	-10.5581
己	-10.5585
尺	-10.5587
润	-10.5587
和他的	-10.5589
暂	-10.559
兽	-10.5592
知识产权	-10.5592
舒适	-10.5595
▁2007	-10.5599
▁这就是	-10.56
同学	-10.5602
没有什么	-10.5602
兴趣	-10.5606
可用于	-10.561
挺	-10.561
啤酒	-10.5611
纪录	-10.5611
所载的	-10.5617
验	-10.5618
不知	-10.5622
唯一的	-10.5625
涌	-10.5626
制造商	-10.5627
初级	-10.5627
那就是	-10.5629
藻	-10.5629
一定要	-10.5629
▁42.	-10.5632
靠近	-10.5635
政府的	-10.5645
人们对	-10.5646
摸	-10.5648
比利时	-10.5649
披露	-10.5649
引渡	-10.5649
提供支助	-10.565
的高	-10.565
机遇	-10.5653
通常是	-10.5657
探讨了	-10.566
ID	-10.5662
完整的	-10.5662
项目厅	-10.5664
上周	-10.5665
78	-10.5666
琴	-10.5667
吓	-10.5668
的审议	-10.5668
迄今为止	-10.5668
96	-10.5671
解除	-10.5675
脏	-10.5675
头发	-10.568
乐观	-10.5682
蒸汽	-10.5687
坎	-10.5687
柬埔寨	-10.5687
宣称	-10.569
何种	-10.5691
ov	-10.5692
98	-10.5693
先进	-10.5699
的日子	-10.5701
怕	-10.5703
文件中	-10.5705
杰克	-10.5705
▁二	-10.5706
促	-10.5707
高级专员	-10.5708
芯片	-10.571
木材	-10.5714
输送	-10.5717
▁没有	-10.5719
祖	-10.572
毫不	-10.5723
的土地	-10.5731
/3	-10.5733
想知道	-10.5735
-5	-10.5737
援	-10.574
器官	-10.5742
炸	-10.5743
pa	-10.5743
监	-10.5745
坑	-10.5746
防护	-10.575
所需资源	-10.5753
提前	-10.5754
疗法	-10.5755
收到了	-10.5759
拖延	-10.5762
会被	-10.5763
酷	-10.5764
困境	-10.5766
监视	-10.5766
分歧	-10.5767
推行	-10.5768
主义者	-10.5772
和经济	-10.5775
州的	-10.5777
界面	-10.5778
彩色	-10.578
不愿	-10.5781
丢	-10.5783
仁	-10.5784
饥饿	-10.5785
习	-10.5786
参与者	-10.5788
一颗	-10.5789
社会保障	-10.5791
找出	-10.5791
▁除	-10.5792
汤姆	-10.5794
摘	-10.5795
价值观	-10.5797
干涉	-10.5798
标题	-10.5798
性暴力	-10.5799
准备好	-10.58
著名的	-10.5801
一致性	-10.5802
启	-10.5803
技术的	-10.5803
共同体	-10.5803
维尔	-10.5806
释	-10.5808
这座	-10.5809
邻	-10.5811
和非政府组织	-10.5813
缩小	-10.5814
溶液	-10.5817
的案件	-10.582
信息系统	-10.5821
养恤金	-10.5824
阿拉伯叙利亚共和国	-10.5824
授予	-10.5824
继续努力	-10.5824
的例子	-10.5825
说他	-10.5829
百万	-10.5834
之时	-10.5835
ke	-10.5837
迫使	-10.5841
的威胁	-10.5843
的决议	-10.5843
咬	-10.5843
矩阵	-10.5844
马克	-10.5845
▁41.	-10.5845
抵达	-10.5846
实现千年发展目标	-10.5847
▁2006	-10.5848
次级方案	-10.5852
颈	-10.5854
失踪	-10.5858
闲	-10.586
洲	-10.5861
膏	-10.5861
su	-10.5862
心里	-10.5863
播放	-10.5865
气象	-10.5865
▁他还	-10.5866
精力	-10.5867
幸	-10.5881
各区域	-10.5882
膨胀	-10.5883
事务部	-10.5883
还应	-10.5885
诸	-10.5886
的性质	-10.5888
的理论	-10.5889
过的	-10.5891
和环境	-10.5894
开了	-10.5897
植	-10.5897
消化	-10.59
阐明	-10.5903
88	-10.5903
大学的	-10.5904
谷歌	-10.5904
经常预算	-10.5904
了许多	-10.5907
会员	-10.5907
韩	-10.5909
的许多	-10.5911
明年	-10.5911
较低	-10.5914
的角度	-10.5922
碗	-10.5922
综述	-10.5923
乡村	-10.5932
ell	-10.5933
在所有	-10.5934
穷	-10.5934
负荷	-10.5935
才会	-10.5935
无限	-10.5936
北方	-10.5937
积极参与	-10.5941
变动	-10.5942
斯里兰卡	-10.5942
它在	-10.5943
愉快	-10.5943
▁39.	-10.5943
女子	-10.5945
会使	-10.5945
在我们	-10.5946
▁他在	-10.5946
一面	-10.5947
过滤	-10.595
批准了	-10.5951
孟加拉国	-10.5951
接下来	-10.5951
规划和	-10.596
影响力	-10.5962
耦合	-10.5964
多年来	-10.5965
74	-10.5965
社会主义	-10.5969
织	-10.597
晶体	-10.5972
析	-10.5973
73	-10.5975
PC	-10.5977
做出了	-10.5978
认知	-10.598
柯	-10.5982
弦	-10.5982
的投资	-10.5986
素质	-10.5986
▁全	-10.5992
式的	-10.5993
体重	-10.5994
无人	-10.5997
美丽	-10.5997
涉	-10.5997
坚定	-10.6007
对付	-10.6008
了他的	-10.6009
的立法	-10.6011
为基础的	-10.6011
为你	-10.6013
十八	-10.6013
也要	-10.6014
委员会成员	-10.6017
祝贺	-10.6022
但这	-10.6022
对我	-10.6022
体的	-10.6023
▁第一	-10.6023
向委员会	-10.6024
▁无论	-10.6029
▁只要	-10.603
在他的	-10.6033
封闭	-10.6033
的有关	-10.6036
巡逻	-10.6042
有一	-10.6043
保护和	-10.6046
要么	-10.6049
手中	-10.605
涉及到	-10.6051
发酵	-10.6056
般的	-10.6057
者和	-10.6058
经济和社会	-10.606
本来	-10.6062
卖淫	-10.6062
遭遇	-10.6063
将军	-10.6069
握	-10.6072
这一切	-10.6075
两位	-10.6076
作战	-10.6077
币	-10.6077
一代	-10.6079
权威	-10.6079
仓	-10.6081
股市	-10.6082
威廉	-10.6083
据说	-10.6086
你是	-10.6088
我知道	-10.6089
蚀	-10.6089
重点是	-10.6094
概述	-10.6094
细则	-10.6097
审评	-10.6099
中的作用	-10.6099
小麦	-10.6101
识	-10.6101
大概	-10.6102
招聘	-10.6103
救援	-10.6103
纠正	-10.6104
多么	-10.6105
试验方法	-10.6108
主席团	-10.6112
受欢迎	-10.6113
注意力	-10.6114
盟	-10.6117
加沙	-10.6118
迎	-10.6119
直至	-10.6119
▁一位	-10.6119
生意	-10.6126
不存在	-10.6126
负载	-10.6127
谈话	-10.6127
89	-10.6128
废水	-10.6129
几种	-10.6129
材料的	-10.613
体积	-10.6133
在整个	-10.6134
org	-10.6138
定量	-10.6138
缔结	-10.6143
新闻部	-10.6143
也可	-10.6145
劳工组织	-10.6146
下一	-10.6147
向前	-10.6149
传送	-10.6151
是非常	-10.6153
肿	-10.6153
笼	-10.6163
啦	-10.6163
按钮	-10.6164
填补	-10.6164
我们要	-10.6165
把我	-10.6168
更容易	-10.6169
中文	-10.617
艺术家	-10.6172
(2)	-10.6173
而在	-10.6175
次数	-10.6175
什么时候	-10.6176
月至	-10.6177
展现	-10.6177
学科	-10.6177
▁2005	-10.6178
挖	-10.6183
加剧	-10.6184
协同	-10.6186
第七	-10.6187
标准的	-10.6187
两项	-10.6193
动机	-10.6194
微生物	-10.6195
说明了	-10.6196
后勤	-10.6196
自杀	-10.6198
即可	-10.6199
感兴趣	-10.6199
的身体	-10.6199
牺牲	-10.6204
忽略	-10.6204
绑架	-10.6204
不妨	-10.6205
洪	-10.6209
86	-10.6209
泪	-10.6211
倾向	-10.6212
枚	-10.6217
the	-10.6217
临时议程	-10.6219
研究人员	-10.6221
炭	-10.6223
4)	-10.6225
是一位	-10.6225
真相	-10.6229
荧光	-10.6231
罗斯	-10.6234
的人员	-10.6237
手指	-10.6241
石头	-10.6242
丛	-10.6243
艇	-10.6244
设在	-10.6248
激	-10.6252
裁定	-10.6254
▁2008	-10.6255
理性	-10.626
的增长	-10.6261
株	-10.6261
我说	-10.6264
签署了	-10.6265
接受了	-10.6265
局面	-10.6267
的人数	-10.6268
他对	-10.6273
开幕	-10.6273
是否有	-10.6273
和保护	-10.6278
时间表	-10.6279
模具	-10.628
骗	-10.6285
撤销	-10.6286
我们需要	-10.6288
废除	-10.6292
▁缔约国	-10.6292
新技术	-10.6293
到来	-10.6293
查看	-10.6293
传动	-10.6294
的眼睛	-10.6295
各地	-10.6295
速率	-10.6297
sr	-10.63
国际会议	-10.6301
电极	-10.6303
么	-10.6303
背后	-10.6303
中国人	-10.6304
鸣	-10.6306
侵略	-10.6307
人民币	-10.6309
灵活性	-10.631
幸运	-10.631
听说	-10.6315
易于	-10.6318
一开始	-10.6323
塞尔维亚	-10.6327
对他们	-10.6328
▁43.	-10.6329
个别	-10.6329
遇	-10.6333
成效	-10.6336
损坏	-10.6337
关税	-10.6338
的因素	-10.6339
成像	-10.6339
形成了	-10.6342
水中	-10.6344
的状况	-10.6344
暗示	-10.6349
布朗	-10.6353
厨房	-10.6354
成形	-10.6354
巴勒斯坦人民	-10.6361
一个小	-10.6365
威尔	-10.6367
的说法	-10.6368
侵犯人权	-10.6369
消极	-10.6373
妇女和儿童	-10.6373
的最后	-10.6376
改为	-10.6377
pr	-10.6384
孤	-10.6387
仙	-10.6389
伊朗伊斯兰共和国	-10.6389
亚美尼亚	-10.6389
罪犯	-10.6389
献	-10.639
练	-10.639
的爱	-10.6392
增多	-10.6393
弯曲	-10.6394
的人们	-10.6394
▁马	-10.6397
才是	-10.64
微型	-10.6402
em	-10.6403
椅	-10.6405
的主题	-10.6407
市场上	-10.641
放射性	-10.6412
吸附	-10.6412
叶片	-10.6412
的进展	-10.6414
自然灾害	-10.6418
120	-10.642
▁在这个	-10.6425
炸弹	-10.6427
金钱	-10.643
问责制	-10.6431
销毁	-10.6432
布拉	-10.6432
写作	-10.6433
必需	-10.6437
和区域	-10.644
另一种	-10.6441
是谁	-10.6443
交互	-10.6443
将被	-10.6447
▁当我	-10.6448
空调	-10.6449
汇报	-10.6449
设有	-10.645
监察	-10.6451
一些人	-10.6452
排斥	-10.6452
制度的	-10.6455
立刻	-10.6456
社交	-10.6457
um	-10.646
也就是	-10.6461
透过	-10.6462
》、《	-10.6462
进了	-10.6464
高等教育	-10.6465
伪	-10.6467
还能	-10.6468
入侵	-10.6469
古代	-10.6469
76	-10.6471
那天	-10.6475
前后	-10.6475
集中在	-10.6475
的反应	-10.648
籍	-10.6481
在执行	-10.6481
划分	-10.6484
每个人	-10.6485
有用	-10.649
很重要	-10.6493
陶	-10.6493
裁谈会	-10.6493
麻醉	-10.6494
村庄	-10.6495
正在进行	-10.6497
出血	-10.6498
▁每个	-10.6498
所说的	-10.6498
暴露	-10.6501
功率	-10.6504
年初	-10.6505
重要的是	-10.651
补救	-10.651
以上的	-10.6511
ap	-10.6512
爱的	-10.6514
主要的	-10.6517
性别问题	-10.6519
将有助于	-10.6522
提到的	-10.6527
它将	-10.6529
得很	-10.6532
葡萄酒	-10.6534
太太	-10.6535
削弱	-10.6536
▁45.	-10.6538
旁边	-10.654
特别会议	-10.6541
屏幕	-10.6545
97	-10.655
转化	-10.6555
▁48.	-10.6559
加州	-10.656
87	-10.6564
找到了	-10.6564
迁	-10.6565
的全面	-10.6566
疗	-10.6568
30%	-10.6568
报告的	-10.6569
一体	-10.657
整理	-10.6576
钾	-10.6578
的管理	-10.6579
▁46.	-10.6579
家伙	-10.658
抵	-10.658
发表的	-10.6581
够	-10.6582
他认为	-10.6584
骨折	-10.6585
届会议上	-10.6589
▁可是	-10.6589
的两个	-10.6594
的工具	-10.6595
IS	-10.6597
妈	-10.6598
更换	-10.66
篮	-10.66
的成功	-10.6602
底部	-10.6606
等问题	-10.661
是你	-10.6611
仅仅是	-10.6613
注入	-10.6613
采取的措施	-10.6614
努	-10.6614
忠	-10.6614
的压力	-10.6616
无关	-10.6619
第二天	-10.6621
袖	-10.6623
的证据	-10.6624
海盗	-10.6625
模板	-10.6626
单方面	-10.663
有益	-10.6631
所得	-10.6638
勇	-10.6638
字母	-10.6639
劲	-10.6639
的平均	-10.664
我将	-10.6641
拯救	-10.6641
盲	-10.6642
高中	-10.6643
仍有	-10.6644
也不能	-10.665
的知识	-10.6654
面临着	-10.6654
专门知识	-10.6656
筛选	-10.6657
ie	-10.6661
作为一种	-10.6662
在本报告所述期间	-10.6663
恐怖分子	-10.6665
照料	-10.6668
进行分析	-10.6669
遣返	-10.6671
处置	-10.6672
不仅仅是	-10.6672
人力	-10.6674
住了	-10.6677
和促进	-10.6681
扶	-10.6683
刮	-10.6684
成功地	-10.6685
神秘	-10.6686
知名	-10.6688
▁如今	-10.6689
判	-10.669
是要	-10.6693
物资	-10.6694
说服	-10.6696
的程度	-10.6698
犯下	-10.6699
哪里	-10.6699
气氛	-10.67
建模	-10.67
强大	-10.6701
的未来	-10.6701
的业务	-10.6701
大韩民国	-10.6705
彼得	-10.6708
国内外	-10.6711
分开	-10.6716
可以使用	-10.6719
想起	-10.6721
不幸	-10.6722
意图	-10.6726
国集团	-10.6726
溢	-10.6727
规章	-10.6728
睡觉	-10.6728
发电机	-10.6729
时间内	-10.673
延伸	-10.6732
了一项	-10.6734
的总	-10.6736
水资源	-10.6736
从来没有	-10.6737
辩护	-10.6738
自信	-10.6743
的现象	-10.6746
微波	-10.6747
和国家	-10.6747
钩	-10.6748
恨	-10.6748
数据的	-10.6748
辉	-10.6748
危地马拉	-10.6748
场景	-10.6753
盆地	-10.6755
不利影响	-10.6755
的事实	-10.6759
▁我要	-10.6759
衰	-10.6764
的道路	-10.6765
的人权	-10.6768
DNA	-10.677
900	-10.6771
少年	-10.6772
支柱	-10.6773
用以	-10.6774
捐助方	-10.6777
微软	-10.6778
典型的	-10.6779
今晚	-10.6783
成人	-10.6788
在这一	-10.6789
官方发展援助	-10.6792
遍	-10.6794
▁40.	-10.6796
修建	-10.6796
疟疾	-10.6798
出的	-10.68
mar	-10.6802
统计数据	-10.6802
宿	-10.6804
权限	-10.6807
在同一	-10.6807
游泳	-10.6813
习俗	-10.6814
戏剧	-10.6814
▁47.	-10.6815
的表现	-10.6815
隐藏	-10.6815
西亚	-10.6823
提供了一个	-10.6826
体外	-10.6829
味道	-10.6832
广大	-10.6832
透露	-10.6833
后续行动	-10.6834
吐	-10.6835
85	-10.6838
年轻的	-10.6839
▁大多数	-10.684
▁2011	-10.6843
很高	-10.6845
本周	-10.6846
沃尔	-10.6848
的文化	-10.6849
战略计划	-10.685
对我们	-10.6855
世贸组织	-10.6857
昏	-10.6857
储蓄	-10.6857
的消息	-10.6858
▁44.	-10.6859
切割	-10.6859
的综合	-10.6859
中最	-10.686
国的	-10.6861
创业	-10.6861
天线	-10.6862
预警	-10.6865
管理层	-10.6866
广场	-10.6867
不锈钢	-10.6869
▁以色列	-10.687
梯	-10.687
话题	-10.6872
这对	-10.6874
而且还	-10.6875
提供一个	-10.6877
研究报告	-10.6877
安哥拉	-10.6878
抵抗	-10.688
言论	-10.688
这项工作	-10.6882
有力	-10.6886
放置	-10.6887
违反了	-10.6888
1/	-10.689
年间	-10.689
散发	-10.689
看到了	-10.6891
导航	-10.6894
却是	-10.6895
元件	-10.6898
枯	-10.69
琳	-10.69
慈善	-10.6901
疲劳	-10.6901
突尼斯	-10.6901
和加强	-10.6902
顾	-10.6903
吸烟	-10.6903
但是我	-10.6906
余额	-10.6911
而被	-10.6914
自行车	-10.6914
你们的	-10.6919
的趋势	-10.6919
而成	-10.692
▁相反	-10.6921
蜂	-10.6922
问责	-10.6924
较小	-10.6924
代谢	-10.6925
和文化	-10.6928
中国政府	-10.6928
▁我认为	-10.6929
的信	-10.6929
关系的	-10.6931
该方法	-10.6933
牢	-10.6935
氨	-10.6941
几何	-10.6942
珍	-10.6943
墓	-10.6944
额外的	-10.6945
也可能	-10.6945
仿佛	-10.6947
CA	-10.695
街道	-10.6956
这些人	-10.6961
也门	-10.6966
钛	-10.6966
示范	-10.6966
十七	-10.6968
解析	-10.6969
标准化	-10.6972
性格	-10.6972
不符合	-10.6973
bi	-10.6978
便宜	-10.698
愈	-10.6985
▁2009	-10.6986
扑	-10.6988
当事人	-10.6988
船只	-10.6989
▁其他	-10.699
第二十	-10.6993
人民的	-10.6994
汽油	-10.6994
的意义	-10.6998
缺点	-10.7001
79	-10.7006
这件事	-10.7006
教练	-10.7009
健康的	-10.701
核武器国家	-10.7012
的手	-10.7014
的传统	-10.7015
交给	-10.7024
不满	-10.7025
有限的	-10.7025
不愿意	-10.7027
还包括	-10.7027
皇家	-10.7028
弃	-10.7029
就有	-10.7031
喉	-10.7032
铃	-10.7032
兆	-10.7032
十九	-10.7036
容量	-10.7036
ent	-10.7039
对称	-10.7046
的联系	-10.7047
圣经	-10.705
苏联	-10.7054
佐	-10.7054
积累	-10.7056
一台	-10.7057
一架	-10.7059
大学生	-10.706
和分析	-10.706
(1	-10.706
的预算	-10.7067
标识	-10.7068
教训	-10.707
部落	-10.707
走出	-10.7072
容忍	-10.7073
经历了	-10.7073
演变	-10.7073
份额	-10.7074
侵害	-10.7075
鸭	-10.7077
拉丁美洲	-10.7077
像是	-10.7079
聚合物	-10.708
电气	-10.7082
届会	-10.7083
程度上	-10.7083
在国家一级	-10.7084
断裂	-10.7085
但却	-10.7087
处理器	-10.7093
国际标准	-10.7093
纺	-10.7094
分摊	-10.7094
小岛屿发展中国家	-10.7099
▁主要	-10.7101
内在	-10.7102
温暖	-10.7102
ec	-10.7102
是根据	-10.7105
地板	-10.7108
ry	-10.711
本质	-10.7114
送到	-10.7118
收费	-10.7118
锋	-10.7119
无效	-10.7119
的条款	-10.7121
哈萨克斯坦	-10.7121
镁	-10.7121
有义务	-10.7121
1)	-10.7126
冻结	-10.7126
很高兴	-10.7131
83	-10.7131
环节	-10.7138
者们	-10.7139
分析和	-10.714
客人	-10.7141
伞	-10.7144
突破	-10.7145
了很多	-10.7146
途	-10.7151
自行	-10.7152
和协调	-10.7152
床上	-10.7152
获得通过	-10.7153
2)	-10.7154
对应	-10.7155
一把	-10.7158
当我	-10.7159
入口	-10.7164
所产生的	-10.7164
厄瓜多尔	-10.7166
促成	-10.7167
结束后	-10.7168
包容性	-10.7169
掉了	-10.717
二次	-10.717
主流	-10.717
论述	-10.717
热量	-10.7178
中等	-10.7179
▁经过	-10.7179
臭	-10.7181
每日	-10.7185
联合国机构	-10.7188
畅	-10.7188
劝	-10.7189
纪律	-10.7189
沙特阿拉伯	-10.7189
更多地	-10.7189
爵士	-10.7194
中断	-10.7197
订单	-10.7197
平静	-10.7198
:&	-10.7208
所有权	-10.7208
作出决定	-10.7209
提供资金	-10.7211
的参与	-10.7211
改性	-10.7211
紧迫	-10.7212
视察	-10.7212
指责	-10.7213
钥匙	-10.7213
贸	-10.7214
是一家	-10.7229
泄	-10.7229
op	-10.723
圣诞	-10.7231
发达	-10.7232
学位	-10.7233
巧克力	-10.7234
维生素	-10.7234
同性恋	-10.7234
席位	-10.7237
涂料	-10.7237
反复	-10.7244
都将	-10.725
发电	-10.7251
的心	-10.7251
戒	-10.7254
贩卖	-10.7255
赌	-10.7255
阔	-10.7256
蜡	-10.7256
疯狂	-10.7257
▁54.	-10.7258
霉素	-10.7258
所需经费	-10.7258
之所以	-10.7259
无需	-10.7262
漫	-10.7262
漂亮	-10.7263
所需要的	-10.7263
和政策	-10.7263
失去了	-10.7264
低温	-10.727
演出	-10.7271
提出的建议	-10.7273
的发言	-10.7274
地方政府	-10.7275
默认	-10.7276
提交给	-10.7276
烦	-10.7276
氨酸	-10.7279
裁军谈判会议	-10.7279
铬	-10.7279
除其他外	-10.7279
一层	-10.7279
能力和	-10.728
▁52.	-10.7281
尸体	-10.7283
干净	-10.7284
▁它还	-10.7286
帝国	-10.7287
坝	-10.7288
son	-10.729
况	-10.729
这张	-10.7292
经济学	-10.7294
确切	-10.7294
列为	-10.7294
的食物	-10.7295
取得进展	-10.7296
有两个	-10.7297
过程的	-10.7298
始	-10.7298
儿童权利公约	-10.7307
眼镜	-10.7308
的全部	-10.7312
更高的	-10.7312
之一是	-10.7313
我们就	-10.7314
正规	-10.7316
其在	-10.7317
十分重要	-10.7317
他就	-10.732
辊	-10.7324
淀粉	-10.7325
协调一致	-10.7325
▁49.	-10.7326
该系统	-10.7326
敢	-10.733
ia	-10.7332
增长率	-10.7334
得不到	-10.7334
.8	-10.734
▁在此	-10.7341
一切都	-10.7343
消防	-10.7345
全球经济	-10.7347
惊讶	-10.7347
近东救济工程处	-10.7347
克罗地亚	-10.7347
▁51.	-10.735
使人	-10.7352
以便在	-10.7355
语音	-10.7355
我们会	-10.7356
度过	-10.7357
神圣	-10.7359
▁别	-10.7366
同等	-10.7369
磷酸	-10.7369
匹	-10.7369
醉	-10.7369
在国家	-10.737
锻炼	-10.737
相结合	-10.737
公寓	-10.7371
忘	-10.7375
夏季	-10.7377
危	-10.7377
副秘书长	-10.7378
上有	-10.738
第三十	-10.7381
甲基	-10.7383
挥	-10.7383
的教育	-10.7383
课题	-10.7383
知情	-10.7389
mp	-10.7389
安置	-10.7389
签名	-10.7392
ko	-10.7393
大西洋	-10.7393
我很	-10.7393
提出建议	-10.7395
跨国	-10.7396
任何其他	-10.7402
年后	-10.7405
ki	-10.7407
是不是	-10.741
会晤	-10.7415
扁	-10.7416
5/	-10.7417
灰色	-10.7417
为例	-10.7417
毒性	-10.7418
发表了	-10.7418
致命	-10.7421
动员	-10.7423
股东	-10.7424
大力	-10.7424
有一种	-10.7426
▁我希望	-10.7426
民间社会组织	-10.7429
各自的	-10.7429
可靠的	-10.743
下文	-10.743
开设	-10.743
能力的	-10.743
的思想	-10.7433
▁文章	-10.7433
将这些	-10.7434
▁有人	-10.7435
终端	-10.7436
溪	-10.7439
高质量	-10.744
冒险	-10.744
国家安全	-10.7442
捷	-10.7443
的人口	-10.7444
领先	-10.7445
证明了	-10.7452
脸上	-10.7455
增大	-10.7456
词汇	-10.746
叉	-10.7461
等于	-10.7462
姑娘	-10.7462
波斯尼亚和黑塞哥维那	-10.7462
一会儿	-10.7462
帝	-10.7466
强有力的	-10.7471
危险的	-10.7471
ya	-10.7471
的角色	-10.7471
满了	-10.7477
察	-10.7479
星期五	-10.748
受到了	-10.7481
剥削	-10.7482
矮	-10.7485
毫无疑问	-10.7486
所作	-10.7486
该决议	-10.7487
卡拉	-10.7487
裁	-10.7488
▁50.	-10.7489
硫酸	-10.7489
保密	-10.7489
缩短	-10.7489
你想	-10.749
东方	-10.7491
第八	-10.7491
溶剂	-10.7494
阶层	-10.7494
居住在	-10.7495
的脸	-10.7495
▁本报告	-10.7498
以及对	-10.7498
他会	-10.7504
将由	-10.7507
可以用	-10.7508
相互作用	-10.7508
奖励	-10.7509
勘探	-10.7509
夫妇	-10.7512
颗	-10.7516
选定	-10.752
仅有	-10.752
的全球	-10.7523
食用	-10.7525
节能	-10.7531
一贯	-10.7537
索引	-10.754
两人	-10.7552
之上	-10.7552
揭示	-10.7556
电子商务	-10.7559
离婚	-10.7559
可行	-10.7559
保安	-10.756
▁会议	-10.7568
到处	-10.7568
稻	-10.7569
和其它	-10.7571
▁这次	-10.7572
已经开始	-10.7575
疗效	-10.7576
日志	-10.7577
▁那些	-10.7578
变成了	-10.7583
进来	-10.7584
走到	-10.7586
代表性	-10.7589
引进	-10.7591
营地	-10.7594
收缩	-10.7594
织物	-10.7594
冲突后	-10.7599
领取	-10.76
防御	-10.7602
遗产	-10.7603
支援	-10.7603
配备	-10.7606
博客	-10.7607
空缺	-10.7614
观看	-10.7615
MS	-10.7619
置于	-10.7619
映	-10.762
go	-10.7621
当前的	-10.7622
三分之一	-10.7625
长大	-10.7625
舞蹈	-10.7625
灵魂	-10.7626
中使用	-10.7631
就必须	-10.7633
安全的	-10.7639
都很	-10.7642
瓣	-10.7643
秘书	-10.7644
有多	-10.7645
占据	-10.7647
大规模毁灭性武器	-10.7649
恤	-10.7649
索赔人	-10.765
沙漠	-10.765
apos	-10.765
讲述	-10.7653
举办的	-10.7655
毒素	-10.7655
附属机构	-10.7657
酒吧	-10.7658
客户端	-10.7658
不确定	-10.7667
是如此	-10.7668
新兴	-10.7668
拱	-10.7672
高校	-10.7676
和相关	-10.7676
在未来	-10.7676
进行了研究	-10.7677
而已	-10.7677
95	-10.7677
当今	-10.7677
潜在的	-10.7679
河流	-10.7679
打印	-10.7683
实力	-10.7683
CO	-10.7684
天堂	-10.7689
SP	-10.7689
将要	-10.7689
死了	-10.7689
84	-10.769
信用	-10.7691
铀	-10.7696
二氧化碳	-10.7696
欣赏	-10.7696
多样化	-10.7696
AR	-10.7697
犹太人	-10.7698
意志	-10.77
一篇	-10.77
抗体	-10.7701
广州	-10.7701
个小时	-10.7702
谢谢	-10.7702
零件	-10.7703
有用的	-10.771
喜爱	-10.7711
瘦	-10.772
概算	-10.7722
短缺	-10.7723
法律规定	-10.7724
白宫	-10.7725
十一	-10.7727
谋杀	-10.7728
斯坦	-10.7728
审查了	-10.7729
的初步	-10.773
只有在	-10.7731
聚合	-10.7732
共和党	-10.7733
一词	-10.7734
的必要性	-10.774
40%	-10.7741
宏	-10.7743
拉丁美洲和加勒比	-10.7744
莲	-10.7744
罗马尼亚	-10.7744
提高妇女地位	-10.7745
▁由	-10.7745
侧重于	-10.7748
哪个	-10.775
烈	-10.7753
外勤	-10.7754
有趣的	-10.7755
so	-10.7755
该国政府	-10.7757
情形	-10.7758
已经成为	-10.7759
决策者	-10.7761
一人	-10.7761
第五委员会	-10.7762
衰退	-10.7763
蓄	-10.7765
的身份	-10.7766
挖掘	-10.7768
渡	-10.7769
参照	-10.777
在内	-10.7771
进攻	-10.7771
勇气	-10.7771
对照	-10.7775
的答复	-10.7776
远离	-10.7777
转型	-10.7785
ig	-10.7786
点击	-10.7786
的城市	-10.7792
ut	-10.7794
伍	-10.7797
签证	-10.7798
景观	-10.7799
粮食安全	-10.7799
仍是	-10.7802
过多	-10.7805
加纳	-10.7806
里克	-10.7808
兔	-10.7808
欣	-10.7812
我已经	-10.7812
行政当局	-10.7813
蔓延	-10.7815
这就	-10.7818
还原	-10.782
▁自从	-10.7824
环境下	-10.7825
这只	-10.7825
va	-10.7825
▁一般	-10.7826
已经被	-10.7828
吸引力	-10.7828
高层	-10.7828
初始	-10.7832
坚	-10.7836
人权问题	-10.7838
救助	-10.7841
真诚	-10.7841
老鼠	-10.7845
占有	-10.7853
卡车	-10.7853
的谈判	-10.7854
以外的	-10.7858
可持续的	-10.786
火焰	-10.7867
缴	-10.7868
头脑	-10.787
样本	-10.7874
外科	-10.7877
一个国家	-10.7877
提供支持	-10.7878
金融机构	-10.7879
强调指出	-10.7882
都必须	-10.7884
如果没有	-10.7885
印发	-10.7886
筋	-10.7886
奔	-10.7886
慢慢	-10.789
可信	-10.7894
吻	-10.7896
国际公约	-10.7908
逼	-10.791
是有	-10.7911
呀	-10.7911
▁我们认为	-10.7912
▁本发明	-10.7913
岗位	-10.7914
采取的行动	-10.7916
网站上	-10.7917
在大会	-10.7919
预先	-10.7921
之际	-10.7922
▁秘书长	-10.7925
被捕	-10.7926
的长期	-10.7927
和程序	-10.7928
人权和	-10.7934
犹太	-10.7935
可以看到	-10.7935
现已	-10.7937
行事	-10.7938
乘客	-10.7939
▁至于	-10.7941
的财政	-10.7943
一款	-10.7944
all	-10.7945
停火	-10.7945
要点	-10.7945
怎么样	-10.7947
别的	-10.7951
六个	-10.7956
的多	-10.7957
多元	-10.7959
结束时	-10.796
锚	-10.796
最早	-10.796
In	-10.796
分泌	-10.7961
只会	-10.7965
ru	-10.7968
的某些	-10.7968
星期一	-10.7972
去看	-10.7973
主机	-10.7976
上学	-10.7979
采取的	-10.7979
5000	-10.7981
/58/	-10.7982
鲍	-10.7984
凶	-10.7984
赤字	-10.7986
的限制	-10.7987
含义	-10.7987
召开的	-10.7987
科学和技术	-10.7989
▁我在	-10.7995
的比赛	-10.7995
的使用	-10.7999
保健服务	-10.8
焦点	-10.8002
月底	-10.8002
赤	-10.8004
的指控	-10.8004
92	-10.8005
该法	-10.8005
雌	-10.8008
南南合作	-10.8009
此前	-10.801
▁2010	-10.8013
地带	-10.8014
技术在	-10.8014
稳定的	-10.8016
调制	-10.8018
将成为	-10.8022
和一个	-10.8027
饱和	-10.8027
▁罗	-10.8027
政府官员	-10.8029
的钱	-10.8029
卧	-10.8031
直径	-10.8035
新生	-10.8039
运转	-10.8039
日举行	-10.8041
3)	-10.8043
的组织	-10.8048
京	-10.8051
不变	-10.8051
来自于	-10.8052
ex	-10.8054
配偶	-10.806
一对	-10.8061
变更	-10.8061
的地区	-10.8063
并将其	-10.8064
重要作用	-10.8065
杀死	-10.8068
安静	-10.8069
西岸	-10.8069
gu	-10.807
外交部	-10.807
提供关于	-10.8071
物流	-10.8072
护士	-10.8074
▁超	-10.8076
▁这是一个	-10.8076
▁另一方面	-10.8077
自从	-10.8078
糟	-10.8082
范畴	-10.8082
支架	-10.8089
打电话	-10.809
走进	-10.8092
那位	-10.8097
黑人	-10.8099
▁我的	-10.8101
的进程	-10.8103
婚礼	-10.8105
弥	-10.8106
这儿	-10.8106
寿	-10.8106
匈牙利	-10.8107
▁56.	-10.8108
封锁	-10.8109
便于	-10.8112
场合	-10.8113
几次	-10.8114
显示出	-10.8117
集合	-10.8118
其中一个	-10.8122
AT	-10.8124
聚会	-10.8126
使用者	-10.8127
大幅度	-10.813
肖	-10.8132
裸	-10.8132
映射	-10.8132
▁我知道	-10.8132
锅炉	-10.8133
集会	-10.8136
滞	-10.8138
改变了	-10.8139
倾向于	-10.8144
圆形	-10.8147
制动	-10.8149
经济学家	-10.8152
定为	-10.8152
役	-10.8153
桥梁	-10.8158
问题特别报告员	-10.816
生日	-10.8163
渐	-10.8165
的总体	-10.8166
懂	-10.817
贸易法委员会	-10.817
在日内瓦	-10.8171
大多	-10.8172
ow	-10.8178
乙烯	-10.818
屑	-10.8181
塞内加尔	-10.8181
友谊	-10.8181
亚太	-10.8183
80%	-10.8187
心肌	-10.8187
关押	-10.8188
委员会认为	-10.819
工作地点	-10.8194
她在	-10.8194
桌子	-10.8195
失业率	-10.8196
哦	-10.8197
受教育	-10.8198
洪水	-10.82
鹰	-10.8206
2010-2011	-10.8206
摧毁	-10.8206
见过	-10.8206
深深	-10.8206
/4	-10.8209
维持和平行动部	-10.8209
成型	-10.8212
酒精	-10.8215
返	-10.8216
绩效	-10.8217
照明	-10.8217
指定的	-10.8224
提交报告	-10.8224
促进发展	-10.8225
悲	-10.8228
跃	-10.8229
坛	-10.8229
抚	-10.823
搬	-10.823
海水	-10.8231
单个	-10.8231
卑	-10.8231
监护	-10.8232
召集	-10.8232
小姐	-10.8233
他将	-10.8234
中部	-10.8236
我相信	-10.8238
北约	-10.8238
ge	-10.8238
电视台	-10.8239
所规定的	-10.8241
信念	-10.8241
视图	-10.8242
都被	-10.8244
克隆	-10.8247
▁那个	-10.8251
另有	-10.8254
的研制	-10.8255
这家	-10.8256
电台	-10.8256
第三方	-10.8259
复苏	-10.8262
一根	-10.8262
论述了	-10.8263
▁后来	-10.8266
去除	-10.8269
何时	-10.8276
三十	-10.8277
充分的	-10.8277
病变	-10.8277
窃	-10.8281
吞	-10.8281
眉	-10.8281
晕	-10.8281
移交	-10.8283
国家一级	-10.8286
93	-10.8287
的健康	-10.8289
反映出	-10.829
此后	-10.8291
联邦政府	-10.8291
在国际	-10.8292
加强了	-10.8294
刚才	-10.83
病理	-10.8301
腐	-10.8303
霉	-10.8304
人居署	-10.8306
周一	-10.8307
岛屿	-10.8308
间隔	-10.8309
最新的	-10.8311
开心	-10.8315
真理	-10.8317
先进的	-10.8318
职等	-10.832
场比赛	-10.832
政府机构	-10.8321
晓	-10.8322
定罪	-10.8323
引起了	-10.8324
不如	-10.8325
一阵	-10.8327
试着	-10.8328
的罪行	-10.8329
招募	-10.8332
显示了	-10.8332
操纵	-10.8332
隧道	-10.8332
频繁	-10.8332
核定	-10.8333
航空公司	-10.8334
71	-10.8335
估算	-10.8336
运送	-10.8339
增加到	-10.8343
沉重	-10.8344
文化和	-10.8346
的方向	-10.8349
的手段	-10.8352
成年	-10.8352
目的地	-10.8354
进程中	-10.8355
的机构	-10.8355
委内瑞拉	-10.8357
薪酬	-10.8357
旅馆	-10.8357
违背	-10.8357
节约	-10.8357
替换	-10.8358
展望	-10.8359
数十	-10.8361
达到了	-10.8362
挑	-10.8365
▁通常	-10.8365
解除武装	-10.8366
假定	-10.8367
将对	-10.8368
以支持	-10.8369
多项	-10.8369
比赛中	-10.8378
国防	-10.8379
确信	-10.838
语法	-10.838
旱	-10.838
俩	-10.8382
毁灭	-10.8383
所能	-10.8383
订立	-10.8383
授	-10.8383
东京	-10.8383
监察员	-10.8384
年开始	-10.8387
的那	-10.8389
人身	-10.8394
达成的	-10.8397
流入	-10.8399
没收	-10.8401
蚊	-10.8407
亲爱的	-10.8409
fa	-10.8416
钢铁	-10.8417
并使	-10.8418
在过去的	-10.8419
厚度	-10.8421
舌	-10.8424
诸多	-10.8427
净化	-10.8427
耶路撒冷	-10.8431
陆地	-10.8432
皆	-10.8433
填充	-10.8433
拿出	-10.8435
民兵	-10.8436
的生产	-10.8441
活动中	-10.8442
为我们	-10.8443
好吗	-10.8445
▁2004	-10.8446
缔约方大会	-10.8446
典	-10.8448
对儿童	-10.8448
把自己	-10.8449
与合作	-10.845
过分	-10.845
/60/	-10.8451
下次	-10.8451
工作人员的	-10.8454
天使	-10.8455
监测和	-10.8458
疯	-10.8458
嗯	-10.8458
深圳	-10.8458
内罗毕	-10.8458
浇	-10.8458
卡塔尔	-10.8458
早晨	-10.8459
旅游业	-10.8459
的目标是	-10.8459
的空间	-10.8461
西非	-10.8462
忍	-10.8462
既然	-10.8463
零售	-10.8465
校园	-10.8466
即使是	-10.8466
的事件	-10.847
大豆	-10.847
提高认识	-10.8472
受体	-10.8473
采集	-10.8473
贷	-10.8474
水分	-10.8475
肢	-10.8476
的控制	-10.8479
济	-10.848
mu	-10.848
京都议定书	-10.8484
坠	-10.8484
赞助	-10.8484
震惊	-10.8485
派遣	-10.8485
的女性	-10.8486
和平与	-10.8487
人事	-10.849
不在	-10.8492
马拉	-10.8492
经验教训	-10.8494
附属	-10.8499
▁北京	-10.85
生命的	-10.8502
股份	-10.8503
汉语	-10.8507
阿拉	-10.8507
信通技术	-10.8509
的前	-10.8511
消灭	-10.8511
仓库	-10.8511
隙	-10.8513
▁过去	-10.8514
究竟	-10.8515
发展战略	-10.8515
国家和国际	-10.8521
单词	-10.8524
举行会议	-10.8528
筹	-10.853
氧化物	-10.8531
进行了分析	-10.8532
办理	-10.8532
名叫	-10.8533
糊	-10.8533
玻利维亚	-10.8535
号决议中	-10.8536
政府在	-10.8536
▁55.	-10.8537
可行的	-10.8537
委员会建议缔约国	-10.8538
以提高	-10.8538
尽力	-10.8538
时限	-10.8542
以加强	-10.8544
他们会	-10.8546
糟糕	-10.855
负有	-10.8551
星期三	-10.8553
ci	-10.8554
▁通过对	-10.8554
少量	-10.8555
埃尔	-10.8556
ill	-10.8557
海底	-10.8558
全球性	-10.8562
的书	-10.8563
ip	-10.8565
国际法院	-10.8568
编写的	-10.8573
世界上最	-10.8574
的援助	-10.8574
发出的	-10.858
至少有	-10.858
明智	-10.8583
宏观经济	-10.8584
山区	-10.8585
外国直接投资	-10.8587
巷	-10.8587
狭窄	-10.8587
焦虑	-10.8587
外交部长	-10.8587
不扩散	-10.8587
书籍	-10.8588
烟草	-10.8588
82	-10.8589
短暂	-10.8591
1988	-10.8591
的收入	-10.8594
央行	-10.8597
姓名	-10.8597
优良	-10.8598
的提议	-10.8599
开办	-10.8601
手工	-10.8602
扩	-10.8602
尼克	-10.8604
▁她说	-10.8605
成为了	-10.861
脊	-10.8612
01	-10.8613
平行	-10.8616
示例	-10.8618
但也	-10.8619
▁是的	-10.8621
fi	-10.8622
氯化	-10.8624
几十年	-10.8627
心中	-10.8627
报表	-10.8628
排名	-10.8628
培训班	-10.8636
▁那么	-10.8636
仇	-10.8638
www	-10.8639
本次	-10.8639
强劲	-10.8641
使用了	-10.8644
庞大	-10.8645
强烈的	-10.8646
激发	-10.8647
▁公司	-10.865
五十	-10.865
上下	-10.8651
风暴	-10.8652
的母亲	-10.8652
薪金	-10.8652
控制的	-10.8653
ag	-10.8655
ak	-10.8657
尔斯	-10.8658
优秀	-10.8661
无数	-10.8661
敦	-10.8663
不仅是	-10.8664
不清楚	-10.8664
吴	-10.8665
赐	-10.8665
苏格兰	-10.8665
直升机	-10.8665
宠物	-10.8666
家属	-10.8666
该计划	-10.8666
三角	-10.8667
我还	-10.8668
而来	-10.8671
研究中心	-10.8673
规格	-10.8676
亿美元的	-10.8677
国家机构	-10.8678
包容	-10.868
的作品	-10.8681
给他们	-10.8681
的受害者	-10.8683
进而	-10.8685
截止	-10.8692
我们对	-10.8692
空白	-10.8694
原油	-10.8694
临界	-10.8697
适宜	-10.8698
/57/	-10.8699
风景	-10.87
所以我	-10.8701
两天	-10.8703
发光	-10.8706
街头	-10.8707
浴	-10.8708
家园	-10.8709
阅	-10.8711
一笔	-10.8712
崩溃	-10.8717
设备的	-10.8718
成立了	-10.8719
该决议草案	-10.8722
转递	-10.8723
男女平等	-10.8724
选出	-10.8729
挑选	-10.8733
州市	-10.8736
在非洲	-10.8737
心情	-10.8739
社会和文化权利	-10.8741
拳	-10.8742
弹簧	-10.8743
避孕	-10.8743
以使	-10.8745
不大	-10.8746
对所有	-10.8748
将为	-10.8751
各机构	-10.8752
脚本	-10.8753
地域	-10.8756
一杯	-10.8757
周五	-10.8763
▁不管	-10.8764
企业家	-10.8764
▁假如	-10.8765
的水平	-10.8765
去世	-10.8767
涡	-10.8768
掩	-10.8768
喂	-10.8769
弥补	-10.877
线程	-10.8772
衡	-10.8773
阶级	-10.8773
东北	-10.8777
我们应该	-10.8777
回复	-10.8779
条草案	-10.8781
源于	-10.8782
1980	-10.8782
财政资源	-10.8784
各组织	-10.8784
进行调查	-10.8785
的职责	-10.8786
全系统	-10.8786
分区域	-10.8788
权益	-10.8789
结束了	-10.8795
窝	-10.8796
岭	-10.8796
积分	-10.8797
借助	-10.8798
非正式协商	-10.8798
▁其次	-10.8799
不像	-10.8802
一切形式	-10.8803
简直	-10.8804
星期二	-10.8805
250	-10.8806
邻居	-10.8808
的照片	-10.8808
横向	-10.8809
约有	-10.881
我能	-10.881
直线	-10.881
君	-10.8812
你自己	-10.8812
上次	-10.8816
.9	-10.8817
要比	-10.8818
这时	-10.8819
仰	-10.882
进去	-10.882
必要时	-10.882
逝	-10.8821
议事规则第	-10.8821
祸	-10.8822
雀	-10.8822
廷	-10.8822
契约	-10.8824
感觉到	-10.8825
/65/	-10.8826
方面发挥	-10.8828
受益	-10.8829
一间	-10.883
▁2003	-10.883
国有	-10.883
此事	-10.8832
一国	-10.8833
强制性	-10.8838
使命	-10.8841
▁四	-10.8842
6/	-10.8843
提出报告	-10.8847
的积极	-10.8848
区域和国际	-10.8848
严厉	-10.8849
组建	-10.8849
境内流离失所者	-10.8849
▁58.	-10.8851
诗歌	-10.8851
的名称	-10.8852
的父亲	-10.8853
健全	-10.8855
少女	-10.8855
及其对	-10.8857
问卷	-10.8858
的语言	-10.8858
的自由	-10.8858
的改革	-10.8861
po	-10.8861
生产力	-10.8864
有多少	-10.8865
涂层	-10.8866
这方面	-10.887
袭	-10.8871
的必要	-10.8872
将使	-10.8873
卫生部	-10.8874
工业化	-10.8874
瓷	-10.8875
应由	-10.8878
中亚	-10.8878
凝胶	-10.8878
▁按	-10.8878
歌曲	-10.8878
了吗	-10.8881
天主教	-10.8883
借鉴	-10.8883
接到	-10.8886
的权力	-10.8886
这也是	-10.8888
初期	-10.8891
并且在	-10.8892
他自己	-10.8893
粮	-10.8893
充足	-10.8893
但他们	-10.8899
可供	-10.89
殿	-10.8902
力度	-10.8902
尼加拉瓜	-10.8902
周边	-10.8905
油气	-10.8906
放射	-10.8906
较少	-10.8907
提出了一种	-10.8908
安全部队	-10.8908
cp	-10.891
较好的	-10.8912
法律框架	-10.8914
上市	-10.8918
三次	-10.8918
DB	-10.8919
押	-10.8921
ev	-10.8922
的数字	-10.8923
方法是	-10.8923
几内亚	-10.8929
了一份	-10.8929
假期	-10.893
登记册	-10.893
未成年人	-10.8932
我们已经	-10.8932
介入	-10.8934
首相	-10.8935
日起	-10.8935
要在	-10.8936
躺在	-10.8937
峰会	-10.8939
顶部	-10.8947
这些措施	-10.8952
蓬	-10.8952
存款	-10.8952
伟大	-10.8954
较大的	-10.8955
叹	-10.8956
查阅	-10.8957
鼓舞	-10.8957
牧师	-10.8957
激活	-10.8959
得知	-10.8959
检察	-10.8964
你必须	-10.8966
死于	-10.8969
揭	-10.8972
秘书长的报告	-10.8978
案件中	-10.8978
难道	-10.898
旺	-10.8983
欺诈	-10.8983
勇敢	-10.8983
字符串	-10.8983
时代的	-10.8984
静态	-10.8985
这也	-10.8985
预定	-10.8986
一种新型	-10.8988
认同	-10.899
但不	-10.899
独立专家	-10.8992
一个月	-10.8993
磁场	-10.8995
表示欢迎	-10.8997
诊	-10.8997
生计	-10.8998
排列	-10.8999
规约	-10.9
似乎是	-10.9001
幅度	-10.9001
降解	-10.9002
所提供的	-10.9007
放大	-10.9009
惨	-10.9009
事态发展	-10.901
宋	-10.901
址	-10.9011
求解	-10.9011
帽子	-10.9013
创伤	-10.9014
夜晚	-10.9014
因为这	-10.9017
合适	-10.9018
选择性	-10.9021
▁为什么	-10.9023
菜单	-10.9023
指挥官	-10.9025
尔顿	-10.9026
会产生	-10.9027
年级	-10.903
设计师	-10.9036
栖	-10.9037
讨厌	-10.9037
但我们	-10.9038
▁澳大利亚	-10.9038
宝宝	-10.9039
提供给	-10.9039
转交	-10.9044
修理	-10.9045
你需要	-10.9046
▁上海	-10.905
/62/	-10.9056
等领域	-10.9056
▁海	-10.9057
模型的	-10.9059
长达	-10.9059
安理会成员	-10.9061
AS	-10.9064
悲剧	-10.9064
▁61.	-10.9066
安全问题	-10.9066
的测定	-10.9067
的实施	-10.9067
中非共和国	-10.9068
酸盐	-10.9068
轮胎	-10.907
可能需要	-10.907
就不会	-10.9072
窗户	-10.9072
这些活动	-10.9072
81	-10.9072
什么样的	-10.9075
操作系统	-10.9076
激动	-10.9077
反对派	-10.9077
为自己	-10.9078
和民间社会	-10.9078
地上	-10.9079
紧急情况	-10.9079
▁安理会	-10.908
多重	-10.9084
避	-10.9086
大家都	-10.9086
北极	-10.9089
到目前为止	-10.9091
颅	-10.9091
拐	-10.9091
浪漫	-10.9091
报酬	-10.9092
只需	-10.9092
还指出	-10.9092
感应	-10.9094
独立性	-10.9097
生产的	-10.9097
职权范围	-10.9099
很明显	-10.9103
of	-10.9105
各代表团	-10.9106
度假	-10.9108
高达	-10.9108
▁考虑到	-10.9111
调查结果	-10.9111
磨损	-10.9112
▁去年	-10.9114
res	-10.9114
培	-10.9115
火灾	-10.9115
所造成的	-10.9116
劣	-10.9118
虾	-10.9118
孤独	-10.9119
一份报告	-10.9119
乍得	-10.9119
的老	-10.9119
筹集	-10.912
社会服务	-10.9121
故意	-10.9122
反腐败	-10.9123
昂	-10.9123
退化	-10.9128
国际人权	-10.9129
:"	-10.913
门口	-10.913
美好	-10.9135
正面	-10.9136
通货膨胀	-10.9138
站点	-10.914
决定将	-10.9142
头上	-10.9143
支持者	-10.9146
SA	-10.9146
▁53.	-10.9147
被认为	-10.9153
设计和	-10.9154
屋顶	-10.9154
司法部	-10.9156
人员和	-10.9161
▁印度	-10.9162
▁你知道	-10.9163
堵	-10.9172
塔利班	-10.9173
汀	-10.9173
可再生能源	-10.9173
洒	-10.9173
柳	-10.9173
牙齿	-10.9175
接种	-10.9175
内阁	-10.9178
ii	-10.9179
的关注	-10.9179
信息的	-10.9183
刑事司法	-10.9183
制造业	-10.9184
捐助国	-10.9184
联赛	-10.9185
你不	-10.9189
形容	-10.9191
医药	-10.9193
比尔	-10.9193
配件	-10.9194
和支持	-10.9197
凹	-10.92
斯洛伐克	-10.92
燕	-10.92
倾斜	-10.9201
当地的	-10.9202
外汇	-10.9204
投标	-10.9206
治安	-10.9206
林业	-10.9207
交谈	-10.9208
▁尽管如此	-10.921
时光	-10.9211
概述了	-10.9212
很小	-10.9213
极限	-10.9213
宣	-10.9214
审议大会	-10.9215
营业	-10.9218
采矿	-10.9219
区内	-10.9221
柏	-10.9226
媒介	-10.9228
的解释	-10.923
已经有	-10.9231
迎接	-10.9233
企业的	-10.9233
器件	-10.9233
综合征	-10.9233
降低了	-10.9233
为实现	-10.9235
培训方案	-10.9237
人道	-10.9237
电解	-10.9237
千年	-10.9243
发挥作用	-10.9243
常见的	-10.9244
OS	-10.9246
我们现在	-10.9246
ard	-10.9247
伟	-10.9248
人口的	-10.9248
所致	-10.9249
赞	-10.9252
法律援助	-10.9252
不允许	-10.9255
靴	-10.9255
的说明	-10.9257
提起	-10.9257
/59/	-10.9258
润滑	-10.9259
依赖于	-10.9263
▁如果我	-10.9264
筹备委员会	-10.9266
就业机会	-10.9266
协调和	-10.9267
实施的	-10.9267
聘	-10.9267
中毒	-10.9267
.10	-10.9269
严格的	-10.9276
网格	-10.9276
浏览	-10.9277
行预咨委会	-10.9278
一方面	-10.9281
▁电	-10.9282
烯	-10.9282
抹	-10.9283
2008-2009	-10.9283
从而使	-10.9285
群众	-10.9286
定居点	-10.9287
航班	-10.9287
一所	-10.9288
领域中	-10.9289
节日	-10.9289
分析师	-10.9291
不住	-10.9292
指导原则	-10.9293
是美国	-10.9294
第九	-10.9294
似的	-10.9294
思路	-10.9297
和社区	-10.9297
生产和	-10.9298
人造	-10.9303
渔	-10.9305
讨	-10.9306
它可以	-10.9307
的反	-10.9307
各会员国	-10.9309
烘	-10.9311
编译	-10.9313
将近	-10.9313
并于	-10.9314
在某些	-10.9315
也很	-10.9319
妇女权利	-10.932
的后续行动	-10.9321
进行研究	-10.9321
ss	-10.9323
买卖	-10.9323
原则和	-10.9324
告诉我们	-10.9326
密集	-10.9326
▁应用	-10.9327
偏见	-10.9327
率为	-10.9329
减小	-10.9333
美元的	-10.9333
自适应	-10.9335
政府间组织	-10.9335
王子	-10.9337
镜头	-10.9337
妥	-10.9338
勾	-10.9339
藤	-10.9339
称之为	-10.9339
需要在	-10.9339
创造了	-10.934
的意思	-10.9341
防范	-10.9342
绝大多数	-10.9346
▁我们还	-10.9349
生活方式	-10.9349
一百	-10.9351
温和	-10.9353
而又	-10.9354
ph	-10.9356
做什么	-10.9358
命运	-10.9358
春天	-10.9358
开始了	-10.936
是唯一	-10.9361
和实施	-10.9361
给她	-10.9362
2-	-10.9363
四十	-10.9364
矩	-10.9364
充电	-10.9364
祝	-10.9364
成年人	-10.9364
凌	-10.9367
租赁	-10.9367
经合组织	-10.9367
方案预算	-10.9367
百分之	-10.9367
新生儿	-10.9368
的增加	-10.9371
1989	-10.9371
实施了	-10.9372
对自己	-10.9372
著名	-10.9373
德尔	-10.9376
使你	-10.9379
导向	-10.938
在北京	-10.9383
扭	-10.9386
提供资料	-10.9386
马尔	-10.939
攀	-10.9394
在国内	-10.9394
参议院	-10.9395
桂	-10.9395
伴侣	-10.9395
哥斯达黎加	-10.9395
电动机	-10.9395
椅子	-10.9397
宗旨	-10.9397
▁b	-10.9397
有没有	-10.94
应变	-10.94
轻轻	-10.9401
大多数人	-10.9402
六个月	-10.9402
---	-10.9405
这笔	-10.9408
同情	-10.941
公报	-10.9412
人为	-10.9413
水晶	-10.9413
的合成	-10.9416
患有	-10.9419
尽早	-10.9419
葛	-10.9423
摔	-10.9423
国内生产总值	-10.9423
魅力	-10.9423
专门机构	-10.9426
磁盘	-10.943
副本	-10.9434
入境	-10.9436
供给	-10.9437
可能的	-10.9438
开会	-10.9439
指称	-10.9439
国别	-10.9439
kh	-10.944
古老的	-10.9442
▁图	-10.9447
极大	-10.9448
方面的作用	-10.945
使我	-10.9451
祈祷	-10.9451
高血压	-10.9452
养护	-10.9453
纺织	-10.9456
人格	-10.9462
录像	-10.9462
狱	-10.9462
复原	-10.9463
创意	-10.9463
利息	-10.9464
便是	-10.9465
树木	-10.9466
标准和	-10.9468
有待	-10.9468
一定会	-10.9469
可怕的	-10.947
或者是	-10.9474
图表	-10.9478
弓	-10.9479
▁很多	-10.9479
垄断	-10.9479
和行政	-10.9481
消除贫穷	-10.9486
这本书	-10.9493
理想的	-10.9496
分支	-10.9498
化工	-10.9498
za	-10.9499
也就	-10.95
米兰	-10.95
的运动	-10.95
训	-10.9504
国家办事处	-10.9504
锥	-10.9505
本届会议	-10.9505
切除	-10.9505
开车	-10.9506
的最高	-10.9506
祭	-10.9506
=	-10.9507
利物浦	-10.9508
外层空间	-10.9508
克莱	-10.951
联合国各	-10.9511
世界卫生组织	-10.9512
奇怪	-10.9513
▁行预咨委会	-10.9513
选手	-10.9516
减贫	-10.9517
升高	-10.952
一句	-10.9522
加密	-10.9528
大批	-10.953
下滑	-10.953
ew	-10.9531
落后	-10.9533
有任何	-10.9534
是这样	-10.9534
尊敬	-10.9536
▁57.	-10.9538
常驻联合国代表	-10.9538
工作方法	-10.9543
向他	-10.9543
盈利	-10.9546
生气	-10.955
拉斯	-10.9552
脆弱性	-10.9552
风险管理	-10.9553
婆	-10.9562
家中	-10.9562
壶	-10.9564
复兴	-10.9567
美好的	-10.9568
ve	-10.9573
优秀的	-10.9575
的好	-10.9579
▁如果您	-10.958
冬季	-10.9581
纤	-10.9581
他也	-10.9583
到一个	-10.9585
供水	-10.9586
的第一个	-10.9586
业务活动	-10.9586
单击	-10.9589
▁自动	-10.9589
那就	-10.9591
半导体	-10.9593
朴	-10.9593
当事方	-10.9593
搅拌	-10.9593
泄漏	-10.9594
我希望	-10.9594
的状态	-10.9597
忍受	-10.9599
的途径	-10.96
与之	-10.96
书中	-10.9608
限于	-10.9608
加入了	-10.9609
提供有关	-10.9612
进展情况	-10.9614
你应该	-10.9621
芝加哥	-10.9622
2006-2007	-10.9622
磅	-10.9622
堕胎	-10.9622
毕竟	-10.9622
浓缩	-10.9623
94	-10.9625
迈克尔	-10.9625
面板	-10.9626
乐队	-10.9628
并行	-10.9638
流离失所者	-10.9639
的男人	-10.9639
诚实	-10.9641
共同努力	-10.9642
漂亮的	-10.9643
带到	-10.9645
单纯	-10.9647
超过了	-10.9649
关切地注意到	-10.9651
/63/	-10.9651
排放量	-10.9651
通胀	-10.9652
ff	-10.9652
坐标	-10.9654
活塞	-10.9656
冬天	-10.9658
▁另一个	-10.9658
报复	-10.966
用水	-10.9661
收取	-10.9663
并鼓励	-10.967
胶囊	-10.9672
络	-10.9673
境内的	-10.9673
蒸	-10.9675
分析方法	-10.9679
匠	-10.9679
忘了	-10.968
好好	-10.968
▁这将	-10.9681
键盘	-10.9684
患者的	-10.9685
调度	-10.9686
西北	-10.9686
技术转让	-10.9687
那儿	-10.9688
流通	-10.9692
完美的	-10.9692
遣	-10.9695
转移到	-10.9695
结晶	-10.9698
把他们	-10.9701
周围的	-10.9703
烃	-10.9708
宇	-10.9708
赞比亚	-10.9708
驻地协调员	-10.9708
国际文书	-10.9711
免受	-10.9714
控件	-10.9715
作出贡献	-10.9717
哈利	-10.9717
手续	-10.9721
大门	-10.9721
区域的	-10.9721
犯罪行为	-10.9723
唯	-10.9723
还没	-10.9723
继续在	-10.9724
另一方面	-10.9728
下一次	-10.9728
运算	-10.973
SS	-10.9732
我们都	-10.9734
辽	-10.9737
报价	-10.9737
场地	-10.9737
收获	-10.9739
税务	-10.974
如果不	-10.9742
▁李	-10.9746
人均	-10.9748
因为我们	-10.9748
我现在	-10.9749
电厂	-10.9752
清楚地	-10.9753
的性能	-10.9758
和美国	-10.9758
的成本	-10.9759
真实的	-10.9763
玩家	-10.9766
珀	-10.9766
蛋糕	-10.9766
仇恨	-10.9766
一定的	-10.9766
理事会第	-10.9768
篮球	-10.9768
▁65.	-10.9768
突变	-10.977
在不同	-10.977
的后果	-10.9771
核实	-10.9772
巾	-10.9773
通风	-10.978
一种新的	-10.978
要想	-10.9781
奉	-10.9785
的开发	-10.9785
一度	-10.9789
商人	-10.9791
辅	-10.9793
唇	-10.9795
阿尔巴尼亚	-10.9795
碰撞	-10.9796
往往是	-10.9797
诞生	-10.9797
▁62.	-10.9797
辞职	-10.98
适用的	-10.98
从一个	-10.9801
/64/	-10.9801
91	-10.9801
总干事	-10.9804
的疗效	-10.9805
分区	-10.9807
art	-10.9808
势力	-10.9809
起源	-10.9809
sc	-10.9811
录音	-10.9815
导致了	-10.9816
人死亡	-10.9821
主意	-10.9824
洛杉矶	-10.9825
英寸	-10.9825
/61/	-10.9825
延续	-10.9826
的名义	-10.983
60%	-10.9832
有责任	-10.9833
cd	-10.9837
地层	-10.9838
买了	-10.984
行政和	-10.9842
变异	-10.9845
秘	-10.9846
的材料	-10.9846
申请人	-10.9849
听取	-10.985
多名	-10.9851
有关国家	-10.9852
肽	-10.9854
行政和预算问题咨询委员会	-10.9854
乌拉圭	-10.9854
加沙地带	-10.9854
弱势	-10.9855
钢琴	-10.9856
面试	-10.9857
创立	-10.9859
相机	-10.986
战略和	-10.9862
报导	-10.9863
法语	-10.9866
离开了	-10.9866
布鲁	-10.9869
餐馆	-10.9871
难民营	-10.9875
的实验研究	-10.9876
但没有	-10.9878
知识和	-10.988
该部	-10.988
▁法国	-10.9881
合法性	-10.9883
并发症	-10.9883
橄榄	-10.9883
美联储	-10.9883
蕾	-10.9883
随之	-10.9884
▁59.	-10.9885
东南亚	-10.9887
鸡蛋	-10.9888
海滩	-10.9889
全身	-10.9891
的企业	-10.9891
3-	-10.9893
去做	-10.9894
极大的	-10.9898
斯基	-10.99
列车	-10.9902
册	-10.9904
ver	-10.9906
更具	-10.9907
▁随后	-10.9911
捍卫	-10.9913
弊	-10.9913
15%	-10.9913
▁秘书长关于	-10.9914
周二	-10.9915
最优	-10.9915
可以从	-10.9917
先生阁下	-10.9917
PE	-10.9918
各方面	-10.9919
这意味着	-10.9919
让她	-10.992
并提供	-10.9924
缺血	-10.9926
段所述	-10.9927
报告员	-10.9929
载体	-10.9929
杰出	-10.993
在伦敦	-10.9936
难题	-10.9939
见第	-10.9939
晒	-10.9941
昆	-10.9941
~	-10.9942
饲料	-10.9943
演奏	-10.9943
尺度	-10.9948
疾病的	-10.9948
示威	-10.9949
MA	-10.9949
常设	-10.995
的军事	-10.995
调试	-10.9952
有很大	-10.9958
不但	-10.9959
和家庭	-10.9963
乃	-10.9968
离职	-10.9968
及其在	-10.9969
三大	-10.9971
在很大程度上	-10.9972
炒	-10.9972
哨	-10.9972
援引	-10.9973
言论自由	-10.9976
委员会的报告	-10.9979
的对话	-10.998
跨越	-10.9982
空军	-10.9984
执行工作	-10.9984
爱你	-10.9984
的另一个	-10.9985
咨询意见	-10.9985
阀门	-10.9985
中华	-10.9987
感激	-10.9988
对中国	-10.9993
劳动力市场	-10.9993
的错误	-10.9993
窄	-11.0002
预防犯罪和刑事司法	-11.0002
烹	-11.0002
难民专员办事处	-11.0002
硕士	-11.0002
弱势群体	-11.0003
▁电子	-11.0003
悲伤	-11.0003
警卫	-11.0004
动荡	-11.0007
履行机构	-11.0007
确	-11.0008
宝石	-11.001
更是	-11.001
外套	-11.001
委员会对	-11.001
接待	-11.001
米尔	-11.0011
上文第	-11.0013
的另一	-11.0016
警察局	-11.0018
分别为	-11.002
1-	-11.0024
跟我	-11.0032
中小企业	-11.0032
沉默	-11.0034
减缓	-11.0035
我不知道	-11.0035
水面	-11.0039
服用	-11.0044
非正规	-11.0047
这么做	-11.0047
的时刻	-11.005
中药	-11.0052
地中海	-11.0053
▁我们必须	-11.0053
复杂性	-11.0057
字段	-11.0057
还必须	-11.006
酿	-11.0062
溜	-11.0062
恐怕	-11.0062
专家会议	-11.0062
资讯	-11.0063
青春	-11.0064
伤亡	-11.0064
解决问题	-11.0072
▁德国	-11.0073
的规则	-11.0074
咨询服务	-11.0076
因为它们	-11.0077
可能导致	-11.0078
70%	-11.0078
听起来	-11.008
两性	-11.008
无力	-11.0082
心理学	-11.0086
工程处	-11.0087
更广泛的	-11.0087
条文	-11.0088
披	-11.0091
史密斯	-11.0092
棍	-11.0092
沥青	-11.0092
画面	-11.0094
开发银行	-11.0094
IT	-11.0095
杆菌	-11.0096
表示关注	-11.0096
警务	-11.0098
停留	-11.0099
构想	-11.01
其工作	-11.0101
的公司	-11.0103
公共部门	-11.0105
热水	-11.0105
图案	-11.0106
露出	-11.0109
机动	-11.011
在英国	-11.0111
之路	-11.0113
不敢	-11.0114
约会	-11.0118
柴	-11.0119
这个国家	-11.0119
泊	-11.0121
研究进展	-11.0121
辣	-11.0122
2004-2005	-11.0122
国际刑事法院	-11.0122
捐赠	-11.0122
▁63.	-11.0124
夫妻	-11.0124
改良	-11.0124
发展中	-11.0124
警官	-11.0124
他还	-11.0126
上班	-11.0129
告诉他	-11.013
的机制	-11.013
三个月	-11.0132
▁欧洲	-11.0132
必须要	-11.0134
孕妇	-11.0139
曾在	-11.0143
对这一	-11.0143
两周	-11.0143
我们认为	-11.0144
时机	-11.0144
任务规定	-11.0148
马丁	-11.0148
数千	-11.0148
提请注意	-11.0148
后期	-11.0149
躲	-11.015
采纳	-11.0151
进一步加强	-11.0152
津巴布韦	-11.0152
苷	-11.0152
巫	-11.0152
愚蠢	-11.0152
詹姆斯	-11.0152
永恒	-11.0153
lu	-11.0153
构成了	-11.0153
阁下	-11.0154
破碎	-11.0154
调控	-11.0155
PS	-11.0156
塞尔	-11.0157
重叠	-11.016
社会和经济	-11.0163
为一个	-11.0166
大声	-11.0168
分段	-11.0172
报告第	-11.0174
工商	-11.0174
放入	-11.0177
光线	-11.0179
2/	-11.0179
的有效性	-11.0179
一般事务	-11.018
烂	-11.0182
棚	-11.0182
奎	-11.0182
累积	-11.0184
颁发	-11.0184
趣	-11.0185
破裂	-11.0185
▁60.	-11.0186
你所	-11.0188
我谨	-11.0191
充满了	-11.0192
见附件	-11.0193
逆转	-11.0199
精密	-11.0201
饮	-11.0206
几乎所有	-11.0206
总共	-11.0209
个性	-11.0211
区域组织	-11.0212
梳	-11.0213
龟	-11.0213
报告所述期间	-11.0213
一轮	-11.0213
的数目	-11.0213
拥挤	-11.0213
肥胖	-11.0213
科研	-11.0215
amp	-11.0215
阳性	-11.0218
约为	-11.0221
世界经济	-11.0223
墙上	-11.0225
上文	-11.0225
力求	-11.0226
同一个	-11.0226
号和第	-11.0227
心脏病	-11.0228
的音乐	-11.0228
执政	-11.0235
选用	-11.0236
致使	-11.0237
号码	-11.024
已知	-11.0242
花了	-11.0242
牙买加	-11.0243
畜	-11.0243
福祉	-11.0243
喀麦隆	-11.0243
沮丧	-11.0243
熟练	-11.0244
乙醇	-11.0244
第四次	-11.0246
东盟	-11.0246
电站	-11.0246
在家里	-11.0246
油田	-11.025
的巨大	-11.0251
▁咨询委员会	-11.0255
尊	-11.0256
市政	-11.0256
管理员	-11.0258
转化为	-11.0259
提到了	-11.026
触发	-11.0261
性能的影响	-11.0269
了起来	-11.027
浦	-11.0274
硬化	-11.0275
承包商	-11.0275
遥感	-11.0275
▁67.	-11.0276
激情	-11.0276
行李	-11.0276
罗伯特	-11.0278
碎片	-11.0279
并以	-11.0282
借口	-11.0283
▁特别报告员	-11.0292
地球上	-11.0292
贩运人口	-11.0292
的商业	-11.0293
女生	-11.0295
环境保护	-11.0296
25%	-11.0297
撤	-11.0301
”(	-11.0301
第二部分	-11.0302
黏	-11.0303
因为你	-11.0304
早些时候	-11.0304
闸	-11.0304
荣誉	-11.0305
遏制	-11.0305
ang	-11.0306
大于	-11.0306
拿到	-11.0307
急剧	-11.0307
课堂	-11.0307
遥远	-11.0307
bu	-11.0307
判例	-11.0307
国家警察	-11.0309
这个词	-11.0309
德拉	-11.031
没有得到	-11.0311
妇女和女童	-11.0312
拍卖	-11.0312
教室	-11.0312
扭转	-11.0313
这部	-11.0313
不足以	-11.0319
展示了	-11.0325
高频	-11.0325
了一系列	-11.0326
视角	-11.0329
的主要原因	-11.033
宝贵	-11.0331
参与了	-11.0332
第二章	-11.0334
又是	-11.0334
必不可少	-11.0335
翅	-11.0335
消除对妇女一切形式歧视公约	-11.0335
小武器和轻武器	-11.0335
霸	-11.0335
繁殖	-11.0335
煽动	-11.0335
厘米	-11.0336
▁64.	-11.0337
外观	-11.0337
捷克共和国	-11.0338
残留	-11.0341
违	-11.0342
没什么	-11.0344
蒸发	-11.0344
数码	-11.0347
国内法	-11.035
条款草案	-11.0353
了自己的	-11.0354
ran	-11.0355
▁S	-11.0358
打击恐怖主义	-11.0365
锐	-11.0365
2012-2013	-11.0367
▁2002	-11.0368
tor	-11.0369
农村妇女	-11.0369
IC	-11.0371
进行审查	-11.0371
滤波器	-11.0371
说过	-11.0372
淋	-11.0376
地形	-11.0377
高级别会议	-11.0378
特权	-11.0378
职员	-11.038
不明	-11.0383
高兴地	-11.0383
的首要	-11.0384
伐	-11.0387
不断地	-11.0388
美国政府	-11.039
穴	-11.0392
结构和	-11.0395
前任	-11.0396
恼	-11.0397
锤	-11.0397
锰	-11.0397
赞赏地注意到	-11.0397
富裕	-11.0397
恶劣	-11.0398
昆虫	-11.0398
议事规则	-11.0398
饭店	-11.04
球场	-11.04
收藏	-11.0401
粉末	-11.0401
童工	-11.0401
严肃	-11.0402
斯塔	-11.0406
量子	-11.0408
所面临的	-11.0409
共计	-11.041
设计了	-11.0412
智力	-11.0414
传真	-11.042
基层	-11.0421
歧视性	-11.0422
对联合国	-11.0422
5-	-11.0422
滋	-11.0426
流动性	-11.0428
罚	-11.0428
阴影	-11.043
特拉	-11.0432
光电	-11.0438
加重	-11.0441
商定的	-11.0442
分割	-11.0443
妇女署	-11.0446
暴力侵害	-11.0448
妇女参与	-11.0448
定向	-11.045
很久	-11.045
也没	-11.0452
转动	-11.0452
府	-11.0452
日子	-11.0455
放到	-11.0456
潘	-11.0459
亚太经社会	-11.0459
幽默	-11.0459
雷斯	-11.0462
补助	-11.0463
执行委员会	-11.0464
最后一	-11.0465
计划生育	-11.0469
分配给	-11.0471
原本	-11.0471
解雇	-11.0472
有意	-11.0472
和监测	-11.0473
期内	-11.0475
伙	-11.0482
饱	-11.0482
都应	-11.0484
鱼类	-11.0486
pro	-11.049
光明	-11.049
唑	-11.049
乌兹别克斯坦	-11.049
菊	-11.049
巴斯	-11.0492
古典	-11.0492
ine	-11.0493
收回	-11.0502
可通过	-11.0503
激烈	-11.0505
▁比如	-11.0506
硫化	-11.0509
受害	-11.0513
史上	-11.0517
的理解	-11.0518
祝福	-11.0519
市长	-11.0519
演化	-11.052
骄傲	-11.0522
赎	-11.0522
锦	-11.0522
提倡	-11.0522
莫斯科	-11.0523
通过对	-11.0523
为执行	-11.0524
的重大	-11.0526
维和行动	-11.0529
的房子	-11.053
战胜	-11.0531
向上	-11.0532
和人权	-11.0533
多媒体	-11.0534
的兴趣	-11.0536
的形成	-11.0537
缓冲	-11.0542
妻	-11.0542
详细的	-11.0547
野生	-11.0547
▁2012	-11.0549
各项建议	-11.055
的详细	-11.0553
变压器	-11.0553
描绘	-11.0553
把你	-11.0557
周四	-11.0559
列举	-11.0562
日前	-11.0562
▁我们的	-11.0562
航行	-11.0564
军官	-11.0568
复合材料	-11.0569
十三	-11.0572
所知	-11.0572
后代	-11.0574
▁2001	-11.0574
生殖健康	-11.0576
听见	-11.0576
催	-11.0578
地铁	-11.0578
进行合作	-11.058
程序和	-11.0581
的指导	-11.0582
就开始	-11.0584
胚	-11.0585
`	-11.0585
鉴别	-11.0586
吃饭	-11.0591
相对于	-11.0594
充足的	-11.0598
在今后	-11.0598
以满足	-11.0603
che	-11.0603
启用	-11.0604
全力	-11.0611
不出	-11.0616
特遣队	-11.0616
吉尔	-11.0617
▁约翰	-11.0617
三项	-11.0618
都市	-11.0618
中止	-11.0619
外来	-11.0619
在全国	-11.0619
坚信	-11.062
职工	-11.0626
微观	-11.0626
移徙者	-11.0626
毕业生	-11.0626
财政部	-11.0628
包含了	-11.0631
陪	-11.0636
单独的	-11.0638
多哈	-11.0638
▁在这一	-11.0639
der	-11.0641
这种方法	-11.0642
正好	-11.0642
青年人	-11.0644
▁在这	-11.0645
▁当时	-11.0646
蜜	-11.0647
皂	-11.0648
ST	-11.065
和资源	-11.0651
▁我们希望	-11.0652
负面影响	-11.0652
ate	-11.0653
时间和	-11.0655
05	-11.0656
自豪	-11.0656
任何一个	-11.0661
岁以下	-11.0661
在欧洲	-11.0661
没人	-11.0663
加强对	-11.0666
神经网络	-11.0667
类似于	-11.0667
SE	-11.0673
申	-11.0674
热点	-11.0674
▁我是	-11.0679
巢	-11.068
世卫组织	-11.068
竖	-11.068
蛛	-11.068
秦	-11.068
定制	-11.068
耳朵	-11.0681
折叠	-11.0681
缔约国会议	-11.0682
基本原则	-11.0685
午餐	-11.0687
的差异	-11.0688
偶尔	-11.0688
幻想	-11.069
明亮	-11.0691
水稻	-11.0693
wi	-11.0693
流域	-11.0696
这可能	-11.0697
并提出	-11.0699
已开始	-11.0709
岗	-11.0709
小波	-11.0709
最高的	-11.071
增至	-11.071
把它们	-11.0711
锯	-11.0712
有组织犯罪	-11.0712
克林顿	-11.0712
达尔富尔混合行动	-11.0712
衬衫	-11.0713
关键的	-11.0714
吸毒	-11.0715
按摩	-11.0717
开展合作	-11.0718
洗钱	-11.0721
因为这些	-11.0722
征求	-11.0722
有关的问题	-11.0722
会费	-11.0724
机组	-11.0726
90%	-11.0727
ts	-11.0728
意愿	-11.0732
周日	-11.0733
妙	-11.0738
海湾	-11.0739
漂	-11.074
格林	-11.0742
第一步	-11.0742
DA	-11.0742
严峻	-11.0744
国务院	-11.0744
渐渐	-11.0744
布局	-11.0746
的含量	-11.0746
叙述	-11.0746
隐私	-11.0746
名义	-11.0748
收容	-11.0748
的样子	-11.0749
北美	-11.075
的颜色	-11.075
分化	-11.075
所采取的	-11.0754
无可	-11.0755
臭氧	-11.0755
导演	-11.0755
根据其	-11.0758
把握	-11.0759
工作场所	-11.0759
使它	-11.0763
▁爱	-11.0766
的生物	-11.0773
旅	-11.0775
朝鲜民主主义人民共和国	-11.0776
联黎部队	-11.0776
萃取	-11.0777
柔软	-11.0779
的潜在	-11.0781
在我的	-11.0784
被拘留者	-11.0787
这两种	-11.0787
预报	-11.0788
重要性	-11.0788
解释说	-11.0788
支配	-11.0788
船上	-11.079
3000	-11.0791
能使	-11.0797
这名	-11.08
长久	-11.0801
处在	-11.0802
创建一个	-11.0804
▁昨天	-11.0804
体现了	-11.0805
它会	-11.0805
加载	-11.0805
排水	-11.0805
干细胞	-11.0806
的那些	-11.0808
传染	-11.0809
耕	-11.0809
绘画	-11.081
营养不良	-11.081
差不多	-11.081
的父母	-11.0811
ud	-11.0812
健身	-11.0813
检索	-11.0814
简报	-11.0814
大选	-11.0815
充分利用	-11.0816
概率	-11.0817
从前	-11.0817
的功能	-11.0817
哈里	-11.0818
事宜	-11.082
这种做法	-11.0821
买方	-11.0823
进出口	-11.0824
会出现	-11.0827
斯顿	-11.0827
有所增加	-11.0827
au	-11.0829
的一般	-11.0832
和培训	-11.0833
球迷	-11.0834
的痛苦	-11.0834
雕	-11.0835
本区域	-11.0835
儒	-11.0841
附件一	-11.0845
量化	-11.0851
有益的	-11.0851
也许是	-11.0852
军用	-11.0855
▁五	-11.0855
更快	-11.0856
的女人	-11.0857
第三个	-11.0858
0.0	-11.0858
座位	-11.0859
交往	-11.0861
走过	-11.0869
塑性	-11.0871
革	-11.0873
逾	-11.0873
碟	-11.0873
谅解备忘录	-11.0873
忠诚	-11.0874
政策和方案	-11.0875
住所	-11.0876
签字	-11.0876
能让	-11.0876
大地	-11.0878
联合国大会	-11.0884
的女儿	-11.0885
尼斯	-11.0887
报警	-11.0893
变得更	-11.0894
遇到的	-11.0895
相位	-11.0895
大国	-11.0895
离心	-11.0898
实物	-11.0899
巡	-11.09
有限元	-11.0901
赠	-11.0903
羽	-11.0904
闷	-11.0906
以至于	-11.0906
裂缝	-11.0908
提供更多	-11.091
哪儿	-11.091
下面的	-11.0911
行为者	-11.0911
▁艾	-11.0911
的大小	-11.0912
立体	-11.0916
但是他	-11.0916
魔法	-11.092
的研究进展	-11.0921
姓	-11.0925
会让	-11.0925
的各个	-11.0925
研	-11.0928
以帮助	-11.0928
志愿者	-11.093
拓	-11.0932
势头	-11.0932
pl	-11.0934
绪	-11.0934
询	-11.0936
厌	-11.0938
厄	-11.0939
造型	-11.0939
存在于	-11.094
兼容	-11.094
十字	-11.094
圣诞节	-11.0943
▁如果我们	-11.0944
个员额	-11.0944
确保在	-11.0945
剩	-11.0945
道理	-11.0946
是基于	-11.0947
冰岛	-11.0947
鼠标	-11.0949
180	-11.0952
特许	-11.0954
罢工	-11.0959
特使	-11.0959
章节	-11.0962
试点	-11.0964
并促进	-11.0964
月球	-11.0966
彻	-11.097
的表达	-11.097
样式	-11.0971
籽	-11.0971
纯粹	-11.0971
欺骗	-11.0972
看待	-11.0972
包裹	-11.0973
两级	-11.0973
瞬间	-11.0975
的衣服	-11.0975
狮子	-11.0976
大师	-11.0977
精神病	-11.0983
▁加拿大	-11.0983
▁奥巴马	-11.0988
/66/	-11.099
指向	-11.099
区域内	-11.0991
支票	-11.0991
回去	-11.0996
逃离	-11.0997
for	-11.1004
鹅	-11.1004
郡	-11.1004
骂	-11.1004
铭记	-11.1005
7/	-11.1005
散射	-11.1005
▁68.	-11.1007
一个新	-11.1008
良好做法	-11.1009
依法	-11.1009
西南	-11.101
审核	-11.1013
int	-11.1014
迫切需要	-11.1016
商标	-11.1018
摊款	-11.102
一小	-11.1021
创造性	-11.1023
各个方面	-11.1025
妇女和女孩	-11.1028
公共卫生	-11.1029
不安全	-11.103
抑	-11.103
音频	-11.103
尸	-11.1031
民用	-11.1032
宽度	-11.1034
挣	-11.1037
郁	-11.1037
▁有时	-11.1037
芝	-11.1037
▁同	-11.1038
▁69.	-11.1038
日常生活	-11.104
抽象	-11.1042
供应链	-11.1042
但仍	-11.1044
撤出	-11.1044
吃了	-11.1046
党派	-11.1047
今日	-11.105
这个项目	-11.1052
DS	-11.1053
水准	-11.1054
per	-11.1054
耐心	-11.1055
这么多	-11.1056
一声	-11.1056
装配	-11.106
尔德	-11.106
的比较	-11.1063
拿着	-11.1068
国际和平与安全	-11.1068
分组	-11.1069
赏	-11.1069
枢	-11.107
帅	-11.107
儿基会	-11.107
咽	-11.107
配方	-11.1071
追究	-11.1071
廉价	-11.1072
违约	-11.1073
奴隶	-11.1073
亨利	-11.1074
实习	-11.1074
宽带	-11.1076
平稳	-11.1076
的重点	-11.1079
电器	-11.1081
既定	-11.1084
pp	-11.1085
区域办事处	-11.1087
巴尔	-11.1088
ber	-11.1093
享	-11.1094
对其进行	-11.1094
独自	-11.1096
摄	-11.1096
诗人	-11.1099
僵	-11.1102
以避免	-11.1102
中的一个	-11.1102
丸	-11.1104
嫩	-11.1104
孟	-11.1104
棋	-11.1104
困扰	-11.1104
的灵魂	-11.1104
千万	-11.1106
早就	-11.1106
▁再	-11.1106
落在	-11.1109
动画	-11.111
工作经验	-11.111
在你的	-11.1116
一再	-11.1117
市民	-11.1118
就像是	-11.1121
这些建议	-11.1122
切换	-11.1122
这个世界	-11.1125
竟	-11.1129
:1	-11.1135
人权状况	-11.1136
罚款	-11.1136
丑	-11.1137
怨	-11.1137
变性	-11.1137
棕色	-11.1138
筛	-11.1145
▁理事会	-11.1145
不超过	-11.1146
一个大	-11.1151
一批	-11.1153
首要	-11.1154
流感	-11.1155
了我的	-11.1156
街上	-11.1159
特设	-11.1165
荒漠化	-11.1165
个案	-11.1166
竞	-11.1167
防水	-11.1169
信道	-11.1169
股价	-11.1169
▁[	-11.1169
茅	-11.117
什么是	-11.1171
扭曲	-11.1172
过敏	-11.1172
灭绝	-11.1173
克里	-11.1177
却不	-11.1179
编列	-11.1179
句子	-11.1179
本着	-11.1179
很快就	-11.118
酰胺	-11.1184
锈	-11.1185
宪	-11.1185
数百	-11.1185
不多	-11.1191
边缘化	-11.1198
三名	-11.1198
同时还	-11.1198
联合国开发计划署	-11.1198
所带来的	-11.1199
外界	-11.1201
辈	-11.1204
因其	-11.1204
噢	-11.1204
é	-11.1204
/67/	-11.1204
数值模拟	-11.1206
教徒	-11.1206
io	-11.1207
内外	-11.1208
击败	-11.1209
成本效益	-11.121
建成	-11.1212
也许会	-11.1212
阻力	-11.1213
在此基础上	-11.1214
▁红	-11.1222
AC	-11.1224
寒冷	-11.1226
之间的联系	-11.1228
摊	-11.1229
消毒	-11.1231
钢板	-11.1231
身心	-11.1231
起飞	-11.1232
世界杯	-11.1233
广阔	-11.1238
高速公路	-11.1239
接头	-11.1239
分担	-11.124
国家方案	-11.124
诊所	-11.1241
分辨率	-11.1241
跨界	-11.1245
号法令	-11.1245
▁你能	-11.1245
一幅	-11.1246
CS	-11.1247
hu	-11.1248
当他	-11.1249
▁来自	-11.1249
一头	-11.1252
特别程序	-11.1259
在学校	-11.126
健康和	-11.126
可爱	-11.1261
犯有	-11.1261
铸造	-11.1261
和个人	-11.1262
继续进行	-11.1262
该公约	-11.1264
静电	-11.1268
不见	-11.1268
部队派遣国	-11.1271
侦察	-11.1271
咱们	-11.1272
军事行动	-11.1273
柏林	-11.1274
蒙特	-11.1278
染色体	-11.1279
在哪里	-11.1281
堪	-11.1281
叛乱	-11.1282
岁时	-11.1293
端口	-11.1294
漫长	-11.1294
看作是	-11.1295
旅客	-11.13
髓	-11.1303
发病	-11.1304
部委	-11.1305
连贯	-11.1306
参议员	-11.1307
法律制度	-11.1307
▁我们在	-11.1308
头部	-11.1309
▁近年来	-11.1311
有意义的	-11.1312
评定	-11.1312
估	-11.1313
指导方针	-11.1316
帮我	-11.1317
的资产	-11.1318
各部门	-11.1319
糟糕的	-11.132
联系起来	-11.1322
死去	-11.1322
反而	-11.1324
AP	-11.1329
这一领域	-11.1329
RA	-11.1338
椎	-11.1338
无核武器区	-11.1339
昌	-11.1339
陵	-11.1339
三分之二	-11.1339
绘制	-11.1339
豪华	-11.1342
邪恶	-11.1342
派出	-11.1342
卫生组织	-11.1343
宏观	-11.1344
法典	-11.1347
否决	-11.1347
上空	-11.1348
月亮	-11.1349
科学家们	-11.135
探测器	-11.135
有趣	-11.135
只有一个	-11.135
东南	-11.1351
完整性	-11.1351
被占领	-11.1353
战斗人员	-11.1354
Co	-11.1359
组装	-11.1362
把这些	-11.1363
分数	-11.1363
纳尔	-11.1363
激进	-11.1364
诉诸	-11.1367
的大部分	-11.1367
跟着	-11.1368
染料	-11.1368
衷	-11.1369
意思是	-11.1369
绝不	-11.137
钳	-11.1373
妊娠	-11.1373
柠檬	-11.1373
醚	-11.1373
罕见	-11.1375
内政部	-11.1375
▁66.	-11.1376
却没有	-11.1376
晚餐	-11.1378
协商一致	-11.1379
禁运	-11.1379
其任务	-11.138
把她	-11.138
策划	-11.138
被发现	-11.138
定价	-11.1381
牛肉	-11.1381
农药	-11.1382
多少钱	-11.1383
见面	-11.1386
自由化	-11.1386
步行	-11.1388
鼻子	-11.1389
在伊拉克	-11.1389
关键作用	-11.1391
一同	-11.1395
入学	-11.1397
可以使	-11.1397
测验	-11.1401
伯特	-11.1401
所属	-11.1402
不确定性	-11.1402
肤	-11.1402
担	-11.1404
传达	-11.1404
染色	-11.1404
周年	-11.1405
大海	-11.1405
疼	-11.1407
唤	-11.1407
巴林	-11.1407
烫	-11.1408
衔	-11.1408
corr	-11.1408
什麽	-11.1408
的对象	-11.1409
丢失	-11.141
国内流离失所者	-11.141
演示	-11.141
曼谷	-11.1411
节奏	-11.1412
ms	-11.1413
解决了	-11.1413
开展的活动	-11.1414
很长	-11.1414
公主	-11.1421
取得成功	-11.1423
些什么	-11.1423
七个	-11.1431
坦克	-11.1431
ess	-11.1432
武装团体	-11.1434
传说	-11.1435
ali	-11.1438
还说	-11.1441
抵押	-11.1441
消除对妇女歧视委员会	-11.1442
爪	-11.1442
纠纷	-11.1442
的优势	-11.1445
所占	-11.1446
恶性	-11.1447
也应	-11.1447
热烈	-11.1448
再度	-11.1449
信用卡	-11.1449
污水	-11.1449
存在的问题	-11.1449
中非	-11.1449
做得	-11.1451
南亚	-11.1454
希尔	-11.1455
伦理	-11.1457
住院	-11.1458
▁低	-11.1459
ation	-11.1461
不一定	-11.1465
柴油	-11.1467
战士	-11.147
搭配	-11.147
▁秘书处	-11.1472
另外一个	-11.1472
的中心	-11.1473
▁我会	-11.1476
胖	-11.1476
爽	-11.1476
绞	-11.1476
望远镜	-11.1476
文件夹	-11.1478
滨	-11.1478
▁71.	-11.1478
开启	-11.1478
切尔西	-11.1479
的组成部分	-11.1482
▁工作组	-11.1482
的理想	-11.1483
的领导	-11.1484
轻易	-11.1484
游行	-11.1484
这段	-11.1489
的现有	-11.1492
ass	-11.1496
9/	-11.1496
有毒	-11.1499
130	-11.1506
福特	-11.1508
手臂	-11.1509
并不能	-11.1511
瘾	-11.1511
哭泣	-11.1511
胁迫	-11.1511
模仿	-11.1514
板上	-11.1516
精心	-11.1517
卡特	-11.1518
及相关	-11.1518
的支持下	-11.1519
查找	-11.1521
几周	-11.1521
tion	-11.1522
失效	-11.1524
不清	-11.1529
地方当局	-11.1529
的可行性	-11.1529
策	-11.153
▁本组织	-11.1531
欧元区	-11.1531
中立	-11.1532
学员	-11.1535
的提案	-11.1535
无论如何	-11.1536
的好处	-11.1538
加深	-11.1538
星球	-11.1542
标志着	-11.1542
赚	-11.1543
世界各地的	-11.1543
募	-11.1545
盾	-11.1546
区域合作	-11.1546
以确定	-11.1546
支气管	-11.1546
危及	-11.155
性剥削	-11.1551
委员会还	-11.1551
溶解	-11.1552
多层	-11.1552
充当	-11.1554
保护儿童	-11.1555
卡罗	-11.1557
司法机构	-11.1558
ai	-11.1559
向你	-11.1562
仪表	-11.1565
双手	-11.1565
St	-11.1566
不平衡	-11.1566
芳	-11.1567
这是一种	-11.1567
将通过	-11.1567
▁就像	-11.1568
亲自	-11.1571
所有相关	-11.1575
布置	-11.1578
还注意到	-11.1578
作用下	-11.1579
雇佣	-11.1579
铲	-11.1581
几内亚比绍	-11.1581
栽培	-11.1581
概况	-11.1581
考验	-11.1582
抚养	-11.1582
化石	-11.1582
护照	-11.1583
购置	-11.1583
剩下的	-11.1583
国家人权机构	-11.1583
可能性	-11.1583
赠款	-11.1584
填写	-11.1585
科索沃特派团	-11.1586
赢得了	-11.1587
表示支持	-11.1589
口腔	-11.1589
一口	-11.1589
神经元	-11.1589
请秘书处	-11.1591
表现为	-11.1593
工业发展	-11.1596
因为她	-11.1596
今后的	-11.1597
被拘留	-11.1599
并加强	-11.1601
03	-11.1603
一艘	-11.1603
甚至是	-11.1604
军方	-11.1604
也就是说	-11.1604
被动	-11.1607
位移	-11.1607
了一下	-11.1608
附件二	-11.161
月初	-11.1611
但她	-11.1611
白天	-11.1614
读书	-11.1614
庙	-11.1615
鳞	-11.1616
搏	-11.1616
杀伤人员地雷	-11.1616
保加利亚	-11.1616
tu	-11.1616
又有	-11.1617
竞争对手	-11.1618
缴纳	-11.1619
拟议的	-11.1621
每天都	-11.1621
国际机构	-11.1623
载荷	-11.1624
高级官员	-11.1624
疑问	-11.1625
得起	-11.1631
长期以来	-11.1634
小小的	-11.1634
多大	-11.1635
星期四	-11.1636
军人	-11.1639
并应	-11.1649
成千上万	-11.1651
摩托车	-11.1651
郑	-11.1651
的规模	-11.1651
奖学金	-11.1651
英镑	-11.1651
噪音	-11.1651
竞赛	-11.1652
内陆发展中国家	-11.1653
▁70.	-11.1654
舞台	-11.1655
的现状	-11.1656
内陆	-11.1671
通过一项	-11.1672
微小	-11.1675
交易所	-11.168
火星	-11.1681
水质	-11.1681
当天	-11.1682
计算方法	-11.1683
委员会的工作	-11.1683
梗	-11.1686
毛里求斯	-11.1686
抢劫	-11.1686
妥善	-11.1686
愿望	-11.169
燃气	-11.169
朋友们	-11.169
est	-11.1691
的背景	-11.1692
以实现	-11.1701
深刻	-11.1705
会议期间	-11.1707
希望能	-11.1708
手里	-11.1709
四周	-11.1709
qu	-11.171
一件事	-11.171
中得到	-11.1712
包括通过	-11.1714
只需要	-11.1715
遥	-11.1716
学生们	-11.1716
最具	-11.1718
异议	-11.1721
另一些	-11.1721
肌肤	-11.1722
带领	-11.1723
分布式	-11.1724
经济危机	-11.1725
100%	-11.1726
否定	-11.1728
戴维	-11.1729
为您	-11.1731
系统地	-11.1734
自身的	-11.1735
薄弱	-11.1736
题目	-11.1737
家用	-11.1739
除外	-11.1745
▁第四	-11.1745
眼前	-11.175
易受	-11.1752
MP	-11.1753
但由于	-11.1756
皱	-11.1756
梨	-11.1757
联刚特派团	-11.1757
莫桑比克	-11.1757
综合性	-11.1757
队员	-11.1759
称赞	-11.176
被用来	-11.1766
较低的	-11.1772
科学技术	-11.1772
编号	-11.1775
为此目的	-11.1779
不当	-11.1781
con	-11.1782
教育部	-11.1782
存放	-11.1782
箭	-11.1785
总会	-11.1786
朵	-11.1788
括	-11.179
补助金	-11.1791
轻微	-11.1792
萨尔瓦多	-11.1792
哥哥	-11.1793
千年宣言	-11.1794
09	-11.1794
姐妹	-11.1795
神话	-11.1795
登录	-11.1796
就其	-11.1796
果实	-11.1796
最严重的	-11.1799
达成协议	-11.18
lin	-11.1802
捕获	-11.1803
穿上	-11.1805
罢	-11.1806
▁新型	-11.1806
一处	-11.1811
可以帮助	-11.1812
年起	-11.1813
其他地方	-11.1813
常用	-11.1814
之类的	-11.1819
的职能	-11.1819
亨	-11.1824
申报	-11.1825
醛	-11.1827
各种各样的	-11.1828
布基纳法索	-11.1828
公民权利和政治权利国际公约	-11.1828
公斤	-11.1829
杀人	-11.1829
海啸	-11.1829
空气中	-11.183
赋	-11.183
驳回	-11.183
折磨	-11.1831
条的规定	-11.1832
发病率	-11.1833
经济衰退	-11.1837
口译	-11.1837
图书	-11.1838
资本主义	-11.184
情节	-11.184
随意	-11.1841
将它	-11.1842
证件	-11.1842
早已	-11.1844
重力	-11.1844
高峰	-11.1846
he	-11.1846
要把	-11.1846
辨	-11.1847
他的妻子	-11.1847
是一名	-11.1847
早餐	-11.1848
▁直到	-11.1849
从不	-11.1855
殖民	-11.1859
狭	-11.1864
禽	-11.1864
斯洛文尼亚	-11.1864
碘	-11.1864
谦	-11.1864
饮用水	-11.1865
捕捞	-11.1865
很低	-11.1866
不包括	-11.1866
决赛	-11.1867
内涵	-11.1869
评级	-11.1871
AD	-11.1873
做成	-11.1874
ton	-11.1876
恒星	-11.1877
大胆	-11.1878
二者	-11.1878
燃油	-11.1882
国防部	-11.1883
行走	-11.1883
发展权	-11.1885
并强调	-11.1889
高等	-11.1893
免遭	-11.1894
该问题	-11.1897
LA	-11.1897
众议院	-11.19
妇发基金	-11.19
伺服	-11.19
140	-11.1901
振兴	-11.1901
朝着	-11.1904
偶然	-11.1906
令人满意	-11.1907
次全体会议	-11.1908
选择了	-11.1908
受过	-11.1909
着我	-11.191
纤维素	-11.191
优雅	-11.1911
写道	-11.1911
▁让我们	-11.1916
奥运	-11.1916
各项活动	-11.1919
祖国	-11.1921
送给	-11.1922
热爱	-11.1924
如果我	-11.1925
格里	-11.1927
夜间	-11.1928
崇	-11.1928
恰当	-11.1931
有过	-11.1934
抗原	-11.1934
提供咨询	-11.1935
脆	-11.1935
愤	-11.1936
粗糙	-11.1936
人权事务委员会	-11.1936
骨髓	-11.1938
安慰	-11.1938
ey	-11.1943
使用武力	-11.1943
指明	-11.1944
其他机构	-11.1944
延误	-11.1945
补充说	-11.1947
来实现	-11.1951
取得的进展	-11.1953
的每一	-11.1954
毫	-11.1957
越来越多	-11.1957
就没有	-11.1957
有足够的	-11.1961
ser	-11.1964
内部审计	-11.1966
代理人	-11.1966
周六	-11.1968
以防止	-11.1969
穿越	-11.197
院长	-11.197
中介	-11.197
钝	-11.1972
/54/	-11.1972
▁代理主席	-11.1972
在同次会议上	-11.1972
崇拜	-11.1973
轿车	-11.1973
禁令	-11.1973
简介	-11.1973
总裁	-11.1974
表情	-11.1975
传染病	-11.1975
▁那是	-11.1975
草稿	-11.1975
界限	-11.1978
反应堆	-11.198
CE	-11.1981
han	-11.1981
真菌	-11.1983
普遍性	-11.1985
岛上	-11.1987
终结	-11.1987
膝	-11.1988
的整体	-11.1993
骚扰	-11.1994
射击	-11.1996
本书	-11.1998
轰	-11.2006
的愿望	-11.2008
乐趣	-11.2008
研究者	-11.201
撰写	-11.201
获益	-11.201
出色	-11.2011
圆柱	-11.2013
路线图	-11.2014
一事	-11.2014
技术研究	-11.2015
预言	-11.2018
交货	-11.2021
02	-11.2022
负面	-11.2027
东欧	-11.2028
物理学	-11.2032
番	-11.2033
固有	-11.2034
码头	-11.2036
研究生	-11.2039
拒	-11.2041
温室气体	-11.2041
降至	-11.2042
共和国总统	-11.2043
雇	-11.2043
醋	-11.2044
奴	-11.2045
煎	-11.2045
姜	-11.2045
立陶宛	-11.2045
侵蚀	-11.2045
荣幸	-11.2046
杰克逊	-11.2046
灯光	-11.2046
走廊	-11.2047
精彩	-11.205
而且也	-11.205
山脉	-11.2053
预防性	-11.2055
研究结果	-11.2057
多元化	-11.2058
下述	-11.2061
美术	-11.2061
罗姆人	-11.2062
歇	-11.2063
酸性	-11.2067
的文章	-11.2067
听取了	-11.2069
总量	-11.2069
向量	-11.207
Ch	-11.2071
和维护	-11.2071
核准的	-11.2079
合约	-11.208
钢管	-11.208
▁在这种情况下	-11.2081
躁	-11.2082
瞧	-11.2082
措辞	-11.2082
在今年	-11.2083
百姓	-11.2083
▁73.	-11.2084
奇怪的	-11.2085
认捐	-11.2088
琼斯	-11.2088
透明的	-11.2089
截面	-11.2091
不错的	-11.2092
▁接着	-11.2095
发展伙伴	-11.2096
海域	-11.2096
闻名	-11.2096
气味	-11.2098
感受到	-11.2099
包围	-11.2104
▁但在	-11.2105
校正	-11.2106
取向	-11.2108
应以	-11.2109
部长级会议	-11.2113
方面取得的进展	-11.2116
RS	-11.2116
的梦想	-11.2117
/68/	-11.2117
锻	-11.2118
语句	-11.2119
谅解	-11.2119
董事	-11.2121
常规武器	-11.2123
大会主席	-11.2124
影响因素	-11.2124
聊天	-11.2126
结果显示	-11.2128
1.5	-11.2128
混合物	-11.213
紫色	-11.213
cop	-11.2138
也不是	-11.2138
我们所	-11.2138
夸	-11.2143
了下来	-11.2144
奥斯	-11.2144
判处	-11.2145
人类发展	-11.2145
滩	-11.2147
猴	-11.2148
届特别会议	-11.2148
那只	-11.2149
佣	-11.2155
冈	-11.2155
不扩散核武器条约	-11.2155
马耳他	-11.2155
贯彻	-11.2155
hrc	-11.2156
飓风	-11.2156
并根据	-11.2158
错过	-11.2159
这款	-11.2159
观察团	-11.2163
滚动	-11.2164
出台	-11.2165
ER	-11.2167
conf	-11.2168
预计将	-11.2169
ack	-11.217
不定	-11.2171
就算	-11.2172
罗德	-11.2173
决不	-11.2178
让它	-11.218
启动了	-11.2181
表达式	-11.2181
降落	-11.2182
来解决	-11.2183
它们在	-11.2183
地下水	-11.2184
活着	-11.2186
驾	-11.2188
详	-11.219
契	-11.219
圆桌会议	-11.2192
堤	-11.2192
很高的	-11.2193
工作量	-11.2194
碰到	-11.2198
乘坐	-11.22
人力资源管理	-11.22
跑步	-11.2201
大臣	-11.2202
跳舞	-11.2202
审查会议	-11.2203
喷射	-11.2203
绘	-11.2205
一番	-11.2205
跨国公司	-11.2207
错了	-11.2211
最后一个	-11.2214
出席了	-11.2216
筹备工作	-11.2216
了解到	-11.2217
角落	-11.2218
姆斯	-11.2219
联合国总部	-11.2219
即使在	-11.222
的框架内	-11.2225
波特	-11.2226
其后	-11.2226
请你	-11.2227
慈	-11.2229
▁这意味着	-11.2229
奠	-11.223
联合国国家工作队	-11.223
姿态	-11.223
unep	-11.223
珍珠	-11.223
示范法	-11.2231
1986	-11.2236
平板	-11.2237
的经费	-11.2238
牵头	-11.2239
安娜	-11.224
股权	-11.2242
不公平	-11.2243
第六条	-11.2243
政治意愿	-11.2243
人权和基本自由	-11.2247
欧洲委员会	-11.2251
女王	-11.2253
排序	-11.2254
迫	-11.2254
是多么	-11.2256
我们希望	-11.2257
源自	-11.2258
切除术	-11.226
琼	-11.2261
这一进程	-11.2261
PA	-11.2263
现任	-11.2264
塌	-11.2265
卜	-11.2267
内部监督事务厅	-11.2267
杉	-11.2267
薯	-11.2267
巴拿马	-11.2267
第一章	-11.2268
褐色	-11.2269
谋求	-11.2269
他希望	-11.227
皮革	-11.227
张力	-11.2271
行驶	-11.2273
期刊	-11.2273
裁判	-11.2275
志愿	-11.2275
sha	-11.2276
联合国志愿人员	-11.2277
接纳	-11.2279
幼儿	-11.228
描述了	-11.2286
的优点	-11.2287
血压	-11.229
牵引	-11.229
尝	-11.229
电位	-11.229
羊毛	-11.229
路由	-11.2294
较好	-11.2296
一级的	-11.2297
魂	-11.2302
仔	-11.2302
挫	-11.2304
茂	-11.2304
舟	-11.2304
印第安	-11.2304
/55/	-11.2305
统筹	-11.2305
效率和	-11.2305
几乎没有	-11.2306
撤离	-11.2306
艰苦	-11.2306
辅导	-11.2306
吻合	-11.2308
行动者	-11.231
杂交	-11.2312
儿童权利委员会	-11.2313
吃惊	-11.2313
报告了	-11.2315
/53/	-11.2316
侵犯人权行为	-11.2317
本文件	-11.2322
ee	-11.2323
阻塞	-11.2324
行政部门	-11.2332
上方	-11.2333
记载	-11.2335
校长	-11.2336
掺	-11.2339
煤气	-11.2339
都需要	-11.2339
榜	-11.2341
最多的	-11.2341
众所周知	-11.2342
栋	-11.2342
型号	-11.2342
残酷	-11.2343
该机构	-11.2344
农产品	-11.2345
欢乐	-11.2345
胞	-11.2346
宴	-11.2349
▁我还	-11.2353
的人都	-11.2354
表示赞赏	-11.2354
结合起来	-11.2355
的形象	-11.2356
投影	-11.2357
个星期	-11.2358
目光	-11.2359
保护区	-11.2361
布尔	-11.2365
必须是	-11.2366
上网	-11.2371
地表	-11.2373
批款	-11.2375
悟	-11.238
蚕	-11.238
贿	-11.238
卖方	-11.238
的根源	-11.238
低收入	-11.238
着他	-11.238
孤立	-11.2382
有利的	-11.2383
钻井	-11.2383
主持人	-11.2384
简易	-11.2384
紧缩	-11.2384
章程	-11.2384
▁世界	-11.2386
人口贩运	-11.2386
只是一个	-11.2388
子弹	-11.2389
它也	-11.239
化学武器	-11.2392
物料	-11.2392
对那些	-11.2394
吸入	-11.2395
迹象	-11.2395
质量控制	-11.2398
字节	-11.2402
镜子	-11.2404
家乡	-11.2404
本土	-11.2405
帮你	-11.2407
社会保护	-11.2408
反恐怖主义	-11.2409
驶	-11.2411
纵向	-11.2414
执行情况报告	-11.2415
成立的	-11.2416
鲸	-11.2416
夕	-11.2417
–	-11.2418
妥协	-11.2418
逃避	-11.2418
煤炭	-11.2419
欲望	-11.2419
胎儿	-11.242
维持和平特派团	-11.2422
不同于	-11.2422
原有	-11.2423
发给	-11.2424
驱动器	-11.2424
插件	-11.2425
耐磨	-11.2425
缓存	-11.2429
选取	-11.2429
也需要	-11.2432
污染物	-11.2432
司法系统	-11.2437
深远	-11.2439
伯格	-11.2443
无机	-11.2443
三天	-11.2445
你可能	-11.2447
▁就在	-11.2449
战术	-11.245
丧	-11.245
连续性	-11.2451
溴	-11.2455
蕴	-11.2456
好吧	-11.2458
对我来说	-11.2461
悔	-11.2463
及应用	-11.2464
专家们	-11.2464
盯着	-11.2464
的原因是	-11.2468
疫	-11.247
瓦尔	-11.2472
不容易	-11.2474
硝	-11.2475
地毯	-11.2475
委员会审议	-11.2482
筑	-11.2483
核能	-11.2483
并请	-11.2483
无意	-11.2485
日程	-11.2486
聚焦	-11.2488
提供技术援助	-11.2491
益处	-11.2492
盈	-11.2492
进度	-11.2492
卓	-11.2493
过时	-11.2493
抄	-11.2494
宰	-11.2494
灌溉	-11.2494
奥林匹克	-11.2494
忧虑	-11.2494
08	-11.2494
植入	-11.2497
有几个	-11.2497
奇迹	-11.2498
补救办法	-11.2498
临床应用	-11.25
断层	-11.25
四川	-11.25
启示	-11.25
白人	-11.2501
同行	-11.2502
时间来	-11.2502
这是因为	-11.251
配额	-11.2512
过滤器	-11.2512
部份	-11.2512
抵消	-11.2513
fe	-11.2513
晚期	-11.2513
汇款	-11.2516
迫切	-11.252
缴款	-11.252
发布了	-11.2522
庞	-11.2522
佛教	-11.2526
栅	-11.2528
款规定	-11.2528
的头发	-11.2528
忧	-11.253
格尔	-11.2532
仑	-11.2532
裂变材料	-11.2532
养殖	-11.2532
无辜	-11.2533
捕捉	-11.2534
二级	-11.2534
房间里	-11.2536
正交	-11.2543
核算	-11.2549
为确保	-11.2554
大会通过	-11.2555
残疾儿童	-11.2561
我不能	-11.2561
阿里	-11.2567
面临的挑战	-11.2568
究	-11.2569
手套	-11.2569
羞	-11.257
科技咨询机构	-11.257
肆	-11.257
联科行动	-11.2571
分娩	-11.2571
tr	-11.2571
讽刺	-11.2571
SO	-11.2571
ly	-11.2572
布里	-11.2574
福音	-11.2575
净额	-11.2575
iv	-11.2575
切断	-11.2575
宝贝	-11.2575
公告	-11.2577
显微	-11.2578
US	-11.2578
车队	-11.2579
桌面	-11.258
▁当我们	-11.2582
一些代表团	-11.2582
其中有	-11.2586
酪	-11.259
研究发现	-11.259
各缔约方	-11.2591
其他相关	-11.2593
总线	-11.2593
土著人	-11.2593
分成	-11.2595
提交的报告	-11.2597
午	-11.26
数控	-11.2602
数据收集	-11.2603
ham	-11.2603
弗里	-11.2604
04	-11.2604
非公开	-11.2606
廉	-11.2608
颤	-11.2609
沾	-11.2609
查尔斯	-11.2611
医疗保健	-11.2611
铝合金	-11.2612
深处	-11.2613
基地组织	-11.2615
光盘	-11.2615
br	-11.2615
预见	-11.2617
走上	-11.2617
BC	-11.262
提出一种	-11.2621
集群	-11.2622
惯	-11.2623
科尔	-11.2623
本科	-11.2624
提供的资料	-11.2625
自决	-11.2626
全民	-11.2628
的效力	-11.2629
激光器	-11.263
定律	-11.263
找不到	-11.2633
风机	-11.2634
对环境	-11.2636
撤回	-11.2641
这会	-11.2642
做过	-11.2643
两大	-11.2644
建设和平委员会	-11.2645
对他的	-11.2645
Java	-11.2648
诱惑	-11.2648
得出结论	-11.265
祖先	-11.2651
悬浮	-11.2652
法律文书	-11.2652
备用	-11.2652
非常好	-11.2653
inf	-11.2655
吸取	-11.2655
近来	-11.2658
进行评估	-11.266
我发现	-11.2661
他那	-11.2663
手动	-11.2664
与应用	-11.2665
施行	-11.267
变得更加	-11.2672
这些机构	-11.2673
通往	-11.2673
小额	-11.2675
ez	-11.2676
醒来	-11.2676
和宗教	-11.2679
170	-11.2681
举行一次	-11.2682
ind	-11.2683
毕	-11.2684
gc	-11.2684
壤	-11.2685
征收	-11.2686
纷	-11.2686
寺	-11.2687
慷慨	-11.2687
徽	-11.2687
翁	-11.2687
集装箱	-11.2687
加强联合国	-11.2688
成一个	-11.2688
点儿	-11.2689
▁75.	-11.2689
僵局	-11.2689
培训课程	-11.2689
启发	-11.2689
放大器	-11.2696
是否可以	-11.2697
金融市场	-11.2699
纸张	-11.2702
预防犯罪	-11.2703
南北	-11.2712
签发	-11.2712
不属于	-11.2712
年年底	-11.2713
里约	-11.2715
我自己	-11.2722
学历	-11.2724
奋	-11.2724
吵	-11.2725
饿	-11.2726
巴格达	-11.2726
碑	-11.2726
忌	-11.2726
幸存者	-11.2726
滤波	-11.2726
/56/	-11.2726
寻常	-11.2727
尼尔	-11.2727
厂商	-11.2727
资料来源	-11.2727
生产商	-11.2728
▁76.	-11.2728
je	-11.273
冰箱	-11.2734
书写	-11.2735
教材	-11.2735
可行性	-11.2736
最初的	-11.2738
ick	-11.2739
解决冲突	-11.274
加固	-11.274
卫生保健	-11.2741
绵	-11.2743
cr	-11.2743
云南	-11.2743
主流化	-11.2743
尾巴	-11.2745
原先	-11.2748
该中心	-11.2751
一个星期	-11.2751
电网	-11.2751
嫌	-11.2763
主要原因是	-11.2765
坯	-11.2765
胚胎	-11.2765
ist	-11.2766
礼拜	-11.2767
自愿捐款	-11.2767
眼泪	-11.2769
AM	-11.277
走私	-11.2771
气动	-11.2772
方面取得了	-11.2775
医疗服务	-11.2776
不断增加	-11.2779
公共政策	-11.2782
国家和区域	-11.2782
机床	-11.2785
高原	-11.2786
罪行的	-11.2787
作出努力	-11.2789
保健和	-11.2794
的潜力	-11.2796
协调中心	-11.2799
遵	-11.28
的细节	-11.2801
目的在于	-11.2801
不一致	-11.2804
狄	-11.2804
穗	-11.2804
腕	-11.2804
债权人	-11.2804
雕刻	-11.2805
公共服务	-11.2806
团伙	-11.2807
申明	-11.2807
准许	-11.2807
合作社	-11.2808
▁当他	-11.2808
回返	-11.281
有力的	-11.281
科学研究	-11.2813
懂得	-11.2815
秋天	-11.2819
实验研究	-11.282
经济活动	-11.2822
开口	-11.2826
国民议会	-11.2826
增值	-11.2828
托管	-11.2828
发展目标	-11.2829
长远	-11.2834
在那儿	-11.2835
不容忍	-11.2836
彼	-11.2836
星星	-11.2839
疾	-11.2841
战略框架	-11.2843
备忘录	-11.2844
笨	-11.2844
纬	-11.2844
惹	-11.2844
靶	-11.2844
簿	-11.2844
藉	-11.2844
沉淀	-11.2844
蒙特利尔议定书	-11.2844
孤儿	-11.2844
水下	-11.2846
裂纹	-11.2847
jo	-11.2849
采样	-11.2849
检察官办公室	-11.2849
与此	-11.2851
近似	-11.2852
洗衣	-11.2853
军火	-11.2855
坚强	-11.2858
好奇	-11.286
开展活动	-11.286
国际劳工组织	-11.2862
均有	-11.2863
外壳	-11.2866
最后一次	-11.287
伊斯兰教	-11.2876
企	-11.2877
同期	-11.2878
大致	-11.2881
公认的	-11.2881
表示感谢	-11.2882
早在	-11.2882
悠	-11.2883
再一次	-11.2883
赴	-11.2884
妹妹	-11.2884
纷纷	-11.2884
追溯	-11.2884
挂钩	-11.2885
▁72.	-11.2885
压迫	-11.2886
显微镜	-11.2886
家庭成员	-11.2887
数百万	-11.2887
误解	-11.2888
广义	-11.2888
备份	-11.2889
打印机	-11.2894
(3)	-11.2896
▁目的观察	-11.2897
永远不会	-11.2897
世界首脑会议	-11.2898
的命运	-11.2901
塑造	-11.2902
来临	-11.2904
学研究	-11.2904
流行病	-11.2905
这是我	-11.2907
津	-11.2917
削	-11.292
来讲	-11.292
嵌	-11.292
问题工作组	-11.2922
成品	-11.2922
蚁	-11.2923
碧	-11.2923
审讯	-11.2925
涉嫌	-11.2926
骑士	-11.2926
依旧	-11.2927
产妇	-11.2927
学术界	-11.2927
名妇女	-11.2929
视野	-11.2933
指望	-11.2934
二维	-11.2935
配套	-11.2935
设立了一个	-11.2935
连接到	-11.2937
主教	-11.2941
枕	-11.2942
有兴趣	-11.2943
都知道	-11.2948
约束力	-11.2948
当我们	-11.2949
躺	-11.2951
一次性	-11.2953
综	-11.2956
特里	-11.296
我只是	-11.2963
▁在一个	-11.2963
胰岛素	-11.2963
前列腺	-11.2963
爱德华	-11.2963
抛弃	-11.2964
我感到	-11.2964
付诸	-11.2965
礼貌	-11.2965
沙发	-11.2967
不动	-11.2969
简短	-11.297
之间的合作	-11.2972
着重指出	-11.2972
东亚	-11.2974
复活	-11.2975
▁哦	-11.2978
一枚	-11.2978
第一部分	-11.2979
聘用	-11.298
ash	-11.2981
抗氧化	-11.2983
神奇	-11.2984
日历	-11.2988
定性	-11.2988
数字化	-11.2989
拥	-11.2991
一项关于	-11.2995
期待着	-11.2995
联合国系统内	-11.2996
ug	-11.3001
亏	-11.3003
▁研究人员	-11.3004
豹	-11.3004
联利特派团	-11.3004
普遍定期审议	-11.3004
世界贸易组织	-11.3004
批判	-11.3004
外地办事处	-11.3007
振荡	-11.3007
稀土	-11.3008
使人们	-11.3009
抵制	-11.3009
网址	-11.3009
数学模型	-11.3012
步伐	-11.3016
所作的努力	-11.3016
延期	-11.3018
歌手	-11.3018
ame	-11.3019
主管部门	-11.3023
联合国秘书长	-11.3024
直流	-11.3024
信件	-11.3025
秘书长特别代表	-11.3027
兑	-11.3027
建立起	-11.3028
从来不	-11.303
dp	-11.3036
宽容	-11.3036
可疑	-11.3039
开来	-11.3039
斥	-11.3043
娅	-11.3044
闪烁	-11.3044
战场	-11.3044
行为体	-11.3044
刑法典	-11.3045
衍生	-11.3045
结论性意见	-11.3046
潮湿	-11.3047
保卫	-11.3049
技术支持	-11.305
已于	-11.3051
大规模的	-11.3052
1967	-11.3055
实施情况	-11.3057
联合国环境规划署	-11.3057
we	-11.3058
并要求	-11.306
歌唱	-11.306
屋子	-11.3061
提供信息	-11.3065
无国籍	-11.3066
装有	-11.3066
保护人权	-11.3067
az	-11.3069
橙	-11.3072
政治家	-11.3076
:「	-11.3076
美容	-11.3076
间隙	-11.3076
市场经济	-11.3077
住宿	-11.3077
有效性	-11.3077
单身	-11.3078
xx	-11.3082
收养	-11.3083
撕	-11.3084
艳	-11.3084
里程碑	-11.3084
嗜	-11.3084
到期	-11.3085
预防措施	-11.3086
并支持	-11.3086
草原	-11.3086
氨基酸	-11.3086
大街	-11.3087
艘	-11.3087
轰炸	-11.3087
全球环境基金	-11.3087
文职人员	-11.3087
被判	-11.309
新疆	-11.3091
紧紧	-11.3092
奖金	-11.3092
这次会议	-11.3092
碳酸	-11.3093
抬	-11.3094
Re	-11.3094
光滑	-11.3096
的情形	-11.3096
/1999/	-11.3097
执行情况的	-11.3098
读取	-11.3099
锁定	-11.3101
棉花	-11.3101
违法	-11.3102
min	-11.3103
本决议	-11.3105
的主流	-11.3106
限定	-11.3106
让自己	-11.3109
一首	-11.3115
不予	-11.3115
不过是	-11.312
确保所有	-11.3122
楚	-11.3123
砍	-11.3125
韵	-11.3125
姐姐	-11.3125
四分之一	-11.3125
社会福利	-11.3126
外包	-11.3126
广东省	-11.3126
儿童问题	-11.3129
斯科	-11.3129
粉碎	-11.3129
最喜欢的	-11.313
呼叫	-11.3131
进球	-11.3132
借款	-11.3133
为促进	-11.3134
和私营部门	-11.3134
发展筹资	-11.3135
偏远	-11.3137
对人类	-11.3138
不容	-11.3139
▁本文对	-11.314
信徒	-11.314
硬度	-11.3142
fr	-11.3144
不易	-11.3147
西藏	-11.3149
将不会	-11.3149
显现	-11.3149
应有的	-11.315
频道	-11.3155
优于	-11.3155
食管	-11.3156
制订了	-11.3156
第二条	-11.3156
郊	-11.316
57/	-11.316
也无法	-11.3164
人类住区	-11.3166
蝴蝶	-11.3166
▁79.	-11.3167
羽毛	-11.3168
涡轮	-11.3169
天赋	-11.3169
信誉	-11.3169
多糖	-11.317
来源于	-11.3171
散步	-11.3176
月以来	-11.3178
户外	-11.3181
伸出	-11.3182
追加	-11.3184
关切的是	-11.3185
体会	-11.3186
答应	-11.3189
lan	-11.3189
言语	-11.319
判定	-11.319
亲密	-11.3195
左边	-11.3198
的重要组成部分	-11.3198
过后	-11.32
全国各地	-11.3202
密钥	-11.3203
旨	-11.3206
盒子	-11.3206
ina	-11.3206
大不列颠及北爱尔兰联合王国	-11.3207
迭代	-11.3208
男士	-11.3212
极度	-11.3213
指的是	-11.3214
还有一个	-11.3215
飞行员	-11.3217
2.5	-11.3218
生涯	-11.3223
ji	-11.3228
俄国	-11.3228
水域	-11.3228
所有会员国	-11.323
ty	-11.323
各缔约国	-11.3231
保险公司	-11.3232
否	-11.3234
泳	-11.3241
恰	-11.3243
瞬	-11.3244
发展援助	-11.3245
他已经	-11.3246
件事	-11.3247
耻	-11.3248
生产线	-11.3248
洽	-11.3248
邓	-11.3248
这项研究	-11.3248
一致认为	-11.3248
增殖	-11.3248
卓越	-11.3249
一双	-11.3249
帮忙	-11.325
基金和方案	-11.325
排雷	-11.3252
纲要	-11.3253
ani	-11.3254
贯穿	-11.3257
▁我喜欢	-11.3257
紫外	-11.3257
审视	-11.3257
重返社会	-11.326
精简	-11.3261
脆弱的	-11.3261
归还	-11.3265
此刻	-11.3267
矿床	-11.3267
平滑	-11.3271
金斯	-11.3272
更有效地	-11.3273
树林	-11.3275
亲属	-11.3276
草地	-11.3277
SOA	-11.3278
强调必须	-11.328
构成部分	-11.3282
各州	-11.3284
螺	-11.3285
相一致	-11.3287
耀	-11.3289
哀	-11.3289
卤	-11.3289
后勤基地	-11.329
大厦	-11.329
但现在	-11.3292
表达了	-11.3292
冷冻	-11.3293
绝望	-11.3293
全新的	-11.3294
灌木	-11.3295
推测	-11.3297
情景	-11.3298
的前景	-11.3298
的真实	-11.3299
以免	-11.3304
伴随着	-11.3304
咨询小组	-11.3305
冷战	-11.3307
印尼	-11.3308
构件	-11.331
▁他表示	-11.3311
所提	-11.3313
南苏丹	-11.3315
转子	-11.3317
生物技术	-11.3319
我的心	-11.3319
酸钠	-11.3322
敏感性	-11.3323
国际原子能机构	-11.3326
脾	-11.3327
眠	-11.3329
跟随	-11.3329
被指控	-11.3329
附带	-11.3329
乏	-11.333
存活	-11.333
里亚	-11.333
的宗旨	-11.333
窦	-11.3331
熏	-11.3331
缀	-11.3331
晃	-11.3331
灶	-11.3331
概括	-11.3331
搜寻	-11.3331
然后再	-11.3332
假如	-11.3334
戒指	-11.3334
cl	-11.3334
PD	-11.3335
其中一些	-11.3336
爱国	-11.3336
结肠	-11.3337
他们认为	-11.3337
预备	-11.3338
石墨	-11.3338
概要	-11.3339
做一个	-11.3343
统计数字	-11.3344
表征	-11.3346
两个月	-11.3348
词语	-11.3348
复员	-11.3349
190	-11.3351
缆	-11.3352
还有一些	-11.3361
德斯	-11.3362
Ro	-11.3362
显示器	-11.3363
MI	-11.3369
循	-11.3371
砸	-11.3372
稠	-11.3372
铵	-11.3372
不结盟运动	-11.3373
见解	-11.3373
触摸	-11.3373
脖子	-11.3374
达成共识	-11.3374
你觉得	-11.3374
相处	-11.3374
猜测	-11.3374
得太	-11.3375
▁本研究	-11.3375
一般事务人员	-11.3378
名词	-11.3381
我不想	-11.3382
常设委员会	-11.3384
人文	-11.3388
小镇	-11.3389
发展方案	-11.3389
见证	-11.339
毯	-11.3393
联合国秘书处	-11.3394
变为	-11.3398
国家政策	-11.3401
制冷	-11.3401
近代	-11.3403
我一直	-11.3407
该司	-11.3407
主席先生	-11.341
160	-11.341
寸	-11.3413
呵	-11.3414
徐	-11.3414
茫	-11.3414
吉尔吉斯斯坦	-11.3414
托马斯	-11.3414
wg	-11.3415
奴役	-11.3415
皇帝	-11.3415
治愈	-11.3416
楼梯	-11.3416
执行秘书	-11.3416
邮政	-11.3417
氨基	-11.3418
国际上	-11.3419
罗姆	-11.342
格局	-11.3421
if	-11.3422
着你	-11.3424
表中	-11.3424
社团	-11.3425
州长	-11.3426
Mar	-11.3428
负责任的	-11.3429
精华	-11.3431
一节	-11.3433
iz	-11.3435
未知	-11.3436
激烈的	-11.3437
通行	-11.3439
公共汽车	-11.3441
被用于	-11.3444
如果我们	-11.3444
高科技	-11.3447
添加剂	-11.3447
荷载	-11.345
伴随	-11.3451
一届会议	-11.3453
几百	-11.3454
大厅	-11.3456
迦	-11.3456
哥本哈根	-11.3456
昔	-11.3456
钦	-11.3456
尼日尔	-11.3456
减速	-11.3457
残忍	-11.3457
缺损	-11.3458
凭借	-11.3458
根除	-11.3461
法则	-11.3465
他又	-11.3465
拟议预算	-11.3466
语义	-11.347
民警	-11.3471
全局	-11.3477
这使得	-11.348
下令	-11.348
以供	-11.348
是否会	-11.3481
感兴趣的	-11.3481
压制	-11.3481
轮廓	-11.3482
审美	-11.3483
互补	-11.3485
发挥了	-11.3486
一点点	-11.3486
仍未	-11.3488
可作为	-11.3492
美国总统	-11.3495
悉	-11.3495
上个月	-11.3496
密切相关	-11.3496
洛克	-11.3498
悦	-11.3498
欺	-11.3498
状态下	-11.3498
不可或缺	-11.3499
执行部分第	-11.3499
螺纹	-11.3499
任用	-11.35
详尽	-11.35
出版社	-11.3502
在阿富汗	-11.3503
丧生	-11.3503
减肥	-11.3504
会见	-11.3505
our	-11.3505
精英	-11.3509
手提	-11.3514
一半的	-11.3514
放电	-11.3516
有更多的	-11.3521
论证	-11.3522
协调委员会	-11.3526
连同	-11.3529
中午	-11.3533
公共部门会计准则	-11.3533
乐器	-11.3533
色素	-11.3533
无视	-11.3534
望着	-11.3535
灵感	-11.3536
贺	-11.3541
fccc	-11.3541
巴拉圭	-11.3541
挨	-11.3541
桨	-11.3541
橱	-11.3541
赵	-11.3541
鞭	-11.3541
肋	-11.3541
大约有	-11.3541
争夺	-11.3542
避难	-11.3543
澳门	-11.3544
2002-2003	-11.3544
反映在	-11.3545
好象	-11.3546
低压	-11.3546
外联	-11.3547
不再是	-11.3548
宝贵的	-11.3549
双层	-11.3551
较多	-11.3551
清醒	-11.3552
(2000	-11.3553
线圈	-11.3555
终身	-11.3555
镇压	-11.3555
开列	-11.3562
刑事诉讼	-11.3562
太大	-11.3563
du	-11.3567
聊	-11.3568
有些国家	-11.3568
召	-11.3569
浴室	-11.3572
据此	-11.3574
ice	-11.3576
ep	-11.3577
制剂	-11.3577
黎	-11.3578
你喜欢	-11.3581
囚	-11.3582
up	-11.3583
傻	-11.3583
创始人	-11.3583
辉煌	-11.3584
斐济	-11.3584
现在已经	-11.3585
汉堡	-11.3586
不仅仅	-11.3588
恰当的	-11.3589
经由	-11.359
贝宁	-11.359
重庆	-11.3591
色谱	-11.3592
文化遗产	-11.3593
就象	-11.3594
得分	-11.3596
血糖	-11.3598
鸟类	-11.36
警报	-11.3604
出色的	-11.3607
旦	-11.361
克利	-11.361
海牙	-11.3611
政府部门	-11.3613
尤为	-11.3622
颜	-11.3623
ana	-11.3623
编织	-11.3623
葬	-11.3625
工作文件	-11.3625
崩	-11.3626
躯	-11.3626
竟然	-11.3627
所使用的	-11.3628
徒刑	-11.3628
固化	-11.3628
南京	-11.363
摄入	-11.363
气管	-11.3631
矢量	-11.3631
国际货币基金组织	-11.3632
从此	-11.3632
泰勒	-11.3634
简便	-11.3634
优点	-11.3637
不停	-11.3638
在该国	-11.3641
的进展情况	-11.3644
继续支持	-11.3644
纳德	-11.3646
原型	-11.3648
一门	-11.365
参见	-11.3651
深刻的	-11.3653
有效执行	-11.3654
助理秘书长	-11.3655
调查委员会	-11.3656
不堪	-11.3656
产生影响	-11.3657
相连	-11.3659
电线	-11.366
ers	-11.3661
起着	-11.3662
证实了	-11.3662
志愿人员	-11.3662
煤矿	-11.3664
会让你	-11.3666
1.1	-11.3668
世界人权宣言	-11.3669
巴塞尔公约	-11.3669
暑	-11.3669
先决条件	-11.3669
▁74.	-11.3671
而受到	-11.3671
土著民族	-11.3673
保养	-11.3679
替代品	-11.3679
报告称	-11.3681
结核	-11.3683
亚当	-11.3687
条纹	-11.3688
针织	-11.3691
发票	-11.3692
计数	-11.3695
参加者	-11.3695
也必须	-11.3696
ook	-11.3697
一遍	-11.3699
所有人都	-11.3706
休假	-11.3706
提供便利	-11.371
缠	-11.3712
寡	-11.3712
下雨	-11.3712
复员和重返社会	-11.3712
IBM	-11.3712
冷静	-11.3713
培育	-11.3713
感到关切的是	-11.3717
发展趋势	-11.3717
武力	-11.3719
阵列	-11.3721
迈克	-11.3721
.9/	-11.3722
想想	-11.3722
IN	-11.3723
可爱的	-11.3723
这不是	-11.3725
子宫	-11.373
国家报告	-11.3733
深信	-11.3735
又一次	-11.3736
先生说	-11.3738
医师	-11.3745
面部	-11.3747
受益人	-11.3747
常用的	-11.3747
pc	-11.3748
那么你	-11.3749
即时	-11.3752
慰	-11.3753
嘛	-11.3756
摄像机	-11.3756
一揽子	-11.3756
寻求庇护者	-11.3756
采取步骤	-11.3757
crp	-11.3758
侵入	-11.3759
lt	-11.376
剪切	-11.3761
稍微	-11.3762
这点	-11.3763
复发	-11.3769
液晶	-11.377
国家行动计划	-11.3773
曼联	-11.3773
奋斗	-11.3775
一眼	-11.3776
07	-11.3777
名成员	-11.3779
1.2	-11.3781
RE	-11.3781
加强其	-11.3782
植被	-11.3784
杭州	-11.3784
ob	-11.3789
阿拉伯国家	-11.3791
在我国	-11.3792
竭	-11.3794
1970	-11.3796
普查	-11.3796
漠	-11.3796
南极	-11.3798
弟	-11.3799
顾及	-11.3799
涅	-11.3799
纳米比亚	-11.3799
远处	-11.3799
牛仔裤	-11.38
运载	-11.38
不限成员名额工作组	-11.38
美味	-11.3801
养老金	-11.3801
均可	-11.3802
行政管理	-11.3803
监测和评价	-11.3803
推销	-11.3805
浏览器	-11.3809
并呼吁	-11.3811
基质	-11.3811
特设委员会	-11.3812
效能	-11.3813
列出了	-11.3817
升值	-11.3819
根本不	-11.3819
格拉	-11.382
的迹象	-11.3822
执行任务	-11.3832
与此同时	-11.3834
昂贵的	-11.3835
叶子	-11.3836
准确地	-11.3836
仍然存在	-11.3841
绣	-11.3842
抖	-11.3843
膀胱	-11.3843
清洁发展机制	-11.3843
晴	-11.3843
钴	-11.3843
亭	-11.3843
公顷	-11.3843
特别注意	-11.3844
▁77.	-11.3846
有序	-11.3847
解放军	-11.3848
常驻代表	-11.3848
鲜明	-11.385
维和部	-11.385
2020	-11.385
奶油	-11.3853
扩大到	-11.3853
透明度和	-11.3855
oo	-11.3855
装修	-11.3861
种群	-11.3861
等着	-11.3861
公共行政	-11.3862
结构性	-11.3865
来帮助	-11.3866
妆	-11.3868
两份	-11.3869
他是个	-11.3869
谐	-11.3879
缔	-11.3881
选票	-11.3884
赛车	-11.3886
坊	-11.3886
甲状腺	-11.3887
旅程	-11.3887
掩盖	-11.3888
初级商品	-11.3889
珠宝	-11.3889
盖茨	-11.389
气流	-11.389
坚实	-11.3891
关注的是	-11.3893
健康状况	-11.3897
破坏了	-11.3897
实务	-11.3899
所有其他	-11.3904
案情	-11.3906
半岛	-11.3906
过高	-11.3908
有资格	-11.3911
重重	-11.3913
和平协定	-11.3917
英国人	-11.3924
院校	-11.3924
自决权	-11.3924
不只是	-11.3925
优先考虑	-11.3928
罪恶	-11.393
满意地注意到	-11.3931
俯	-11.3931
共产党	-11.3931
视网膜	-11.3931
土库曼斯坦	-11.3931
是我国	-11.3932
乃至	-11.3937
法兰	-11.3939
硬盘	-11.3941
拆除	-11.3943
丙烯酸	-11.3944
苏丹政府	-11.3948
执法人员	-11.3948
等候	-11.395
司令	-11.3951
转到	-11.3953
ner	-11.3953
份报告	-11.3953
剥	-11.3953
建立了一个	-11.3954
职类	-11.3954
越多	-11.3958
保护平民	-11.3962
发生率	-11.3966
职权	-11.397
的意愿	-11.3972
▁他把	-11.3973
增生	-11.3973
恐怖主义行为	-11.3974
▁本实用新型	-11.3975
蟹	-11.3975
离散	-11.3975
笛	-11.3975
恐吓	-11.3975
挤压	-11.3975
拿起	-11.3976
轨迹	-11.3976
▁78.	-11.3976
爆破	-11.3977
领导下	-11.3977
提取物	-11.3978
SI	-11.3978
age	-11.3979
各成员国	-11.3982
1987	-11.3983
防守	-11.3984
治疗方法	-11.3985
连锁	-11.3985
颁布了	-11.3988
非洲大陆	-11.3989
dr	-11.3991
表述	-11.3991
所提出的	-11.3991
年度会议	-11.3992
项链	-11.3994
格雷	-11.3994
只不过是	-11.3994
net	-11.3995
侵	-11.3998
闪光	-11.4002
途中	-11.4003
光束	-11.4003
ris	-11.4005
誉	-11.4007
他曾	-11.4009
水库	-11.4009
大城市	-11.4009
mm	-11.4009
路面	-11.4011
据报告	-11.4012
一份关于	-11.4013
业已	-11.4014
网球	-11.4015
捉	-11.4017
晋	-11.4018
将它们	-11.4019
$	-11.4019
烦恼	-11.402
侦查	-11.402
沙滩	-11.4021
这三个	-11.4022
萧条	-11.4022
回事	-11.4022
城堡	-11.4023
▁81.	-11.4024
秘书长报告	-11.4024
只好	-11.4025
进行讨论	-11.4025
安全局势	-11.4026
生动	-11.4026
电梯	-11.4027
贝克	-11.4031
淡水	-11.4033
总经理	-11.4036
根源	-11.4039
获胜	-11.4041
实证	-11.4042
有价值的	-11.4044
▁目的研究	-11.4044
观察到	-11.4046
星系	-11.4047
宣传活动	-11.4047
发出了	-11.4048
del	-11.4048
非法贩运	-11.4051
很好地	-11.4051
生病	-11.4052
san	-11.4053
提供必要的	-11.4053
尊重人权	-11.4054
har	-11.4057
撑	-11.4062
http	-11.4064
浩	-11.4064
氰	-11.4064
单片机	-11.4065
战争罪	-11.4066
下属	-11.4067
施政	-11.4067
为什么不	-11.4068
天津	-11.4069
菲尔德	-11.4069
招标	-11.4069
提出的问题	-11.407
恶意	-11.407
郊区	-11.4071
梯度	-11.4071
代表团认为	-11.4072
应考虑	-11.4073
路透	-11.4076
优越	-11.4077
在这儿	-11.4079
举动	-11.4081
手法	-11.4082
生化	-11.4084
点燃	-11.4087
公立	-11.4087
顶端	-11.4088
队列	-11.4089
曲面	-11.4096
那么多	-11.4097
明确规定	-11.4097
信函	-11.4098
石英	-11.41
潜水	-11.4102
粮食计划署	-11.4103
救灾	-11.4104
作法	-11.4104
在地上	-11.4105
痴	-11.4108
给安全理事会主席的信	-11.4109
咸	-11.4109
华尔街	-11.4109
喘	-11.4109
硼	-11.4109
票弃权	-11.4109
鸽	-11.4109
原籍国	-11.4109
敷	-11.4109
洗涤	-11.4109
戴着	-11.411
传媒	-11.411
起点	-11.4113
生产能力	-11.4113
几分钟	-11.4113
原材料	-11.4114
名誉	-11.4115
接入	-11.4115
双向	-11.4115
我不会	-11.4115
挥发	-11.4116
1985	-11.4116
图标	-11.4118
天内	-11.412
消除贫困	-11.4122
流产	-11.4125
都不会	-11.4126
les	-11.4126
磺	-11.4127
领空	-11.4127
进行谈判	-11.4127
发了言	-11.413
还建议	-11.4131
身材	-11.4132
日生效	-11.4136
字体	-11.4136
证据表明	-11.4137
一定是	-11.4145
为原料	-11.4146
必须确保	-11.4147
既有	-11.4148
耐药	-11.4151
妄	-11.4154
发作	-11.4154
可怜的	-11.4155
重要的作用	-11.4155
附加议定书	-11.4156
拓展	-11.4157
机密	-11.4157
贵公司	-11.416
惊奇	-11.4161
破坏性	-11.4162
进一步发展	-11.4162
没能	-11.4162
六十	-11.4163
下降了	-11.4168
银行家	-11.4171
初次	-11.4181
潮流	-11.4183
各部	-11.4184
苦难	-11.4185
报告指出	-11.4186
芒	-11.4188
以色列人	-11.4189
中央银行	-11.419
切削	-11.4192
身份证	-11.4197
棱	-11.4199
渊	-11.4199
翅膀	-11.4199
娃娃	-11.4199
螺栓	-11.4199
过去十年	-11.42
一届	-11.4201
可获得	-11.4202
严重影响	-11.4202
环境问题	-11.4202
笑容	-11.4203
爱好	-11.4204
环绕	-11.4204
初探	-11.4204
矿业	-11.4204
虚假	-11.4205
载列	-11.4205
感冒	-11.4206
枪支	-11.4206
照射	-11.4206
市中心	-11.4209
石灰	-11.4213
准确性	-11.4213
条和第	-11.4214
把你的	-11.4214
传奇	-11.4215
油价	-11.4216
办法是	-11.4221
所在地	-11.4222
我方	-11.4223
中国人民	-11.4223
会话	-11.4225
腹部	-11.4229
水解	-11.423
生命中	-11.4235
编写了	-11.4236
组分	-11.4239
踪	-11.4241
人权教育	-11.4241
第七条	-11.4242
撰	-11.4243
懒	-11.4244
闯	-11.4244
铣	-11.4245
爱沙尼亚	-11.4245
逸	-11.4245
洪都拉斯	-11.4245
上空盘旋	-11.4245
澳洲	-11.4245
详情	-11.4245
第二阶段	-11.4246
职业生涯	-11.4246
探险	-11.4246
成果文件	-11.4246
威尔士	-11.4247
移徙工人	-11.4248
领域内	-11.4248
后卫	-11.4248
卧室	-11.4249
修饰	-11.4249
发挥重要作用	-11.425
造影	-11.425
伤心	-11.4252
该文件	-11.4253
磁性	-11.4253
遇见	-11.4253
第一委员会	-11.4254
氛围	-11.4257
那边	-11.4257
▁本文介绍了	-11.4258
更详细	-11.4259
Mo	-11.426
防腐	-11.4262
血症	-11.4263
毁坏	-11.4264
注定	-11.4266
巴士	-11.4267
两只	-11.4268
石油公司	-11.4269
知道你	-11.427
实际上是	-11.4271
迫害	-11.4274
外表	-11.4275
平原	-11.4277
很长时间	-11.428
奥尔	-11.428
叛	-11.4284
服从	-11.4287
银行业	-11.4287
愁	-11.429
联苏特派团	-11.429
踩	-11.429
二极管	-11.429
俘	-11.429
窑	-11.429
布鲁塞尔	-11.429
道歉	-11.4292
昨日	-11.4293
对照组	-11.4293
约定	-11.4294
医疗保险	-11.4294
一股	-11.4297
供电	-11.4298
不懂	-11.4298
▁她还	-11.4298
全文	-11.4299
1982	-11.4299
处决	-11.4299
指派	-11.43
ds	-11.4301
PP	-11.4301
表面上	-11.4302
放进	-11.4302
流浪	-11.4303
阵地	-11.4303
开展的工作	-11.4304
国际工作人员	-11.4305
将此	-11.4309
联合国各机构	-11.4311
天才	-11.4313
八个	-11.4313
比起	-11.4314
有一定的	-11.4317
分列的	-11.432
是一件	-11.432
停车	-11.4321
省份	-11.4325
老化	-11.4329
ps	-11.4333
按时	-11.4334
雨水	-11.4335
承包	-11.4335
幽	-11.4335
彭	-11.4336
萌	-11.4336
帧	-11.4336
马尔代夫	-11.4336
好莱坞	-11.4336
萎缩	-11.4336
宣告	-11.4337
所要求的	-11.4337
众人	-11.4337
促进和保护人权	-11.4339
极少	-11.4339
▁80.	-11.4339
厕所	-11.434
达成一致	-11.434
话语	-11.4343
基本权利	-11.4343
求职	-11.4344
号法律	-11.4345
进行比较	-11.4346
深化	-11.4346
留下了	-11.4347
工作原理	-11.4348
借贷	-11.435
再加上	-11.4351
分庭	-11.4351
定居	-11.4352
let	-11.4352
信中	-11.4353
岁月	-11.4353
最少	-11.4355
击中	-11.4356
也同样	-11.4356
铁矿	-11.4357
NS	-11.4361
地狱	-11.4362
导管	-11.4363
你就会	-11.4364
袜	-11.4364
脑袋	-11.4371
IM	-11.4373
停下来	-11.4374
劳动者	-11.4376
湖南	-11.4379
一路	-11.438
部长级	-11.4382
琐	-11.4382
榴	-11.4382
旷	-11.4382
月举行的	-11.4383
公用	-11.4383
皮质	-11.4383
非正式磋商	-11.4384
在某些情况下	-11.4384
做好准备	-11.4387
急需	-11.4387
马拉维	-11.4389
政客	-11.4389
深受	-11.4393
以致	-11.4393
方形	-11.4393
ion	-11.4394
我喜欢	-11.4395
API	-11.4399
雄性	-11.4403
童年	-11.4405
化疗	-11.4407
大麻	-11.441
ju	-11.4411
ian	-11.4411
发展合作	-11.4413
鉴	-11.4414
常驻	-11.4415
就职	-11.4415
一丝	-11.4416
解剖	-11.4418
病原	-11.4418
该条约	-11.4422
承载	-11.4423
06	-11.4423
第十三	-11.4424
结算	-11.4424
澳	-11.4425
ME	-11.4426
演说	-11.4427
谎	-11.4427
劫	-11.4428
亚洲及太平洋	-11.4428
等离子体	-11.4428
相符	-11.4429
美学	-11.443
曝光	-11.443
当他们	-11.4431
迈出	-11.4439
我们不能	-11.444
可怕	-11.4446
树立	-11.4447
倾听	-11.4447
下游	-11.4448
人权条约	-11.445
PO	-11.4452
反思	-11.4452
宫颈	-11.4454
一倍	-11.4454
卡片	-11.4454
克里斯	-11.4456
有望	-11.4458
具体措施	-11.4459
开罗	-11.4459
关键问题	-11.4459
常数	-11.446
爱上	-11.4462
桌上	-11.4466
CR	-11.4467
孢	-11.4468
环形	-11.4469
继续审议	-11.447
各项决议	-11.447
整天	-11.447
贩	-11.4471
国际移徙	-11.4475
咪	-11.4475
妖	-11.4475
行政首长	-11.4475
浑	-11.4475
苔	-11.4475
脓	-11.4475
马德里	-11.4475
滑动	-11.4475
近几年	-11.4476
悬挂	-11.4477
捕鱼	-11.4479
遗憾的是	-11.448
废料	-11.4481
营造	-11.4481
是怎么	-11.4482
有关决议	-11.4483
大纲	-11.4483
/2003/	-11.4485
进出	-11.4486
写信	-11.4486
温柔	-11.4488
球菌	-11.4491
门户	-11.4492
画家	-11.4497
租金	-11.4503
有关各方	-11.4507
香味	-11.4508
合资	-11.4509
瓦斯	-11.4509
mon	-11.4511
主持下	-11.4514
大使馆	-11.452
儿童保护	-11.452
西非经共体	-11.4522
扯	-11.4522
刃	-11.4522
恭	-11.4522
被剥夺	-11.4522
主观	-11.4524
组织结构	-11.4525
开拓	-11.4527
产权	-11.4527
特有的	-11.4528
陆军	-11.4528
推翻	-11.4529
境况	-11.453
谷物	-11.4534
普拉	-11.4534
圆满	-11.4536
干部	-11.4537
同伴	-11.4538
折射	-11.4538
教导	-11.4538
区域中心	-11.454
干预措施	-11.4541
骨头	-11.4543
MB	-11.4544
兰德	-11.4545
跟你	-11.4548
上限	-11.4548
货运	-11.4549
文盲	-11.4549
下一步	-11.455
在网上	-11.455
薪水	-11.4551
直接影响	-11.4552
时常	-11.4553
外形	-11.456
以协助	-11.456
嫁	-11.4562
存货	-11.4563
绑	-11.4564
券	-11.4567
以保证	-11.4568
杖	-11.4569
恐慌	-11.4569
痕迹	-11.457
执照	-11.4572
擅长	-11.4572
体现在	-11.4573
机票	-11.4573
方面取得	-11.4574
缩减	-11.4575
条目	-11.4576
her	-11.4577
血浆	-11.4578
认为这是	-11.4579
定理	-11.4581
ari	-11.4582
强硬	-11.4583
得到加强	-11.4586
电容	-11.4587
邻近	-11.4588
你不能	-11.459
长江	-11.4593
城市化	-11.4594
装载	-11.4596
占用	-11.46
之间存在	-11.4601
助长	-11.4601
成份	-11.4603
时钟	-11.4603
车间	-11.4608
经济合作	-11.4612
乳液	-11.4613
障	-11.4614
坏了	-11.4615
1373(2001)	-11.4616
显而易见	-11.4616
波多黎各	-11.4616
疮	-11.4616
肘	-11.4616
马达加斯加	-11.4616
路易斯	-11.4616
困惑	-11.4616
请允许我	-11.4616
奉献	-11.4616
搜索引擎	-11.4617
据报道	-11.4618
上下文	-11.4619
暴力侵害妇女行为	-11.462
铸铁	-11.462
更少	-11.462
强迫失踪	-11.462
缺失	-11.4622
修补	-11.4624
并不意味着	-11.4627
油墨	-11.4628
帕特	-11.4629
职业培训	-11.463
狂热	-11.4631
各项目标	-11.4631
续会	-11.4633
改动	-11.4638
预后	-11.4639
汇总	-11.4642
热处理	-11.4645
抑郁	-11.4646
伤口	-11.4647
名册	-11.4651
在其报告	-11.4652
革新	-11.4654
世界各国	-11.4655
期货	-11.4656
小组成员	-11.4662
HTML	-11.4663
哑	-11.4663
常任理事国	-11.4663
谎言	-11.4664
珍贵	-11.4664
肝脏	-11.4665
深感	-11.4665
基部	-11.4665
间谍	-11.4666
特设工作组	-11.4666
零部件	-11.4666
仅限于	-11.4667
西斯	-11.4669
出租车	-11.467
那个人	-11.4673
CM	-11.4673
会引起	-11.4673
送交	-11.4674
特别关注	-11.4675
成因	-11.4677
软骨	-11.4677
联合国工作人员	-11.4678
增设	-11.468
口服	-11.4683
受损	-11.4683
顶级	-11.4685
ES	-11.4685
守则	-11.4685
四种	-11.4692
卷入	-11.4692
one	-11.4694
美军	-11.4696
著作	-11.4698
无形	-11.4699
星期六	-11.4699
性行为	-11.4702
前途	-11.4706
版权	-11.4706
馈	-11.4708
领导者	-11.4708
CI	-11.4708
匀	-11.4709
金融服务	-11.471
SQL	-11.4711
饶	-11.4711
坦桑尼亚联合共和国	-11.4711
联检组	-11.4711
束缚	-11.4711
阻燃	-11.4712
之旅	-11.4712
畸形	-11.4712
zi	-11.4715
创办	-11.4715
名儿童	-11.4716
全国性	-11.4717
减弱	-11.4717
问我	-11.4718
滑雪	-11.4718
偏离	-11.4721
谈谈	-11.4723
通常会	-11.4724
具体情况	-11.4724
剧院	-11.4728
)[	-11.4728
领土完整	-11.4729
另一项	-11.4729
打造	-11.473
叙	-11.4735
性疾病	-11.4737
立方	-11.4738
其他地区	-11.4738
结局	-11.4739
再见	-11.4746
木质	-11.4747
征服	-11.4747
履	-11.4748
这表明	-11.475
接管	-11.4755
酬	-11.4757
外勤支助部	-11.4759
骨骼	-11.4759
羁押	-11.4759
侯	-11.4759
番茄	-11.4759
卵巢	-11.4759
扣押	-11.476
增添	-11.476
布什总统	-11.4764
伪造	-11.4766
无聊	-11.4766
生境	-11.4769
成立于	-11.4772
调味	-11.4776
胀	-11.4777
越来越多地	-11.478
百万美元	-11.4784
高档	-11.4785
早日	-11.4787
小规模	-11.4787
适应性	-11.4787
就好像	-11.4787
短信	-11.4791
几个小时	-11.4791
高效率	-11.4795
你想要	-11.4796
意味	-11.4797
保管	-11.4797
扰	-11.4797
的任务是	-11.4798
不歧视	-11.4799
所涉及的	-11.48
难度	-11.4803
妹	-11.4803
庸	-11.4807
鞘	-11.4807
俊	-11.4807
礼品	-11.4807
专辑	-11.4808
兼顾	-11.4808
重型	-11.4809
撞击	-11.481
实效	-11.481
小男孩	-11.481
本质上	-11.4813
三位	-11.4813
往来	-11.4815
重申其	-11.4815
听众	-11.4815
推导	-11.4818
其目的是	-11.4819
新出现的	-11.4819
证词	-11.4819
自定义	-11.4821
司法部门	-11.4823
TE	-11.4823
外资	-11.4827
家务	-11.4831
看出	-11.4831
反弹	-11.4833
应根据	-11.4833
无条件	-11.4837
作出的努力	-11.4837
存储器	-11.4838
外空	-11.4839
制药	-11.4849
同盟	-11.485
国产	-11.4853
淘汰	-11.4854
mer	-11.4855
蜗	-11.4855
侨	-11.4855
垢	-11.4855
溃疡	-11.4855
翠	-11.4855
警惕	-11.4855
遥控	-11.4856
两条	-11.4857
摇滚	-11.4857
(2004)	-11.4857
稳步	-11.4858
重点放在	-11.4859
赞美	-11.486
财务报告	-11.4862
客户机	-11.4863
城乡	-11.4864
洁净	-11.4864
保温	-11.4865
递交	-11.4865
国际和区域	-11.4865
居留	-11.4867
新娘	-11.4868
法制	-11.4868
刀具	-11.4869
ger	-11.4869
球形	-11.487
越过	-11.4871
酵母	-11.4873
兑现	-11.4874
盟约	-11.4876
自由贸易	-11.4876
添加到	-11.4877
氧气	-11.4878
转型期	-11.4879
鞋子	-11.488
而采取的	-11.488
想像	-11.4882
及其应用	-11.4882
领事	-11.4882
自助	-11.4885
板块	-11.4886
加剧了	-11.4887
转换为	-11.4889
上的应用	-11.4889
ong	-11.4891
大桥	-11.4893
ast	-11.4893
添	-11.4896
狮	-11.4896
高性能	-11.4897
橡	-11.4899
廊	-11.49
ord	-11.49
你方	-11.4901
性状	-11.4903
咒	-11.4904
栈	-11.4904
锂	-11.4904
痒	-11.4904
驯	-11.4904
巴勒斯坦权力机构	-11.4904
欧安组织	-11.4904
编纂	-11.4904
昨晚	-11.4905
▁82.	-11.4905
需要采取	-11.4906
聚乙烯	-11.4906
喷雾	-11.4906
魔术	-11.4906
建立信任措施	-11.4907
发现自己	-11.4908
实际情况	-11.491
举报	-11.4913
居然	-11.4913
崇高	-11.4913
国家间	-11.4914
注视	-11.4914
花序	-11.4916
葡萄糖	-11.4916
湖人	-11.4917
内核	-11.4917
弱点	-11.4918
人受伤	-11.4918
最重要的是	-11.492
/2006/	-11.492
ment	-11.4922
不然	-11.4922
心态	-11.4926
老虎	-11.4927
可变	-11.4931
火花	-11.4932
影子	-11.4936
开发人员	-11.4939
臣	-11.494
结核病	-11.494
ei	-11.4943
不丹	-11.4944
生产者	-11.4944
肚子	-11.4948
掘	-11.4948
捐	-11.4948
压缩机	-11.4951
翔	-11.4951
贼	-11.4952
基本建设总计划	-11.4952
帖	-11.4952
无家可归	-11.4952
胳膊	-11.4952
cedaw	-11.4952
荣耀	-11.4953
结论和建议	-11.4955
喜剧	-11.4955
第五次	-11.4956
宁愿	-11.4957
电视节目	-11.4958
新建	-11.496
依然是	-11.4963
游离	-11.4965
阿曼	-11.4967
td	-11.497
该缔约国	-11.4971
这片	-11.4971
极大地	-11.4973
山谷	-11.4974
那条	-11.4975
使用寿命	-11.4977
首脑	-11.4978
1500	-11.4978
据报	-11.4978
ny	-11.4984
监测系统	-11.4984
迟到	-11.4985
低下	-11.4985
过去一年	-11.4986
船长	-11.4987
惜	-11.4987
car	-11.4987
应予	-11.4987
不佳	-11.4989
一九	-11.4989
右边	-11.4991
搜	-11.4997
栓	-11.4998
挪	-11.5001
公安	-11.5001
前所未有的	-11.5001
普通照会	-11.5001
蹄	-11.5001
砌	-11.5001
非自治领土	-11.5001
借此机会	-11.5001
帐篷	-11.5002
膝盖	-11.5003
岁以上	-11.5003
估价	-11.5003
▁84.	-11.5003
绑定	-11.5004
无害环境	-11.5004
西撒哈拉	-11.5004
肺癌	-11.5005
美妙	-11.5005
投机	-11.5006
评注	-11.5006
vo	-11.5006
墙壁	-11.5007
贵族	-11.5007
炎症	-11.5007
免除	-11.5008
精灵	-11.5008
高度重视	-11.5008
不遵守	-11.5008
不止	-11.5009
底层	-11.5009
烧结	-11.5011
SD	-11.5013
联系在一起	-11.5014
解决争端	-11.5016
推理	-11.5018
mb	-11.502
金色	-11.502
主角	-11.5026
冲动	-11.5026
光子	-11.5027
以法语	-11.5028
idb	-11.5033
严重关切	-11.5035
所取得的进展	-11.5035
ku	-11.5036
进行一次	-11.5036
BP	-11.5037
必须采取	-11.5037
谢谢你	-11.504
能看到	-11.504
涵	-11.5042
排队	-11.5048
勘	-11.505
半数	-11.505
沸	-11.505
辱	-11.505
腻	-11.5051
臀	-11.5051
非洲经委会	-11.5051
蠕	-11.5051
橘	-11.5051
博茨瓦纳	-11.5051
矿石	-11.5051
祷告	-11.5051
屏蔽	-11.5051
基督徒	-11.5052
拜访	-11.5052
分辨	-11.5053
达成了	-11.5053
小儿	-11.5054
辍学	-11.5054
宁静	-11.5055
像素	-11.5056
风险评估	-11.5057
▁对不起	-11.5057
每个国家	-11.5059
主管当局	-11.506
胸部	-11.5063
这一事实	-11.5064
就不能	-11.5067
是怎样	-11.5068
硝酸	-11.5071
同时考虑到	-11.5072
乐意	-11.5075
ant	-11.5077
性能研究	-11.5079
可以看出	-11.508
拉伸	-11.5083
350	-11.5083
一副	-11.5084
帮助他们	-11.5085
rah	-11.5087
娘	-11.5087
目前正	-11.5089
对于那些	-11.509
头痛	-11.5091
奥巴马总统	-11.5093
波长	-11.5093
广东	-11.5096
样子	-11.5096
姑	-11.51
钼	-11.51
Google	-11.51
坦桑尼亚	-11.51
闭会期间	-11.51
拉脱维亚	-11.51
肩膀	-11.51
区域和次区域	-11.51
争吵	-11.5101
鲨鱼	-11.5101
旅费	-11.5101
保持一致	-11.5102
刹车	-11.5102
漏洞	-11.5103
演唱	-11.5103
丰田	-11.5103
不公正	-11.5104
历程	-11.5104
最大限度地	-11.5108
该小组	-11.5109
昂贵	-11.511
主要由	-11.5111
专长	-11.5112
ix	-11.5117
数据显示	-11.5118
推出了	-11.5121
矿产	-11.5131
吸引了	-11.5132
段落	-11.5134
本次级方案	-11.5136
糖果	-11.5137
PI	-11.5137
免于	-11.5139
军事人员	-11.5139
详细说明	-11.5143
大衣	-11.5145
大自然	-11.5146
拘	-11.5148
还未	-11.5148
放下	-11.5148
梭	-11.5149
愚	-11.515
引人注目	-11.515
卢森堡	-11.515
弟弟	-11.515
亏损	-11.515
房价	-11.5151
好多	-11.5153
抽样	-11.5156
星期天	-11.5157
1981	-11.5158
飞船	-11.516
偏差	-11.5164
BS	-11.5165
发展政策	-11.5165
巨额	-11.5167
普遍存在	-11.5169
有人认为	-11.517
ans	-11.517
阵线	-11.5172
低估	-11.5177
付费	-11.518
苍	-11.5181
一千	-11.5183
少于	-11.5184
装甲	-11.5184
静止	-11.5184
国家立法	-11.5186
解读	-11.5186
湿度	-11.5187
队长	-11.5187
假日	-11.5188
财政期间	-11.519
手术治疗	-11.519
笔者	-11.5192
第三章	-11.5195
仆人	-11.5196
经济复苏	-11.5197
韧	-11.5197
择	-11.5198
余地	-11.5198
塘	-11.5199
网路	-11.52
漫画	-11.52
溅	-11.52
市场准入	-11.52
PLC	-11.52
dy	-11.5201
扶持	-11.5201
赚钱	-11.5202
残余	-11.5203
脾气	-11.5204
贩卖人口	-11.5205
拥抱	-11.5206
新伙伴关系	-11.5208
平方	-11.521
华丽	-11.5211
感知	-11.5213
面粉	-11.5214
侧面	-11.5215
水源	-11.5216
仍旧	-11.5217
刑罚	-11.5218
相干	-11.5218
概	-11.5219
主席说	-11.522
器材	-11.5222
特种	-11.5227
国际金融机构	-11.5227
优美	-11.5227
中美洲	-11.5231
反向	-11.5232
盐酸	-11.5233
积极地	-11.5235
拉丁	-11.5237
屠杀	-11.5238
信息交流	-11.5244
/2002/	-11.5244
菲尔	-11.5247
Windows	-11.525
逢	-11.525
渍	-11.525
吉布提	-11.525
补编第	-11.525
脊髓	-11.525
纳粹	-11.5251
上课	-11.5251
幼儿园	-11.5251
总体上	-11.5251
联合国系统各组织	-11.5252
海峡	-11.5252
土地退化	-11.5253
为了使	-11.5253
给定	-11.5255
二十四	-11.5256
我们知道	-11.5258
塞族	-11.5258
不必要的	-11.5259
考古	-11.5259
挽救	-11.526
灌注	-11.5264
房产	-11.5265
保障监督	-11.5269
ren	-11.5273
传热	-11.5274
该基金	-11.5274
信托	-11.5274
多孔	-11.5281
下周	-11.5286
更正	-11.5287
外交政策	-11.5287
起初	-11.5293
渴	-11.5296
贪	-11.53
新产品	-11.53
栽	-11.53
换句话说	-11.5301
经纪人	-11.5301
颂	-11.5301
簇	-11.5301
经社理事会	-11.5301
危害人类罪	-11.5301
厌恶	-11.5301
总的来说	-11.5302
平方米	-11.5303
▁83.	-11.5303
预处理	-11.5305
预应力	-11.5305
cu	-11.5306
预算编制	-11.5306
欣见	-11.5306
衰减	-11.5306
多久	-11.5307
卡通	-11.5307
水泵	-11.5309
的最后一	-11.5311
得到充分	-11.5314
感到关切	-11.5314
队友	-11.5315
没有必要	-11.5317
充分执行	-11.532
多达	-11.532
巨头	-11.532
你是否	-11.5321
深切	-11.5321
国际义务	-11.5321
富含	-11.5321
维奇	-11.5321
舒服	-11.5321
秋季	-11.5323
转运	-11.5325
吉姆	-11.5326
拉姆	-11.5328
排气	-11.5329
信用证	-11.5334
戈尔	-11.5335
碱性	-11.5336
遇到了	-11.5342
自发	-11.5344
具体目标	-11.5346
誓	-11.5347
自卫	-11.5348
极端主义	-11.5348
姿	-11.535
妓	-11.5351
理查德	-11.5351
特异性	-11.5352
壁垒	-11.5352
继电器	-11.5352
敏捷	-11.5352
前期	-11.5353
开辟	-11.5353
附件一缔约方	-11.5353
甲烷	-11.5354
优化设计	-11.5355
海洋环境	-11.5355
常驻代表团	-11.5356
老婆	-11.5357
请说明	-11.5357
手表	-11.5358
限额	-11.5359
宽松	-11.5359
入学率	-11.5362
总结了	-11.5365
忠实	-11.5365
芳香	-11.5372
性骚扰	-11.5372
能找到	-11.5373
程式	-11.5375
sal	-11.5377
临床观察	-11.538
起作用	-11.5388
射频	-11.5388
引发了	-11.5389
副作用	-11.5389
箱子	-11.5393
▁他指出	-11.5395
上校	-11.5397
微量	-11.5397
反抗	-11.54
车站	-11.5401
嵌入	-11.5402
评审	-11.5402
詹	-11.5402
喀	-11.5402
色情	-11.5402
2014-2015	-11.5402
维多利亚	-11.5402
经费筹措	-11.5404
取出	-11.5404
订购	-11.5405
声誉	-11.5405
意识形态	-11.5406
预期成绩	-11.5406
总监	-11.5406
一封	-11.5408
奇异	-11.5408
导入	-11.5409
乳化	-11.5409
紫外线	-11.541
我想要	-11.541
执法机构	-11.541
过渡时期	-11.5412
DE	-11.5413
作为一项	-11.5414
点火	-11.5414
境外	-11.5417
不含	-11.5418
毛额	-11.5422
gi	-11.5423
开枪	-11.5423
mad	-11.5424
诱发	-11.543
你怎么	-11.5434
阴谋	-11.5434
两侧	-11.5435
就越	-11.544
裤子	-11.544
重返	-11.5446
恐	-11.5449
生活质量	-11.5453
垮	-11.5454
经费的筹措	-11.5454
袍	-11.5454
傅	-11.5454
勿	-11.5454
欧洲经委会	-11.5454
椰	-11.5454
相关问题	-11.5454
饲养	-11.5454
一般性辩论	-11.5456
愿景	-11.5458
背面	-11.5458
观察员部队	-11.5461
1984	-11.5461
bar	-11.5461
反应器	-11.5462
患病	-11.5462
容纳	-11.5464
DI	-11.5464
司法机关	-11.5469
经常资源	-11.5475
提供指导	-11.5479
编辑器	-11.548
同时又	-11.5481
销量	-11.5481
具有良好的	-11.5483
文化权利	-11.5486
都应该	-11.5487
帆	-11.5496
毛衣	-11.5496
我们正在	-11.5496
周三	-11.5501
布雷	-11.5502
搁	-11.5503
茄	-11.5505
约翰内斯堡	-11.5505
凤	-11.5505
戊	-11.5505
舆论	-11.5505
牛仔	-11.5506
阻碍了	-11.5506
甄选	-11.5506
丝绸	-11.5506
牛津	-11.5507
遵照	-11.5507
可接受的	-11.5507
沿岸	-11.5507
前锋	-11.5508
捷克	-11.5508
制定一项	-11.5511
视力	-11.5514
4000	-11.5515
动物园	-11.5517
铅笔	-11.5519
宿舍	-11.552
分层	-11.5522
有名的	-11.5523
山羊	-11.5524
布兰	-11.5531
复方	-11.5534
近日	-11.5535
比如说	-11.5536
平安	-11.5537
口语	-11.5539
年纪	-11.5541
回国	-11.5545
1.3	-11.5546
零售商	-11.5547
政府间机构	-11.555
爵	-11.5553
乳酸	-11.5554
晨	-11.5554
叙述了	-11.5554
对话框	-11.5556
颠	-11.5557
晚些时候	-11.5557
舵	-11.5557
扫盲	-11.5558
片段	-11.5559
正在努力	-11.5561
招待	-11.5561
新颖	-11.5563
外地特派团	-11.5564
粘土	-11.5568
分级	-11.5572
外债	-11.5573
如何使用	-11.5574
留给	-11.5576
内战	-11.5579
联合国人权事务高级专员办事处	-11.558
/2005/	-11.5581
几点	-11.5581
出租	-11.5585
国际金融	-11.5586
学费	-11.5591
运气	-11.5592
遗留	-11.5593
科比	-11.5594
第一阶段	-11.5595
去找	-11.5598
适合于	-11.5598
发起了	-11.5603
pu	-11.5603
国债	-11.5603
撒哈拉	-11.5606
鸦	-11.5607
椭圆	-11.5608
低成本	-11.5609
塔吉克斯坦	-11.5609
具有重要意义	-11.5609
赤贫	-11.561
罗马规约	-11.561
坚固	-11.561
衰老	-11.5614
几十	-11.5615
▁90.	-11.5616
犯人	-11.5616
资深	-11.5617
反过来	-11.5617
体罚	-11.5618
访谈	-11.5618
日趋	-11.5622
怎么办	-11.5623
谓	-11.5623
光泽	-11.5625
农村发展	-11.5625
超声波	-11.5626
生活水平	-11.5627
克劳	-11.5629
特别顾问	-11.5631
这件	-11.5632
定期审查	-11.5638
较强的	-11.5643
国际恐怖主义	-11.5644
蛋白酶	-11.5647
东北部	-11.5648
次级	-11.5651
这是个	-11.5653
用药	-11.5655
导电	-11.5657
par	-11.5658
是否能	-11.5658
妇女地位委员会	-11.5659
多方	-11.566
养恤基金	-11.5662
祂	-11.5662
彰	-11.5662
捧	-11.5662
首席执行官	-11.5662
叔叔	-11.5662
道德操守	-11.5662
瞄准	-11.5662
辣椒	-11.5662
殴打	-11.5662
标本	-11.5662
搜查	-11.5662
晋升	-11.5663
兑换	-11.5663
▁85.	-11.5664
乙酸	-11.5665
周转	-11.5668
但它们	-11.5668
伸缩	-11.5669
作证	-11.5669
裁军和不扩散	-11.5671
有何	-11.5678
新增	-11.5678
如图	-11.5679
还强调	-11.5681
公然	-11.5681
略有	-11.5682
不顾	-11.5685
磁带	-11.5687
前方	-11.5689
动词	-11.5694
脂肪酸	-11.5696
通过了一项	-11.5702
评论意见	-11.5702
分隔	-11.5703
我真的	-11.5705
假装	-11.5709
领土上	-11.571
国家信息通报	-11.5714
扼	-11.5714
北草坪会议大楼	-11.5714
睁	-11.5714
个百分点	-11.5714
魏	-11.5714
原谅	-11.5715
乳腺癌	-11.5715
行程	-11.5715
宾馆	-11.5717
这样一种	-11.5718
下降到	-11.5718
透镜	-11.5718
附录	-11.5719
重新安置	-11.5719
土豆	-11.5722
法制备	-11.5722
风扇	-11.5723
冲洗	-11.5724
源代码	-11.5728
转变为	-11.5728
预料	-11.5729
趋	-11.5731
此举	-11.5738
行列	-11.5738
但是它	-11.5738
代表参加	-11.5738
十周年	-11.5739
景象	-11.5741
转基因	-11.5742
贯	-11.5742
届常会	-11.5743
生产工艺	-11.5743
看不到	-11.5748
群落	-11.5749
哈马斯	-11.5749
环境规划署	-11.575
口袋	-11.5753
自制	-11.5755
突发	-11.5757
马车	-11.5761
流失	-11.5763
材质	-11.5764
沙特	-11.5767
伊丽莎白	-11.5767
都没	-11.5767
阿拉伯联合酋长国	-11.5767
ama	-11.5767
简称	-11.5767
挣扎	-11.5768
湖泊	-11.5768
一顿	-11.5771
总额为	-11.5772
指导委员会	-11.5773
稍后	-11.5774
谐振	-11.5774
增编	-11.5777
唱片	-11.5779
iii	-11.578
性别歧视	-11.5781
研究员	-11.5784
不论是	-11.5785
避开	-11.5786
生命周期	-11.5786
归纳	-11.5787
几千	-11.579
可持续发展委员会	-11.5791
电荷	-11.5792
优先领域	-11.5794
角膜	-11.5795
加利	-11.5798
促进和保护	-11.5803
多哥	-11.5803
52/	-11.5805
使自己	-11.5806
/52/	-11.581
工件	-11.5811
所学校	-11.5811
同胞	-11.5811
RT	-11.5813
活化	-11.5814
会见了	-11.5814
览	-11.5818
慢慢地	-11.5818
这两项	-11.5818
代表发言	-11.5818
轴向	-11.5819
虐	-11.5819
帘	-11.582
西亚经社会	-11.582
谜	-11.582
安东尼	-11.582
萨摩亚	-11.582
栗	-11.582
犹豫	-11.582
耸	-11.582
收敛	-11.5821
胰腺	-11.5821
三方	-11.5821
喜悦	-11.5821
陪伴	-11.5821
嘲笑	-11.5821
肥皂	-11.5821
典礼	-11.5821
缺席	-11.5822
颜料	-11.5822
演习	-11.5822
讯息	-11.5823
羟基	-11.5823
有理由	-11.5825
▁总之	-11.5825
海事组织	-11.5827
底下	-11.5827
公务	-11.5829
药物管制	-11.5829
解决方法	-11.5831
工艺品	-11.5833
无障碍	-11.5834
融化	-11.5834
过去几年	-11.5838
设计方法	-11.5842
内置	-11.5842
重构	-11.5842
飞越	-11.5845
山东	-11.5846
担保权	-11.5847
极化	-11.5849
巴拉	-11.5849
联网	-11.5852
兴起	-11.5854
排出	-11.5857
每一个人	-11.5859
气息	-11.5865
几位	-11.5866
歧	-11.5867
公约草案	-11.5867
产假	-11.5871
棒球	-11.5871
研究院	-11.5872
Linux	-11.5874
卡扎菲	-11.5874
在一定程度上	-11.5874
/1998/	-11.5874
拖欠	-11.5876
所必需的	-11.5876
://	-11.5876
雇佣军	-11.5876
惩处	-11.5877
司法制度	-11.5877
移动电话	-11.5877
适足	-11.5877
携手	-11.5877
钱包	-11.5878
呈现出	-11.5882
疗效观察	-11.5882
末端	-11.5882
1978	-11.5883
反叛	-11.5883
油漆	-11.5885
专业知识	-11.5886
长途	-11.5886
民航	-11.5887
Al	-11.5887
峰值	-11.5888
这种方式	-11.5888
损耗	-11.5889
省级	-11.5892
陌生	-11.5894
波尔	-11.5896
北韩	-11.5899
小武器	-11.59
点钟	-11.5901
加权	-11.5903
园林	-11.5903
指引	-11.5906
名单上	-11.5907
非索特派团	-11.5908
均应	-11.5908
▁文中	-11.5909
给自己	-11.5911
灭火	-11.5915
继续开展	-11.592
坚定地	-11.5921
纲领	-11.5923
一小时	-11.5926
族群	-11.5926
浊	-11.5927
连衣裙	-11.5927
恳	-11.5927
芭	-11.5927
权力下放	-11.5928
拘押	-11.5928
遗址	-11.5928
稀释	-11.5928
敌对	-11.5929
国际法委员会	-11.5929
剧烈	-11.5929
凝固	-11.593
愈合	-11.5933
共振	-11.5934
建议大会	-11.5934
一句话	-11.5935
的方式来	-11.5936
第一位	-11.5936
克鲁	-11.5941
上升到	-11.5941
饮水	-11.5943
管理部门	-11.5944
兔子	-11.5944
揭露	-11.5947
主动行动	-11.5948
买到	-11.5952
驻地	-11.5955
暴力侵害妇女	-11.5956
看作	-11.596
始于	-11.5962
征税	-11.5965
走路	-11.5972
古老	-11.5973
传导	-11.5973
货币政策	-11.5974
积极参加	-11.5977
辖	-11.5978
研究显示	-11.5979
迭	-11.598
畏	-11.5981
@	-11.5982
屡	-11.5982
愧	-11.5982
吡	-11.5982
当成	-11.5982
抵押贷款	-11.5983
▁87.	-11.5984
灰尘	-11.5985
福德	-11.5986
紧张局势	-11.5987
花生	-11.5988
温室气体排放	-11.5988
什么都	-11.5989
极为重要	-11.5991
潜能	-11.5992
调查显示	-11.5994
得很好	-11.5995
精细	-11.5997
发展议程	-11.6
无知	-11.6001
空运	-11.6007
服务业	-11.6008
联合国儿童基金会	-11.6009
买家	-11.6016
快捷	-11.6017
安全理事会主席	-11.6019
被控	-11.6019
礼服	-11.6024
容许	-11.6025
虹	-11.6025
什么事	-11.6026
犹如	-11.6026
探究	-11.6026
督	-11.6029
同类	-11.603
匙	-11.603
之一就是	-11.6032
行径	-11.6032
电视机	-11.6035
尽头	-11.6035
乞	-11.6036
芦	-11.6036
颊	-11.6036
阿森纳	-11.6036
公务员制度委员会	-11.6036
置换	-11.6036
感动	-11.6037
挫折	-11.6037
奥斯卡	-11.6041
经济及社会理事会第	-11.6041
行为守则	-11.6044
上诉法院	-11.6045
外交官	-11.6046
电离	-11.6047
动议	-11.6048
缺口	-11.6049
光芒	-11.605
打败	-11.605
讲座	-11.6052
排雷行动	-11.6053
费率	-11.6054
II	-11.6056
/2000/	-11.6057
自尊	-11.6057
产品质量	-11.6059
试剂	-11.6061
填料	-11.6061
》(《	-11.6063
奶酪	-11.6063
发挥的作用	-11.6064
图象	-11.6064
称作	-11.6064
这块	-11.6068
贮	-11.6073
盈余	-11.6074
你最好	-11.6074
强行	-11.608
举例	-11.6081
国情	-11.6085
等特点	-11.6086
外语	-11.6087
第一批	-11.6088
天文	-11.6089
绳之以法	-11.6091
这篇文章	-11.6091
除此之外	-11.6091
利益攸关者	-11.6091
焚烧	-11.6091
人权维护者	-11.6091
精致	-11.6092
公爵	-11.6093
贬值	-11.6093
炸药	-11.6093
蓄意	-11.6095
准备金	-11.6095
不断变化的	-11.6095
发生变化	-11.6097
”、“	-11.6098
林肯	-11.6099
补救措施	-11.6102
世纪议程	-11.6102
yn	-11.6102
登上	-11.6106
也是如此	-11.6107
车轮	-11.6114
这句话	-11.6115
敞	-11.6117
五金	-11.6118
使它们	-11.6118
起始	-11.6119
男生	-11.612
处方	-11.6122
而产生的	-11.6126
的一个主要	-11.6126
善于	-11.6138
第六委员会	-11.614
背心	-11.6143
号公约	-11.6144
疲	-11.6144
开创	-11.6145
疹	-11.6145
娃	-11.6145
穆罕默德	-11.6145
秃	-11.6146
贩毒	-11.6146
魔鬼	-11.6147
公认	-11.6147
度量	-11.6148
隔离墙	-11.6148
电容器	-11.6148
取得了进展	-11.6149
地雷行动	-11.6149
巴拉克	-11.6149
取样	-11.6151
在此期间	-11.6152
囊肿	-11.6153
放缓	-11.6154
1979	-11.6155
过剩	-11.6156
学期	-11.6162
打死	-11.6163
防卫	-11.6166
好朋友	-11.6168
当初	-11.617
环境基金	-11.6172
切尔	-11.6172
本国工作人员	-11.6173
连接器	-11.6176
两组	-11.6177
屏幕上	-11.6178
与否	-11.6183
事务处	-11.6185
最快的	-11.6188
音乐会	-11.6189
这只是	-11.619
国立	-11.6191
An	-11.6194
最常见的	-11.6195
棘	-11.6196
先知	-11.6196
婴	-11.6198
浙江	-11.6199
▁本文主要	-11.62
伽	-11.6201
侍	-11.6201
聋	-11.6201
灿烂	-11.6201
香蕉	-11.6201
杠杆	-11.6201
劫持	-11.6201
浅析	-11.6202
独裁	-11.6202
孔隙	-11.6205
辛苦	-11.6205
敌对行动	-11.6205
肺炎	-11.6206
会计准则	-11.6206
古怪	-11.6208
农田	-11.6208
农业生产	-11.6208
头顶	-11.6209
村民	-11.621
同志	-11.6211
提问	-11.6213
之日起	-11.6215
异步	-11.6216
/2004/	-11.6216
不动产	-11.6216
全球机制	-11.6219
数组	-11.6223
新兴市场	-11.6224
我们欢迎	-11.6224
粘度	-11.6224
国际关系	-11.6225
先端	-11.6227
角度来看	-11.6228
交联	-11.6243
整流	-11.6243
tra	-11.6244
搬到	-11.6248
沉积物	-11.6251
邪	-11.6252
电化学	-11.6252
化妆	-11.6253
哲	-11.6255
经济和社会发展	-11.6255
着陆	-11.6256
归咎于	-11.6256
旧金山	-11.6256
～	-11.6256
新闻发布会	-11.6256
实现这一目标	-11.6257
丑闻	-11.6257
.4/	-11.6257
哪怕	-11.6258
螺丝	-11.6258
超市	-11.6259
折扣	-11.6259
登陆	-11.626
简历	-11.626
是不可能的	-11.626
诚信	-11.6262
人人都	-11.6262
划拨	-11.6265
犹	-11.6266
恶魔	-11.6267
局限于	-11.6268
西欧	-11.6269
FS	-11.6271
乐于	-11.6275
第三委员会	-11.6275
不适合	-11.6281
根据大会第	-11.6283
6000	-11.6284
的临床疗效	-11.6284
伍德	-11.6286
MO	-11.6289
向公众	-11.629
性虐待	-11.6291
绘图	-11.6291
相对较	-11.6293
第三条	-11.6295
不利于	-11.6295
外围	-11.6299
失误	-11.6305
病情	-11.6306
祥	-11.6311
永久性	-11.6312
中华人民共和国	-11.6312
崛起	-11.6312
钨	-11.6312
毅	-11.6312
非洲发展新伙伴关系	-11.6312
训研所	-11.6312
厂家	-11.6314
提交一份	-11.6314
▁86.	-11.6315
摄影师	-11.6315
协调机制	-11.6315
人口普查	-11.6316
警告说	-11.6317
回避	-11.6318
很有可能	-11.6318
运营商	-11.6319
注射液	-11.6319
累计	-11.632
肥料	-11.632
加蓬	-11.632
嫁给	-11.632
议案	-11.632
交通运输	-11.6324
苍白	-11.6334
四处	-11.6336
剥夺自由	-11.6337
集中于	-11.6338
善良	-11.634
光源	-11.634
服饰	-11.6341
请问	-11.6341
指甲	-11.6343
进度报告	-11.6344
深层	-11.6348
空心	-11.6354
历史性	-11.6354
挽	-11.6357
带动	-11.6359
基因组	-11.6366
解决这个问题	-11.6367
仗	-11.6368
非殖民化	-11.6368
毛里塔尼亚	-11.6368
蔗	-11.6368
资发基金	-11.6368
贤	-11.6368
司司长	-11.6368
目睹	-11.6369
悲惨	-11.6369
巨人	-11.6369
全面执行	-11.6369
悠久	-11.6369
猛烈	-11.6369
忽然	-11.6369
嘴唇	-11.6369
评分	-11.637
起因	-11.637
简洁	-11.637
微妙	-11.6372
是至关重要的	-11.6373
这些挑战	-11.6375
花粉	-11.6375
一项新的	-11.6376
分校	-11.6379
阴极	-11.6379
坏死	-11.6381
代数	-11.6381
怪物	-11.6383
黑山	-11.6386
长长的	-11.6386
过早	-11.6389
根据大会	-11.6389
刑事诉讼法	-11.6392
装运	-11.6396
滥	-11.6396
75%	-11.6401
合作关系	-11.6401
规程	-11.6401
陌生人	-11.6404
我国政府	-11.6405
微粒	-11.6406
克雷	-11.641
助手	-11.6415
降到	-11.6416
媒	-11.6416
几项	-11.6418
闪电	-11.642
不合理	-11.6421
不限成员名额	-11.6423
赔	-11.6423
驰	-11.6425
肯尼迪	-11.6425
开玩笑	-11.6425
吕	-11.6425
全权证书	-11.6425
希拉里	-11.6425
踝	-11.6425
肾上腺	-11.6425
黛	-11.6425
厉害	-11.6425
巴勒斯坦被占领土	-11.6425
在这种情况下	-11.6427
资金来源	-11.6428
约翰逊	-11.643
所作的发言	-11.6431
不对称	-11.6434
1973	-11.6435
恋爱	-11.6435
研究成果	-11.6448
受到影响	-11.6448
相当大的	-11.6449
私有	-11.6449
同时也是	-11.6455
乙酰	-11.6459
区域和国家	-11.6459
方面的进展	-11.646
阁	-11.646
皮带	-11.6461
殖民地	-11.6462
第四章	-11.6462
作出反应	-11.6465
终点	-11.6466
另一位	-11.6467
肤色	-11.6478
猩猩	-11.6482
蝶	-11.6482
贪婪	-11.6482
金刚石	-11.6482
专注于	-11.6482
小册子	-11.6482
法律顾问	-11.6482
草坪	-11.6483
雅典	-11.6483
战役	-11.6486
商场	-11.6486
衍生物	-11.6487
嵌入式	-11.6487
层面上	-11.6487
维拉	-11.6488
青岛	-11.6492
鲜花	-11.6497
聚丙烯	-11.6497
局限性	-11.65
sen	-11.6501
艾伦	-11.6501
受益于	-11.6503
无穷	-11.6504
一堆	-11.6507
斯蒂	-11.6507
阳极	-11.6509
赶上	-11.6511
强力	-11.6514
力图	-11.6514
出庭	-11.6514
信赖	-11.6515
减免	-11.6516
牢固	-11.6518
回转	-11.652
侧重	-11.652
无罪	-11.6529
润滑油	-11.6534
印花	-11.6536
违规	-11.6537
拾	-11.6537
杂质	-11.6537
冰淇淋	-11.6539
薇	-11.6539
抗生素	-11.6539
瑙	-11.6539
种族灭绝	-11.654
硬币	-11.6541
鸦片	-11.6542
等效	-11.6542
武汉	-11.6543
交际	-11.6545
被逮捕	-11.6546
树枝	-11.6548
马达	-11.6551
战斗机	-11.6551
良心	-11.6551
结石	-11.6558
必定	-11.6564
国际条约	-11.6565
统计学	-11.6565
估值	-11.6568
可能造成	-11.6569
高昂	-11.6569
城区	-11.6569
迷你	-11.657
检查站	-11.6571
很喜欢	-11.6577
副总统	-11.6578
相称	-11.6585
理论分析	-11.6587
有效率	-11.6589
喻	-11.6589
求助	-11.6592
爆炸物	-11.6594
方位	-11.6594
篷	-11.6596
贫民窟	-11.6596
阿拉伯利比亚民众国	-11.6596
慕	-11.6596
尴尬	-11.6596
扳	-11.6596
相辅相成	-11.6596
咯	-11.6596
伊斯坦布尔	-11.6596
肇事者	-11.6596
2000-2001	-11.6596
勋	-11.6596
汲取	-11.6596
顽固	-11.6597
秒钟	-11.6598
气球	-11.6598
▁94.	-11.6599
多米尼加共和国	-11.66
棘手	-11.6601
改组	-11.6602
迪拜	-11.6602
利用率	-11.6606
湿地	-11.6612
个性化	-11.6615
财政年度	-11.6615
2.2	-11.6618
请愿	-11.6621
三角形	-11.6626
LD	-11.6626
董事长	-11.6627
市区	-11.6627
口味	-11.6631
起伏	-11.6636
气温	-11.6637
飞行器	-11.6638
唱歌	-11.6651
清真寺	-11.6654
GDP	-11.6654
哮喘	-11.6654
菱	-11.6654
逛	-11.6654
得益于	-11.6654
砷	-11.6654
利益有关者	-11.6654
雕塑	-11.6655
尖锐	-11.6655
浙江省	-11.6656
的前提下	-11.6656
雅虎	-11.6656
不可分割	-11.6656
春季	-11.6657
高等法院	-11.6657
基于性别的暴力	-11.6658
问道	-11.666
所进行的	-11.6662
起重机	-11.6662
带宽	-11.6663
线索	-11.6663
未曾	-11.6664
军备	-11.6664
2.1	-11.6667
花钱	-11.6668
正处于	-11.667
警察部队	-11.667
很少有	-11.6672
风吹	-11.6674
强加	-11.6677
mc	-11.6682
播种	-11.6685
业主	-11.6685
四方	-11.6686
罪名	-11.6688
大象	-11.6689
核材料	-11.669
船员	-11.6691
右手	-11.6692
货车	-11.6694
外贸	-11.67
伊拉克政府	-11.6706
小女孩	-11.6707
黄油	-11.6709
安全保障	-11.6709
宅	-11.6711
裕	-11.6711
残疾人权利公约	-11.6712
难以置信	-11.6712
联合检查组	-11.6712
侮辱	-11.6712
匪	-11.6712
列支敦士登	-11.6712
牲畜	-11.6712
纳税人	-11.6712
LED	-11.6712
野蛮	-11.6713
三角洲	-11.6713
淹没	-11.6713
创造力	-11.6714
▁88.	-11.6715
绩效指标	-11.6716
红细胞	-11.6716
善政	-11.6716
忙碌	-11.6717
晚饭	-11.6717
守护	-11.6718
校准	-11.6718
Bo	-11.672
无须	-11.672
主席团成员	-11.672
感染艾滋病毒	-11.6723
台阶	-11.6725
tar	-11.6726
饮用	-11.6729
/2001/	-11.673
允	-11.6733
肉体	-11.6734
陪同	-11.6734
煤层	-11.6734
第一届会议	-11.6736
承付	-11.6739
可以用来	-11.6741
让人们	-11.6741
废弃	-11.6746
学业	-11.6749
兼职	-11.6749
ram	-11.6751
土地利用	-11.6751
着重于	-11.6751
萨尔	-11.6752
宴会	-11.676
忆及	-11.6762
耳机	-11.6763
拨出	-11.6764
麽	-11.6764
凑	-11.677
国旗	-11.6771
全面禁止核试验条约	-11.6771
喧	-11.6771
砾	-11.6771
――	-11.6771
加紧努力	-11.6771
拦截	-11.6771
来访	-11.6772
药剂	-11.6773
识字	-11.6773
常设论坛	-11.6773
消除种族歧视委员会	-11.6775
已经完成	-11.6776
暴力事件	-11.678
一点儿	-11.6782
何处	-11.6784
海事	-11.6787
看似	-11.6787
香料	-11.6788
哈尔	-11.679
高端	-11.6794
平常	-11.6796
我的朋友	-11.6798
fo	-11.6802
听证会	-11.6803
**	-11.6803
增进和保护人权	-11.6803
辆车	-11.6807
散布	-11.6807
国内立法	-11.6807
高分子	-11.6807
解散	-11.6811
派驻	-11.6813
埃德	-11.6817
九个	-11.6817
海绵	-11.6823
勺	-11.6829
冯	-11.6829
甩	-11.683
经销商	-11.683
旗帜	-11.683
艰巨	-11.683
拓扑	-11.683
惩治	-11.683
优异	-11.683
不法行为	-11.6831
栓塞	-11.6831
东耶路撒冷	-11.6833
笔记本	-11.6833
固态	-11.6834
教皇	-11.6836
饼干	-11.6837
降水	-11.6838
半径	-11.684
哪种	-11.6841
电话号码	-11.6841
萨克	-11.6843
茶叶	-11.6845
效用	-11.6847
首选	-11.6847
偶像	-11.6848
宪法法院	-11.6856
收益率	-11.6862
亲戚	-11.6865
一个简单的	-11.6865
FT	-11.6873
的主要因素	-11.6873
急救	-11.6875
什么东西	-11.688
蒸气	-11.6882
矫	-11.6885
双眼	-11.6886
发音	-11.6886
综合症	-11.6886
气压	-11.6886
捞	-11.6886
测井	-11.6886
阻抗	-11.6886
丝毫	-11.6887
寓	-11.6887
辑	-11.6887
镶	-11.6889
嘿	-11.6889
胆固醇	-11.6889
夏威夷	-11.6889
约瑟夫	-11.6889
遂	-11.6889
联海稳定团	-11.6889
蜡烛	-11.6889
看起来像	-11.689
订阅	-11.689
持续不断	-11.689
脊柱	-11.689
审批	-11.6892
业余	-11.6893
BO	-11.6894
增益	-11.6894
做的事情	-11.6894
降雨	-11.6896
关怀	-11.6897
抑制剂	-11.6905
防火	-11.6907
二战	-11.6911
被告知	-11.6917
所以我们	-11.6917
各省	-11.6921
一直以来	-11.6924
起床	-11.6926
一本书	-11.6928
各国人民	-11.6928
生态环境	-11.6937
有所不同	-11.6938
汇集	-11.6941
驳	-11.6943
一整天	-11.6943
离去	-11.6946
筹措	-11.6947
搅	-11.6948
捣	-11.6948
喇叭	-11.6948
便携式	-11.6948
原发性	-11.6948
着眼于	-11.6948
第三国	-11.6949
蜂蜜	-11.6949
螺钉	-11.6949
▁89.	-11.695
▁如果你想	-11.695
老龄	-11.695
起案件	-11.695
面料	-11.6952
提交大会	-11.6953
预订	-11.6955
减排	-11.6957
杀菌	-11.6958
大气层	-11.6958
和平与稳定	-11.6962
秘书长的说明	-11.6964
还记得	-11.6964
出资	-11.6966
所取得的	-11.6967
ich	-11.6967
1949	-11.6967
中受益	-11.6968
绳子	-11.6976
ive	-11.6976
泪水	-11.6981
跨部门	-11.6986
泥浆	-11.6995
shi	-11.6998
第二届会议	-11.7004
野生动物	-11.7006
海运	-11.7006
铭	-11.7007
酰	-11.7007
降临	-11.7008
萝	-11.7008
聚氨酯	-11.7008
寂寞	-11.7008
挚	-11.7008
备选办法	-11.7008
沦	-11.7008
僧	-11.7008
姨	-11.7008
嫌疑人	-11.7008
悄悄	-11.7008
月中旬	-11.7008
朽	-11.7008
刑警组织	-11.7008
对冲基金	-11.7008
珍妮	-11.7009
哺乳动物	-11.7009
完毕	-11.701
触及	-11.701
环境卫生	-11.7011
烟雾	-11.7011
鼓励各国	-11.7014
爱好者	-11.7014
径向	-11.7014
黄酮	-11.7015
RI	-11.7016
强壮	-11.7016
美食	-11.7017
笑话	-11.702
举行了一次	-11.7027
肯定会	-11.7028
柴油机	-11.703
邀	-11.7032
严重违反	-11.7036
的一个关键	-11.7039
抗菌	-11.7039
八十	-11.7039
暴行	-11.7039
电报	-11.704
广西	-11.7041
控告	-11.7048
惟一	-11.7048
述及	-11.7052
韧性	-11.7054
偿付	-11.7054
结尾	-11.7056
前沿	-11.706
建构	-11.706
end	-11.7061
第九条	-11.7061
回合	-11.7062
加利福尼亚	-11.7065
珊瑚	-11.7068
淤	-11.7068
持久性有机污染物	-11.7068
枣	-11.7068
宇航员	-11.7068
涛	-11.7068
集束弹药	-11.7068
预算外资源	-11.7068
官僚	-11.7069
蜜蜂	-11.7069
衍射	-11.7069
搬迁	-11.7069
最低限度	-11.7069
潜艇	-11.7069
野外	-11.7069
姿势	-11.7069
评判	-11.707
服役	-11.707
互助	-11.7072
钓鱼	-11.7073
橡皮	-11.7073
▁92.	-11.7074
二十世纪	-11.7074
总统选举	-11.7074
聘请	-11.7075
记录表决	-11.7076
器械	-11.7076
阻尼	-11.7077
洞穴	-11.7078
作了发言	-11.7079
猴子	-11.708
任何形式的	-11.7081
基础教育	-11.7082
收支	-11.7084
柔性	-11.7087
获利	-11.7088
随便	-11.7089
晚会	-11.709
工序	-11.709
卖给	-11.7092
架飞机	-11.7092
统计资料	-11.71
董	-11.7101
宣传运动	-11.7101
马克思主义	-11.7102
切口	-11.7107
建立伙伴关系	-11.7115
没有足够的	-11.7116
好消息	-11.7121
礁	-11.7129
捡	-11.7129
同位素	-11.7129
喀布尔	-11.7129
年后发展议程	-11.7129
扶贫	-11.713
榜样	-11.7131
封装	-11.7131
污泥	-11.7131
灵敏度	-11.7131
结余	-11.7132
(2005)	-11.7132
开端	-11.7132
矩形	-11.7133
性别观点	-11.7134
花朵	-11.7135
舞台上	-11.7135
中部非洲	-11.7137
沉降	-11.7139
黑白	-11.7141
共存	-11.7147
内衣	-11.7147
具有一定的	-11.7147
流行病学	-11.7148
保湿	-11.7151
ite	-11.7151
ace	-11.7152
新一代	-11.716
风味	-11.716
MT	-11.7161
半小时	-11.7168
经济效益	-11.7168
挤出	-11.7171
表单	-11.7174
归属	-11.7174
第一次会议	-11.7178
赋权	-11.7179
剖	-11.718
写入	-11.7184
粪	-11.7187
胰	-11.719
撒哈拉以南非洲	-11.719
痘	-11.719
絮	-11.719
焙	-11.719
气相色谱	-11.719
珍惜	-11.719
惠益	-11.7192
调集	-11.7192
孢子	-11.72
路边	-11.7208
遗忘	-11.7211
规定的义务	-11.7211
钢丝	-11.7211
身穿	-11.7217
缓冲区	-11.7218
化妆品	-11.7219
这份报告	-11.7223
载入	-11.7225
整整	-11.7231
技术合作活动	-11.7231
变得越来越	-11.7235
备受	-11.7236
议定	-11.7237
计画	-11.7238
淋巴	-11.7239
无损	-11.724
表皮	-11.7242
许多发展中国家	-11.7246
奴隶制	-11.7246
顽	-11.725
很抱歉	-11.7251
挠	-11.7251
觉得自己	-11.7251
相互依存	-11.7251
巴巴多斯	-11.7251
霞	-11.7251
侠	-11.7251
沼泽	-11.7252
侵权	-11.7252
冶金	-11.7252
航空航天	-11.7253
两年期方案预算	-11.7253
夸张	-11.7253
反驳	-11.7254
原告	-11.7254
舞会	-11.7255
会计师	-11.7257
地方一级	-11.7257
高级代表	-11.7257
减灾	-11.7258
范例	-11.7259
岁以下儿童	-11.7259
联合国维持和平行动	-11.7261
两年前	-11.7262
军事观察员	-11.7262
二元	-11.7264
视线	-11.7264
序言	-11.7267
尘埃	-11.727
我很高兴	-11.7272
抑郁症	-11.7274
为了确保	-11.7275
▁方法采用	-11.7276
预防冲突	-11.7277
恶心	-11.7278
打电话给	-11.7278
意见和建议	-11.7279
后不久	-11.7279
凸轮	-11.7283
我现在请	-11.7287
首位	-11.7289
制备方法	-11.729
草拟	-11.7292
共同主席	-11.7292
无害	-11.7292
结成	-11.7293
成立了一个	-11.7295
商业银行	-11.7296
一个重要的	-11.7302
相邻	-11.7305
ity	-11.7308
字典	-11.7308
合理化	-11.7311
国家元首	-11.7313
茜	-11.7313
摩纳哥	-11.7313
解决这一问题	-11.7313
节余	-11.7313
抱歉	-11.7314
瓶颈	-11.7315
这套	-11.7318
钻孔	-11.7321
镇痛	-11.7321
这幅	-11.7321
迹象表明	-11.7322
53/	-11.7322
纸板	-11.7325
抱着	-11.7325
ft	-11.7329
承担责任	-11.7331
人权领域	-11.7333
获奖	-11.7336
受灾	-11.7341
不停地	-11.7342
减压	-11.7343
小组讨论	-11.7346
的那一	-11.7346
移交给	-11.7346
第十一届	-11.7347
赛事	-11.7358
看电视	-11.7365
奶牛	-11.7365
ore	-11.7367
钓	-11.737
推断	-11.7372
真的很	-11.7373
哇	-11.7375
禅	-11.7375
掏	-11.7375
毒品和犯罪问题办事处	-11.7375
睦	-11.7375
蔡	-11.7375
釉	-11.7375
中小型企业	-11.7375
清晨	-11.7377
促进两性平等	-11.7377
遵约	-11.738
匿名	-11.738
公元前	-11.7382
每种	-11.7384
电泳	-11.7384
灯泡	-11.7384
第二十三	-11.7385
out	-11.7386
联合国人权事务高级专员	-11.7387
其他形式的	-11.7387
告诉她	-11.7389
抛光	-11.739
坦率	-11.7391
务实	-11.7394
提出上诉	-11.7395
DO	-11.7405
滞后	-11.7406
站起来	-11.7407
办事	-11.7409
至下午	-11.7412
肉类	-11.7417
山顶	-11.742
三倍	-11.7423
抗议者	-11.7427
夹克	-11.7428
外籍	-11.7435
高精度	-11.7435
国际人权法	-11.7436
力学性能	-11.7437
捏	-11.7438
和平利用外层空间	-11.7438
弗吉尼亚	-11.7438
寨	-11.7438
备选方案	-11.7438
悖	-11.7438
驴	-11.7438
宽恕	-11.7438
跨国有组织犯罪	-11.7438
拆卸	-11.7439
纺织品	-11.7441
黑洞	-11.7444
生命权	-11.7448
附着	-11.7451
发表意见	-11.7451
最贫穷	-11.7451
专家组会议	-11.7452
非盟	-11.746
同样也	-11.7467
耕地	-11.7471
金牌	-11.7474
维克	-11.7475
几年前	-11.7475
打断	-11.7477
永不	-11.7481
每小时	-11.7486
虑	-11.749
一封信	-11.7492
出示	-11.7494
尉	-11.75
镉	-11.75
娇	-11.75
弗兰克	-11.7501
实现这些目标	-11.7501
磁共振	-11.7501
巴厘	-11.7502
核电站	-11.7505
gen	-11.7506
eng	-11.7506
穿刺	-11.7507
拇指	-11.7507
坚硬	-11.7508
临近	-11.751
安妮	-11.751
1983	-11.751
通用汽车	-11.7511
看不见	-11.7511
建筑师	-11.7516
最主要的	-11.7516
前南斯拉夫	-11.7521
一点也不	-11.7523
圆锥	-11.7524
双方都	-11.753
ath	-11.7531
面具	-11.7531
储层	-11.7534
做的事	-11.7538
深海	-11.7538
家庭生活	-11.7538
其自身	-11.7539
资助恐怖主义	-11.754
应用前景	-11.7547
删	-11.7552
巴勒斯坦难民	-11.7558
惩	-11.7559
震动	-11.7561
繁忙	-11.7561
逗	-11.7562
一分钟	-11.7562
慎	-11.7563
怜	-11.7563
寂	-11.7563
掠	-11.7564
葵	-11.7564
中产阶级	-11.7564
亚马逊	-11.7564
NET	-11.7564
混沌	-11.7564
诉讼程序	-11.7565
股份有限公司	-11.7566
西蒙	-11.7566
▁91.	-11.7566
民族和解	-11.7568
仆	-11.7568
受到限制	-11.7569
肚	-11.757
光栅	-11.757
联委会	-11.757
获准	-11.7571
左侧	-11.7572
动摇	-11.7572
惠普	-11.7572
沈	-11.7575
分光光度	-11.7577
照相机	-11.758
体育运动	-11.7585
ern	-11.7585
很简单	-11.7586
团聚	-11.7587
树叶	-11.7589
粒度	-11.7589
套管	-11.759
几个星期	-11.7591
署长	-11.7591
剧本	-11.7594
开销	-11.7595
定居者	-11.7595
日渐	-11.7596
审计委员会建议	-11.7596
强制执行	-11.7601
大坝	-11.7601
平等机会	-11.7603
正式语文	-11.7604
南斯拉夫	-11.7607
全额	-11.7607
广播公司	-11.7607
运河	-11.7611
一流的	-11.7618
隶属	-11.7622
羟	-11.7624
马克思	-11.7625
杏	-11.7627
盎	-11.7627
熬	-11.7627
联塞部队	-11.7627
亚历山大	-11.7627
斧	-11.7627
铂	-11.7627
诽谤	-11.7627
蝠	-11.7628
航运	-11.7629
描写	-11.7629
总局	-11.7631
手持	-11.7631
/2007/	-11.7632
战略规划	-11.7632
发掘	-11.7633
儿童和青少年	-11.7633
午饭	-11.7633
肝癌	-11.7633
世俗	-11.7634
有针对性的	-11.7635
的协助下	-11.7638
鸟儿	-11.7638
你会发现	-11.7638
刑事责任	-11.7641
的临床研究	-11.7642
波黑	-11.7643
化学物质	-11.7646
贵州	-11.7646
两岸	-11.7647
软件开发	-11.7648
托尼	-11.765
高盛	-11.7653
公元	-11.7653
未决	-11.7653
中期计划	-11.7654
女朋友	-11.7654
共和党人	-11.7655
单据	-11.7658
性别暴力	-11.7659
uk	-11.7661
自主权	-11.7663
统治者	-11.7666
ron	-11.7666
Mac	-11.7667
事件发生	-11.767
体系结构	-11.767
合伙人	-11.7675
清算	-11.7677
电镀	-11.7683
封面	-11.7684
主管机构	-11.7684
扮	-11.7688
拦	-11.7691
诡	-11.7692
仇外心理	-11.7692
懈	-11.7692
非营利	-11.7692
安全部门改革	-11.7692
召唤	-11.7692
盗窃	-11.7692
丹尼尔	-11.7693
搁置	-11.7694
含糊	-11.7694
▁102.	-11.7695
专栏	-11.7696
log	-11.7696
软弱	-11.7698
猪肉	-11.7699
香气	-11.7701
的一项重要	-11.7701
宗教信仰	-11.7702
匆匆	-11.7703
指纹	-11.7703
高强度	-11.7704
直观	-11.7705
1.4	-11.7706
浮动	-11.7708
大屠杀	-11.7708
经修订的	-11.7709
参考资料	-11.771
/69/	-11.771
东南部	-11.7711
ock	-11.7712
索取	-11.7715
摩尔	-11.772
5,000	-11.772
域名	-11.7721
率领	-11.7722
完全不同	-11.7724
执行情况的报告	-11.7724
雅各	-11.7728
转换成	-11.7731
电弧	-11.7734
ort	-11.7743
候选	-11.7743
非凡	-11.7743
监管机构	-11.7745
表现得	-11.7746
示威者	-11.7747
试试	-11.775
霍尔	-11.7751
萎	-11.7755
郭	-11.7756
号决议所设委员会	-11.7756
河北省	-11.7756
优先次序	-11.7756
玻	-11.7756
以西班牙语	-11.7756
槟	-11.7756
榨	-11.7756
双边和多边	-11.7756
▁不幸的是	-11.7756
二进制	-11.7756
拷贝	-11.7756
总务委员会	-11.7756
缠绕	-11.7757
竞技	-11.7757
心血管	-11.7757
活泼	-11.7757
辩护律师	-11.7758
wp	-11.7758
稳态	-11.7759
剑桥	-11.7759
一个巨大的	-11.776
普京	-11.776
药物滥用	-11.7761
第三届会议	-11.7761
▁本论文	-11.7762
引力	-11.7763
衷心	-11.7764
泥土	-11.7766
纽约市	-11.7768
趋向	-11.7772
烷基	-11.7772
粉红色	-11.7774
肠道	-11.7775
夸大	-11.7776
采取后续行动	-11.7778
巴哈马	-11.7778
套装	-11.7778
北京市	-11.7785
结构调整	-11.7787
指针	-11.7791
纯化	-11.7791
关节炎	-11.7795
磺酸	-11.7795
迪亚	-11.78
短语	-11.7801
物价	-11.7801
该法案	-11.7805
后悔	-11.7808
贫血	-11.781
实现可持续发展	-11.781
基底	-11.7812
批发	-11.7813
紧急状态	-11.7814
转身	-11.7815
艺术品	-11.7816
宠	-11.7818
兜	-11.7821
俱	-11.7821
羧	-11.7821
拉加经委会	-11.7821
▁实验结果表明	-11.7821
概览	-11.7821
情侣	-11.7822
审慎	-11.7822
巧妙	-11.7822
扩充	-11.7822
孩	-11.7822
斯德哥尔摩公约	-11.7824
海豚	-11.7824
开放式	-11.7824
现今	-11.7825
惊喜	-11.7825
反洗钱	-11.7826
照相	-11.7826
提出了一种基于	-11.7826
土著居民	-11.7826
老龄化	-11.7829
反对党	-11.7829
提供咨询意见	-11.7831
一小部分	-11.7832
巡回	-11.7833
试点项目	-11.7833
肢体	-11.7835
作出答复	-11.7835
体育场	-11.7836
庭长	-11.7839
这家公司	-11.7848
坚持认为	-11.7849
镇静	-11.7851
增压	-11.7853
自治区	-11.7855
过去两年	-11.7855
先例	-11.786
断面	-11.7865
知觉	-11.7872
链路	-11.7877
奸	-11.7885
不可思议	-11.7886
楔	-11.7886
迁徙	-11.7886
贞	-11.7886
采取适当措施	-11.7886
伊斯兰会议组织	-11.7886
直布罗陀	-11.7886
胡萝卜	-11.7887
全民投票	-11.7888
▁96.	-11.789
逃跑	-11.7893
遍布	-11.7894
纹理	-11.7895
赫尔	-11.7896
菌株	-11.7897
充实	-11.7904
更重要的是	-11.7906
依次	-11.7906
应激	-11.7906
直立	-11.7907
建立信任	-11.7909
的帮助下	-11.7909
盟友	-11.791
冲压	-11.7913
市镇	-11.7914
多学科	-11.7915
还有很多	-11.7916
由于缺乏	-11.7916
携	-11.7919
露天	-11.792
适于	-11.7924
嘴里	-11.7924
适用范围	-11.7927
核证	-11.7928
转速	-11.7928
盼	-11.7929
让步	-11.793
女神	-11.7931
见上文第	-11.7938
胡子	-11.7939
社会和文化	-11.7941
高潮	-11.7947
管辖范围	-11.7948
国家和地方	-11.795
裙子	-11.795
兄	-11.7952
Facebook	-11.7952
咳嗽	-11.7952
灼	-11.7952
青睐	-11.7952
▁浅谈	-11.7952
苏珊	-11.7953
措词	-11.7953
甲醛	-11.7954
赌博	-11.7955
乳腺	-11.7956
掌控	-11.7956
误导	-11.7957
7000	-11.7958
陈旧	-11.7958
射流	-11.7959
砂岩	-11.796
告别	-11.7961
公益	-11.7962
照亮	-11.7962
权利和自由	-11.7962
mr	-11.7966
广泛应用于	-11.7969
国际人权文书	-11.7973
全职	-11.7974
海报	-11.7981
酌	-11.7983
术治疗	-11.7987
致病	-11.799
测定方法	-11.7991
甲板	-11.7995
将其作为	-11.7996
民族主义	-11.7998
日在纽约	-11.8002
推定	-11.8008
法律草案	-11.8014
噪	-11.8015
称呼	-11.8017
票据	-11.8017
波浪	-11.8017
á	-11.8018
嗅	-11.8018
爱因斯坦	-11.8018
莎士比亚	-11.8018
幢	-11.8018
诠释	-11.8018
恰恰	-11.8019
国集团和中国	-11.8019
委员会请缔约国	-11.8019
少数族裔	-11.802
血栓	-11.802
钢筋	-11.8022
悉尼	-11.8022
承担的义务	-11.8023
矫正	-11.8023
最适合	-11.8023
tri	-11.8024
运费	-11.8024
1.0	-11.8026
交替	-11.8026
欧洲共同体	-11.8028
客厅	-11.8028
多余的	-11.803
边坡	-11.803
看起来很	-11.8031
停滞	-11.8031
口径	-11.8031
平均每	-11.8032
勉强	-11.8033
拟合	-11.8035
词典	-11.8036
一个例子	-11.8038
整数	-11.804
断言	-11.8051
判刑	-11.8052
任务授权	-11.8055
油脂	-11.8057
观光	-11.8059
制服	-11.8061
安定	-11.8065
争辩	-11.8066
科学院	-11.8068
颈部	-11.8077
罕	-11.8082
背部	-11.8083
畸	-11.8083
有争议的	-11.8084
有罪不罚	-11.8084
文职	-11.8085
抨击	-11.8085
陡	-11.8085
鞍	-11.8085
娶	-11.8085
摩加迪沙	-11.8085
抵御	-11.8085
枢纽	-11.8086
弥漫	-11.8086
观赏	-11.8087
畅销	-11.8087
环氧	-11.8087
追逐	-11.8088
石膏	-11.8092
教育和培训	-11.8093
变迁	-11.8093
国有企业	-11.8094
方言	-11.8098
查理	-11.8102
细致	-11.8104
维也纳公约	-11.8104
韧带	-11.8105
销售额	-11.8105
甘油	-11.8105
贮存	-11.8106
罗宾	-11.8107
股骨	-11.8107
贵方	-11.8107
财力	-11.8108
有限元分析	-11.8109
奶奶	-11.811
现存	-11.8117
受益者	-11.8119
果汁	-11.8121
解码	-11.8121
每一次	-11.8124
重点领域	-11.8133
石棉	-11.8137
一棵	-11.8138
各项措施	-11.8146
碎石	-11.8146
波导	-11.8151
蝇	-11.8152
乔布斯	-11.8152
德克萨斯	-11.8152
嫉妒	-11.8152
熄	-11.8152
窒息	-11.8152
二十一世纪	-11.8152
缕	-11.8152
安德鲁	-11.8152
玲	-11.8152
红十字会	-11.8152
乾	-11.8152
癫痫	-11.8152
─	-11.8152
军备竞赛	-11.8152
峡谷	-11.8152
紊乱	-11.8152
甜蜜	-11.8153
醋酸	-11.8154
所占比例	-11.8154
江西	-11.8154
(2003)	-11.8155
(1999)	-11.8155
农作物	-11.8155
ley	-11.8158
附件三	-11.8159
封建	-11.8161
1:00	-11.8161
宣读	-11.8161
善意	-11.8163
酶活性	-11.8163
有人指出	-11.8164
喝酒	-11.8164
趋于	-11.8165
步兵	-11.8166
印度洋	-11.8166
1972	-11.8168
被称作	-11.8169
区域和全球	-11.8172
伸展	-11.8183
当地社区	-11.8186
广泛应用	-11.8199
精美	-11.8202
刚好	-11.8205
看一下	-11.8207
合作伙伴关系	-11.8215
贬	-11.8217
mat	-11.8218
葱	-11.8219
泻	-11.8219
甸	-11.822
瘫痪	-11.822
第六十二届会议	-11.822
髋	-11.822
高效液相色谱	-11.822
岳	-11.822
曹	-11.822
诵	-11.822
含水层	-11.822
牡	-11.822
杀虫剂	-11.822
拘禁	-11.8221
这个时候	-11.8221
欢呼	-11.8222
做到这一点	-11.8223
漫步	-11.8223
送往	-11.8226
血统	-11.8226
造纸	-11.8226
丛林	-11.8226
违法行为	-11.8227
权利和义务	-11.8228
市场份额	-11.823
柜台	-11.8232
南部非洲	-11.8237
心理学家	-11.8237
年代初	-11.8237
所做的努力	-11.8238
根本没有	-11.824
1971	-11.8246
上市公司	-11.8247
稳定团	-11.8247
穿透	-11.8247
我爱你	-11.825
通话	-11.825
很清楚	-11.8252
1,000	-11.8257
怀特	-11.826
不舒服	-11.8263
担任主席	-11.8266
毛巾	-11.8271
port	-11.8271
解决这些问题	-11.8276
提高效率	-11.8276
空气污染	-11.8282
Con	-11.8283
泼	-11.8287
叔	-11.8288
慌	-11.8288
拌	-11.8288
福建省	-11.8288
战争遗留爆炸物	-11.8288
暴风雨	-11.8288
诀	-11.8288
公职人员	-11.8288
研训所	-11.8288
褪	-11.8288
涩	-11.8288
一连串	-11.8288
收音机	-11.8288
唤醒	-11.8288
沐浴	-11.8289
江苏省	-11.8289
不可避免的	-11.829
熊猫	-11.829
▁前言	-11.8291
▁93.	-11.8291
裁减	-11.8291
闭幕	-11.8291
储藏	-11.8292
梅尔	-11.8293
甲醇	-11.8294
矿山	-11.8294
武装力量	-11.8295
升降	-11.8297
的一员	-11.8308
参赛	-11.8312
享用	-11.8315
转变成	-11.8315
适度	-11.8315
优先权	-11.8318
公民身份	-11.8319
系统的设计	-11.8319
叙事	-11.832
失调	-11.8326
凝聚	-11.8327
人权事务高级专员办事处	-11.8327
反击	-11.8331
方面取得进展	-11.8334
空缺率	-11.8336
财政援助	-11.8342
矿井	-11.8344
tan	-11.8345
加盟	-11.8347
褐	-11.8352
祝愿	-11.8352
批量	-11.8355
蔽	-11.8355
鸿	-11.8356
佑	-11.8356
减少灾害风险	-11.8356
脲	-11.8356
疤	-11.8356
血小板	-11.8356
具有法律约束力的	-11.8356
辰	-11.8356
瀑布	-11.8357
鸿沟	-11.8357
受援国	-11.8357
阿拉斯加	-11.8357
先天性	-11.8357
洗澡	-11.8357
屁股	-11.8357
鲍勃	-11.8357
稳固	-11.8358
悲观	-11.8358
打扮	-11.836
斯科特	-11.8365
火车站	-11.8366
直觉	-11.8366
雕像	-11.8367
花瓣	-11.8367
1976	-11.8367
1974	-11.8368
IR	-11.8368
装满	-11.837
作斗争	-11.8372
液态	-11.8372
当地居民	-11.8375
粉丝	-11.8376
客房	-11.8377
赔偿责任	-11.8378
初始化	-11.8378
kar	-11.8379
君主	-11.8384
补充资料	-11.8387
多边主义	-11.8387
促进可持续发展	-11.8388
差旅	-11.8388
尼龙	-11.8389
ink	-11.839
敞开	-11.8392
绒毛	-11.8394
ode	-11.8396
依然存在	-11.8403
国际机场	-11.8406
喷气	-11.8409
ros	-11.8409
最近一次	-11.841
笔记	-11.8411
各专门机构	-11.8411
刊登	-11.8415
ish	-11.8417
mal	-11.8418
切片	-11.8419
忽	-11.8422
励	-11.8423
绍	-11.8425
贡	-11.8425
>	-11.8425
不列颠	-11.8425
盏	-11.8425
教科书	-11.8425
陷阱	-11.8425
阻挠	-11.8426
平方公里	-11.8426
遗弃	-11.8426
跳跃	-11.8428
祭司	-11.8428
疫情	-11.8428
堆积	-11.843
▁99.	-11.843
号召	-11.843
遗传算法	-11.8432
串联	-11.8433
聚酯	-11.8434
土著社区	-11.8436
烧伤	-11.8437
尤其如此	-11.8438
停车场	-11.8438
饮酒	-11.8445
阻挡	-11.8445
惯性	-11.8448
适量	-11.8453
导师	-11.8453
空袭	-11.8456
减少贫穷	-11.8461
祖父	-11.8468
所采用的	-11.8468
波恩	-11.8471
油井	-11.8474
高尔夫	-11.8477
资本市场	-11.8484
取得的成就	-11.8486
嘲	-11.8494
陀	-11.8495
爷	-11.8495
硒	-11.8495
凳	-11.8495
趁	-11.8495
陪审团	-11.8495
麦凯恩	-11.8495
联合国打击跨国有组织犯罪公约	-11.8495
10:00	-11.8495
被害人	-11.8495
玩耍	-11.8495
别墅	-11.8495
州立大学	-11.8496
搜集	-11.8497
退役	-11.8497
▁97.	-11.8498
情形下	-11.8499
铁矿石	-11.85
塑胶	-11.85
ext	-11.85
摩尔多瓦共和国	-11.8503
核不扩散	-11.8505
激起	-11.8506
医学院	-11.8506
成立以来	-11.8507
失踪人员	-11.8508
/2009/	-11.8508
支助账户	-11.8513
可惜	-11.8515
摩西	-11.8515
盲目	-11.8521
航海	-11.8522
/2010/	-11.8524
废弃物	-11.8526
抬起	-11.8538
光彩	-11.8538
反恐怖主义委员会	-11.854
金融体系	-11.8549
dec	-11.8551
取得的成果	-11.8552
局限	-11.8554
限度	-11.8555
描	-11.8562
捆	-11.8564
鄙	-11.8565
圭亚那	-11.8565
吩咐	-11.8565
孵	-11.8565
白血病	-11.8565
淘	-11.8565
门槛	-11.8565
草莓	-11.8566
广播电台	-11.8566
担负	-11.8566
山东省	-11.8567
薪资	-11.8567
注释	-11.8568
感到遗憾的是	-11.8568
新闻稿	-11.8571
短裤	-11.8573
私有化	-11.8573
频谱	-11.8574
泄露	-11.8577
务必	-11.8579
列报	-11.8579
导游	-11.858
有所改善	-11.8588
低收入国家	-11.8593
丙烯	-11.8596
扣除	-11.8597
充气	-11.8607
异构	-11.8608
指导意见	-11.8613
筹备会议	-11.8613
出席会议	-11.8615
款和第	-11.8615
移除	-11.8621
园区	-11.8633
ase	-11.8635
缅	-11.8635
凯瑟琳	-11.8635
鼎	-11.8635
纶	-11.8635
表面活性剂	-11.8635
宗教或信仰	-11.8635
金字塔	-11.8635
采取必要措施	-11.8635
第二次世界大战	-11.8635
斡旋	-11.8635
寡妇	-11.8636
江苏	-11.8636
植株	-11.8636
经济和社会事务部	-11.8636
恐龙	-11.8637
阿拉伯国家联盟	-11.8637
品尝	-11.8638
具有约束力	-11.8643
仲裁庭	-11.8643
涌入	-11.8646
不太可能	-11.8648
价格上涨	-11.8648
西北部	-11.8653
马上就	-11.8653
里昂	-11.8653
巨型	-11.8657
土著妇女	-11.8657
部长们	-11.8657
号来文	-11.8659
飞往	-11.8659
母语	-11.8665
水肿	-11.8665
纲	-11.8684
亚的斯亚贝巴	-11.8688
议会选举	-11.8704
垒	-11.8705
打交道	-11.8706
桔	-11.8706
可口可乐	-11.8706
淬	-11.8706
CPU	-11.8706
痰	-11.8706
贝鲁特	-11.8706
冈比亚	-11.8706
坟墓	-11.8706
樱桃	-11.8706
蒸馏	-11.8706
对妇女的暴力行为	-11.8707
透析	-11.8708
现况	-11.8709
履约	-11.871
打扰	-11.8711
肝炎	-11.8714
凝视	-11.8714
介意	-11.8714
细胞凋亡	-11.8717
胜任	-11.8718
肺部	-11.8719
调速	-11.872
高尔夫球	-11.8724
精算	-11.8724
辛格	-11.8724
my	-11.8725
充分发挥	-11.8726
宿主	-11.8727
脱落	-11.8732
配电	-11.8733
脱硫	-11.8734
的重要因素	-11.8738
每隔	-11.8739
严重威胁	-11.8741
发电厂	-11.8743
bert	-11.8751
心理健康	-11.8752
2.0	-11.8756
ann	-11.8759
los	-11.8763
°	-11.8768
艰	-11.8771
海滨	-11.8775
诈	-11.8777
URL	-11.8777
书记官长	-11.8777
1998-1999	-11.8777
国务卿	-11.8777
媚	-11.8777
棕榈	-11.8777
腈	-11.8777
禁产条约	-11.8777
荆	-11.8777
企业资源规划	-11.8777
厌倦	-11.8777
诊治	-11.8778
勤奋	-11.8778
阈值	-11.8778
审判分庭	-11.8779
有罪不罚现象	-11.8779
协商一致意见	-11.8781
复审	-11.8784
诚意	-11.8785
声援	-11.8786
合乎	-11.8786
的制备及	-11.879
绕组	-11.879
做出贡献	-11.8791
把重点放在	-11.8792
微弱	-11.8793
教程	-11.8794
非正式会议	-11.8795
日举行的第	-11.8796
角度看	-11.88
60/2	-11.8812
代表发了言	-11.8816
斯堡	-11.8817
最基本的	-11.882
腰带	-11.8822
秉	-11.8849
脐	-11.8849
拮	-11.8849
膛	-11.8849
绩	-11.8905
荫	-11.8922
奢	-11.8922
芥	-11.8922
厨	-11.8972
凿	-11.8993
斐	-11.8995
瘘	-11.8995
鹤	-11.8995
姬	-11.8995
苛	-11.9068
啥	-11.9068
觅	-11.9068
湘	-11.9068
铰	-11.9068
燥	-11.914
溺	-11.9142
胫	-11.9142
吟	-11.9142
啉	-11.9142
迅	-11.9216
蛙	-11.9216
椒	-11.9216
菠	-11.9217
趟	-11.9217
颌	-11.9273
杠	-11.9291
憎	-11.9292
爸	-11.9292
蠢	-11.9292
耽	-11.9292
芙	-11.9292
秤	-11.9292
跪	-11.9292
崎	-11.9292
姐	-11.9355
掷	-11.9367
屠	-11.9367
喔	-11.9368
贱	-11.9368
矛	-11.9444
狐	-11.9444
筝	-11.9444
玄	-11.9444
翘	-11.9444
棕	-11.9519
<	-11.9521
淮	-11.9521
刨	-11.9521
睑	-11.9521
鳍	-11.9521
嗓	-11.9521
焰	-11.9586
沼	-11.9598
咨	-11.9599
剃	-11.9599
宵	-11.9599
腋	-11.9599
窥	-11.9599
怯	-11.9599
熙	-11.9599
汪	-11.9599
豚	-11.9673
钮	-11.9674
缉	-11.9676
赦	-11.9676
嘘	-11.9677
峭	-11.9677
昼	-11.9677
沛	-11.9677
亩	-11.9677
蹦	-11.9677
潭	-11.9677
萼	-11.9677
ó	-11.9677
撇	-11.9677
哄	-11.9677
仲	-11.9729
疆	-11.9743
萧	-11.9751
惑	-11.9754
骚	-11.9755
唾	-11.9756
粥	-11.9756
绷	-11.9756
眩	-11.9756
傲	-11.9834
#	-11.9835
怡	-11.9835
叮	-11.9835
硕	-11.9914
淫	-11.9914
冗	-11.9914
馏	-11.9915
僻	-11.9915
昧	-11.9915
嘎	-11.9915
惟	-11.9941
坪	-11.9994
倚	-11.9996
拢	-11.9996
铆	-11.9996
蕊	-11.9996
诞	-12.0069
膨	-12.0077
炽	-12.0077
畔	-12.0077
驼	-12.0077
睫	-12.0077
锆	-12.0077
乖	-12.0077
裹	-12.0154
怎	-12.0158
歪	-12.0158
蒲	-12.0159
篱	-12.0159
馅	-12.0242
腌	-12.0242
笋	-12.0242
犁	-12.0325
墩	-12.0325
揉	-12.0325
缪	-12.0325
惧	-12.0409
冕	-12.0409
腓	-12.0409
箔	-12.0409
昭	-12.0409
湛	-12.0409
瘟	-12.0409
纠	-12.0486
烛	-12.0493
í	-12.0494
吼	-12.0494
啶	-12.0494
苞	-12.0494
洼	-12.0494
骤	-12.0559
厢	-12.0573
御	-12.0577
旬	-12.0579
咳	-12.0579
戳	-12.0579
嚷	-12.0579
渠	-12.0662
悍	-12.0665
葡	-12.0665
劈	-12.0665
饵	-12.0665
馀	-12.0665
烙	-12.0665
柑	-12.0665
碾	-12.0665
匿	-12.0745
糕	-12.0752
讽	-12.0752
嗡	-12.0752
琪	-12.0752
秆	-12.0752
懦	-12.0752
】	-12.0752
舅	-12.0752
暇	-12.0752
盔	-12.0835
嚣	-12.084
枫	-12.084
哼	-12.084
朋	-12.0927
剔	-12.0928
窍	-12.0928
蒋	-12.0928
羔	-12.0928
嗪	-12.0928
锭	-12.0928
徵	-12.0929
芜	-12.1018
啮	-12.1018
【	-12.1018
淑	-12.1018
趾	-12.1106
慧	-12.1107
桐	-12.1108
斩	-12.1108
措	-12.1195
莓	-12.1196
缎	-12.1199
萤	-12.1199
怠	-12.1199
舷	-12.1199
雏	-12.1199
嚼	-12.1199
瞪	-12.1199
咕	-12.1199
矢	-12.128
卉	-12.129
岂	-12.129
崔	-12.129
禾	-12.1291
茧	-12.1291
叨	-12.1291
茸	-12.1291
姚	-12.1381
瞎	-12.1383
毡	-12.1383
梢	-12.1383
蛾	-12.1383
焕	-12.1383
稚	-12.1383
喃	-12.1383
淹	-12.1475
屁	-12.1475
蛮	-12.1476
茵	-12.1477
熵	-12.1477
猿	-12.1477
竿	-12.1477
黯	-12.1477
寥	-12.1477
菇	-12.1571
棺	-12.1571
梵	-12.1571
斋	-12.1571
譬	-12.1571
擅	-12.166
蔑	-12.1665
骇	-12.1666
芹	-12.1666
酥	-12.1666
砰	-12.1666
践	-12.1758
溃	-12.1762
卒	-12.1762
颚	-12.1762
哎	-12.1762
绊	-12.1762
萘	-12.1762
瞥	-12.1762
夷	-12.1762
嬉	-12.1762
鹦	-12.1762
饲	-12.1857
谬	-12.1859
噩	-12.1859
孝	-12.1859
蒜	-12.1931
珊	-12.1957
嗨	-12.1957
侏	-12.1957
殊	-12.2052
歉	-12.2053
绸	-12.2055
惰	-12.2056
岔	-12.2056
渺	-12.2056
湍	-12.2056
菩	-12.2056
械	-12.2132
谊	-12.2156
滕	-12.2156
凄	-12.2257
蒿	-12.2257
陋	-12.2359
蹲	-12.2359
螨	-12.2359
揽	-12.2359
暨	-12.2359
汶	-12.2359
瘫	-12.2359
婉	-12.2359
弘	-12.2359
钒	-12.2359
幔	-12.236
耍	-12.2462
佬	-12.2463
殷	-12.2463
峡	-12.2553
钥	-12.2566
溯	-12.2566
倦	-12.2566
悼	-12.2567
陨	-12.2567
啡	-12.2567
晾	-12.2567
炖	-12.2567
俭	-12.2567
哗	-12.2567
脯	-12.2567
鲨	-12.267
疚	-12.2672
酐	-12.2672
慨	-12.2672
曳	-12.2672
垦	-12.2672
澡	-12.2777
腊	-12.2778
悄	-12.2778
羚	-12.2778
窜	-12.2778
眨	-12.2778
屯	-12.2778
侦	-12.2883
谣	-12.2885
褶	-12.2886
彗	-12.2886
澈	-12.2886
钡	-12.2886
厥	-12.2886
拽	-12.2886
姊	-12.2995
窘	-12.2995
冤	-12.2995
淌	-12.2995
衍	-12.309
耦	-12.3095
妳	-12.3104
唉	-12.3104
桁	-12.3104
筷	-12.3104
罹	-12.3104
秽	-12.3104
眶	-12.3104
哌	-12.3105
滔	-12.3105
廓	-12.3149
噬	-12.3215
〉	-12.3216
靡	-12.3216
檐	-12.3216
牠	-12.3216
妃	-12.3216
寝	-12.3216
桅	-12.3216
诫	-12.3319
饥	-12.3327
陛	-12.3328
氓	-12.3328
幂	-12.3328
斤	-12.344
檀	-12.3442
氩	-12.3442
瘀	-12.3442
魁	-12.3442
侄	-12.3442
魄	-12.3442
毙	-12.3442
聪	-12.3552
宙	-12.3556
龈	-12.3557
嘶	-12.3557
皿	-12.3557
吱	-12.3557
拙	-12.3673
沧	-12.3673
窟	-12.3673
犀	-12.3673
肱	-12.3673
碍	-12.3775
辟	-12.3787
柚	-12.379
暮	-12.379
巅	-12.379
鸥	-12.379
绽	-12.379
熨	-12.379
篡	-12.379
呤	-12.379
嘟	-12.379
糠	-12.379
孽	-12.3791
癖	-12.3791
祛	-12.3909
茱	-12.391
攸	-12.391
猖	-12.391
殖	-12.4022
刹	-12.4026
曝	-12.4026
恕	-12.4029
焚	-12.4029
拣	-12.403
肛	-12.403
芋	-12.403
拭	-12.403
藓	-12.403
禄	-12.403
腮	-12.403
冥	-12.4145
厘	-12.4147
簧	-12.4151
糜	-12.4152
钎	-12.4152
朔	-12.4152
谚	-12.4152
莽	-12.4152
哩	-12.4152
氦	-12.4152
苇	-12.4152
噻	-12.4152
釜	-12.4152
棵	-12.4244
稼	-12.4275
琥	-12.4275
肇	-12.4275
绰	-12.4275
唠	-12.4275
啪	-12.4275
堰	-12.4275
镖	-12.4275
竣	-12.4275
坍	-12.44
吾	-12.44
骶	-12.44
嘻	-12.44
橇	-12.44
蜥	-12.44
绚	-12.44
甫	-12.44
亟	-12.4475
疟	-12.4491
丈	-12.4525
厉	-12.4526
俏	-12.4527
蚤	-12.4527
鲑	-12.4527
疝	-12.4527
箍	-12.4527
辙	-12.4527
渝	-12.4527
僚	-12.4654
炔	-12.4655
颞	-12.4655
汐	-12.4655
瞳	-12.4655
喹	-12.4655
甙	-12.4655
赡	-12.4655
穹	-12.4655
腱	-12.4785
坟	-12.4785
眷	-12.4785
蜕	-12.4785
樟	-12.4785
呃	-12.4785
攒	-12.4785
炙	-12.4785
冀	-12.4785
涕	-12.4785
盯	-12.4888
沫	-12.4915
凋	-12.4916
咖	-12.4917
缮	-12.4917
秸	-12.4917
毂	-12.4917
甾	-12.4917
拧	-12.4917
锑	-12.4917
恪	-12.4917
亢	-12.505
螯	-12.505
跤	-12.505
辫	-12.505
澜	-12.505
惶	-12.505
拂	-12.505
萍	-12.505
镑	-12.5184
蔚	-12.5185
榆	-12.5185
丫	-12.5185
臼	-12.5185
阑	-12.5185
雁	-12.5185
吝	-12.5185
荚	-12.5185
漩	-12.5185
蔓	-12.5322
崖	-12.5322
豫	-12.5322
蕨	-12.5322
饺	-12.5322
呐	-12.5322
茉	-12.5322
楠	-12.5322
疽	-12.5322
捻	-12.5322
唆	-12.5322
嗣	-12.5322
钞	-12.546
稽	-12.546
―	-12.5461
莞	-12.5461
忱	-12.5461
苟	-12.5461
螂	-12.5461
兮	-12.5461
焉	-12.5461
槐	-12.5461
沪	-12.5461
襟	-12.5461
筐	-12.5461
乍	-12.5597
翰	-12.5599
狠	-12.5602
宛	-12.5602
笃	-12.5602
虱	-12.5602
卦	-12.5602
蔼	-12.5602
蜒	-12.5602
颓	-12.5602
躬	-12.5602
肃	-12.5721
啸	-12.574
萃	-12.5743
嘱	-12.5744
睾	-12.5745
桦	-12.5745
褥	-12.5745
侪	-12.5745
虏	-12.5745
莹	-12.5745
貂	-12.5745
仕	-12.5745
曰	-12.5745
斟	-12.5745
跋	-12.5745
帷	-12.5745
酵	-12.5878
蚜	-12.589
漱	-12.589
翩	-12.589
崽	-12.589
玷	-12.589
垩	-12.589
憩	-12.589
晦	-12.589
抒	-12.589
轩	-12.589
恍	-12.589
簸	-12.589
扒	-12.6037
鹏	-12.6037
曙	-12.6037
糯	-12.6037
泌	-12.618
蔬	-12.6185
骸	-12.6185
藐	-12.6186
舔	-12.6186
蜿	-12.6186
谭	-12.6186
俺	-12.6186
渤	-12.6186
镰	-12.6186
铐	-12.6186
琢	-12.6186
煞	-12.6186
峙	-12.6186
冉	-12.6186
央	-12.6284
樱	-12.6337
撬	-12.6337
猝	-12.6337
蛤	-12.6337
怂	-12.6337
烬	-12.6337
纾	-12.6337
吠	-12.6337
嘌	-12.6337
涎	-12.6337
喙	-12.6338
睹	-12.6491
龋	-12.6491
鄂	-12.6491
袁	-12.6491
钽	-12.6491
媳	-12.6491
屎	-12.6491
钚	-12.6491
藜	-12.6491
炊	-12.6491
靖	-12.6491
鳄	-12.6646
紊	-12.6647
蹈	-12.6647
摧	-12.6647
啃	-12.6647
蝗	-12.6648
缤	-12.6648
蝎	-12.6648
殆	-12.6648
歹	-12.6648
匣	-12.6648
蔷	-12.6648
苄	-12.6648
喋	-12.6648
遏	-12.6803
淀	-12.6804
巩	-12.6806
〈	-12.6806
忏	-12.6806
亥	-12.6806
喇	-12.6806
孜	-12.6806
唔	-12.6806
鳃	-12.6806
牟	-12.6806
ñ	-12.6806
涝	-12.6806
菁	-12.6806
庚	-12.6806
爹	-12.6806
勉	-12.6932
袒	-12.6968
荔	-12.6968
铌	-12.6968
驭	-12.6968
粤	-12.6968
埠	-12.6968
孪	-12.6968
扉	-12.6968
搓	-12.6968
咏	-12.6968
芪	-12.6968
蜀	-12.6968
祀	-12.6968
卟	-12.6968
忆	-12.6982
泣	-12.7131
羁	-12.7131
‧	-12.7131
髂	-12.7131
睿	-12.7131
夭	-12.7132
颖	-12.7279
隧	-12.7292
晰	-12.7294
煌	-12.7298
瞻	-12.7298
蟾	-12.7298
汕	-12.7298
谟	-12.7298
腭	-12.7298
婶	-12.7298
撮	-12.7298
恿	-12.7298
矗	-12.7298
呋	-12.7298
骏	-12.7298
毗	-12.7467
锄	-12.7468
扛	-12.7468
丐	-12.7468
鳕	-12.7468
茹	-12.7468
磐	-12.7468
筏	-12.7468
窖	-12.7468
蜴	-12.7468
岖	-12.7468
狙	-12.7468
鳗	-12.7468
杭	-12.7525
\	-12.764
夯	-12.764
廖	-12.764
秧	-12.764
蛎	-12.764
噶	-12.764
疣	-12.764
瘠	-12.764
β	-12.764
琉	-12.764
膦	-12.764
桡	-12.764
歼	-12.764
妒	-12.764
榔	-12.764
š	-12.764
柬	-12.764
呜	-12.764
晤	-12.7647
糙	-12.7815
姗	-12.7815
恙	-12.7815
蓉	-12.7815
猕	-12.7815
痔	-12.7815
螃	-12.7815
邸	-12.7815
羹	-12.7816
潇	-12.7816
蘸	-12.7816
趴	-12.7816
钯	-12.7816
鲤	-12.7816
涸	-12.7816
赣	-12.7816
鹃	-12.7816
荧	-12.7935
弛	-12.7993
俾	-12.7994
娴	-12.7994
锗	-12.7994
讥	-12.7994
拴	-12.7994
挎	-12.7994
蜷	-12.7994
垛	-12.7994
莺	-12.7994
镯	-12.7994
啬	-12.7994
彬	-12.7994
搂	-12.7994
赘	-12.7994
韶	-12.7994
{	-12.7994
颁	-12.8159
睛	-12.8171
冶	-12.8172
祈	-12.8175
囤	-12.8176
潺	-12.8176
疱	-12.8176
薛	-12.8176
唧	-12.8176
蚓	-12.8176
楷	-12.8176
笆	-12.8176
麝	-12.8176
茴	-12.8176
禧	-12.8176
○	-12.8176
邱	-12.8176
吁	-12.8321
甄	-12.8359
侣	-12.8359
拷	-12.836
嚏	-12.8361
煅	-12.8361
蓖	-12.8361
珥	-12.8361
癜	-12.8361
芩	-12.8361
兢	-12.8361
楞	-12.8361
邑	-12.8361
恫	-12.8361
〇	-12.8361
媲	-12.8361
翡	-12.8361
酝	-12.8361
埔	-12.8361
辐	-12.8545
荐	-12.8549
呕	-12.8549
砼	-12.855
耿	-12.855
刍	-12.855
镂	-12.855
蹂	-12.855
惬	-12.855
痢	-12.855
鱿	-12.855
鹭	-12.855
巍	-12.855
涯	-12.8659
绢	-12.8742
旳	-12.8742
痤	-12.8742
蟑	-12.8742
铋	-12.8742
髁	-12.8742
叽	-12.8742
盹	-12.8742
闽	-12.8742
滇	-12.8742
蓿	-12.8742
飚	-12.8742
瞭	-12.8742
苜	-12.8742
磕	-12.8742
鞠	-12.8742
粕	-12.8742
鞣	-12.8742
碌	-12.8923
庇	-12.8937
啄	-12.8938
懊	-12.8938
殉	-12.8938
掳	-12.8938
闩	-12.8938
苑	-12.8938
髌	-12.8938
蔻	-12.8938
癣	-12.8938
榻	-12.8938
氙	-12.8938
铯	-12.8938
匝	-12.8938
霓	-12.8938
沥	-12.9137
峻	-12.9138
侬	-12.9138
瀚	-12.9138
瑜	-12.9138
帚	-12.9138
迂	-12.9138
霆	-12.9138
讳	-12.9138
鸠	-12.9138
α	-12.9138
啼	-12.9138
噜	-12.9138
盂	-12.9138
漓	-12.9138
粹	-12.9339
逮	-12.9342
牲	-12.9342
铈	-12.9342
痂	-12.9342
耙	-12.9342
奄	-12.9342
嫂	-12.9342
潢	-12.9342
锶	-12.9342
砚	-12.9342
翱	-12.9342
荞	-12.9342
}	-12.9342
咧	-12.9342
粱	-12.9342
茬	-12.9342
黝	-12.9342
伎	-12.9342
铠	-12.9342
鼾	-12.9342
掀	-12.953
炫	-12.955
珂	-12.955
肟	-12.9551
谘	-12.9551
揣	-12.9551
皈	-12.9551
旭	-12.9551
砧	-12.9551
俑	-12.9551
搪	-12.9551
枸	-12.9551
眸	-12.9551
辗	-12.9551
娄	-12.9551
漳	-12.9551
铛	-12.9551
雹	-12.9551
膈	-12.9551
谛	-12.9551
迥	-12.9551
鹫	-12.9551
坤	-12.9551
杞	-12.9551
庐	-12.9551
绯	-12.9763
矾	-12.9763
惭	-12.9763
肼	-12.9763
麟	-12.9763
吏	-12.9763
擒	-12.9763
柿	-12.9763
萜	-12.9763
锉	-12.9763
彝	-12.9763
萦	-12.9763
跻	-12.9763
骰	-12.9763
镗	-12.9763
嘈	-12.9763
坞	-12.9763
峨	-12.9763
忿	-12.9763
琵	-12.9763
琶	-12.9763
瑕	-12.9763
癫	-12.9763
鹊	-12.9763
咱	-12.9978
馨	-12.9979
膳	-12.998
棠	-12.9981
嚎	-12.9981
尹	-12.9981
骄	-12.9981
昵	-12.9981
蛹	-12.9981
憧	-12.9981
梧	-12.9981
醌	-12.9981
醺	-12.9981
彷	-12.9981
桉	-12.9981
芎	-12.9981
吲	-12.9981
攘	-12.9981
阱	-13.0203
铟	-13.0203
踱	-13.0203
瓢	-13.0203
铎	-13.0203
酞	-13.0203
锣	-13.0203
禀	-13.0203
遐	-13.0203
哟	-13.0203
襄	-13.0203
羰	-13.0203
寇	-13.0203
漾	-13.0203
斌	-13.0203
陕	-13.0427
阈	-13.0428
腥	-13.0429
肴	-13.0429
濒	-13.043
狸	-13.043
钕	-13.043
蝉	-13.043
菅	-13.043
彪	-13.043
喱	-13.043
阪	-13.043
龚	-13.043
侃	-13.043
蓟	-13.043
ü	-13.043
跷	-13.043
吮	-13.043
壕	-13.043
挟	-13.043
苣	-13.043
蹭	-13.043
坳	-13.043
腑	-13.043
戛	-13.043
眯	-13.043
邵	-13.043
祠	-13.043
昨	-13.0629
脖	-13.0655
涤	-13.0662
灿	-13.0663
榕	-13.0663
毋	-13.0663
鑫	-13.0663
麓	-13.0663
佔	-13.0663
卿	-13.0663
姥	-13.0663
娥	-13.0663
痣	-13.0663
搐	-13.0663
榛	-13.0663
煲	-13.0663
蒽	-13.0663
蹬	-13.0663
邯	-13.0663
缄	-13.0663
孚	-13.0663
潦	-13.0663
『	-13.0663
娱	-13.0887
汾	-13.0901
迴	-13.0901
喳	-13.0901
拎	-13.0901
č	-13.0901
雍	-13.0901
枷	-13.0901
圃	-13.0901
祁	-13.0901
裳	-13.0901
ö	-13.0901
诲	-13.0901
凛	-13.0901
鼹	-13.0901
楂	-13.0901
岐	-13.0901
阜	-13.0901
晖	-13.0901
裴	-13.0901
魅	-13.1139
谅	-13.1141
伺	-13.1144
矽	-13.1145
儡	-13.1145
靛	-13.1145
颐	-13.1145
氡	-13.1145
沁	-13.1145
霾	-13.1145
呱	-13.1145
夥	-13.1145
枉	-13.1145
芸	-13.1145
髅	-13.1145
蚴	-13.1145
犊	-13.1145
箴	-13.1145
郝	-13.1145
叼	-13.1145
哒	-13.1145
靓	-13.1145
掐	-13.1145
』	-13.1145
裘	-13.1145
踵	-13.1145
嘀	-13.1145
讼	-13.1378
轿	-13.1389
殴	-13.1391
哺	-13.1394
咀	-13.1395
圭	-13.1395
摹	-13.1395
榫	-13.1395
缰	-13.1395
揍	-13.1395
祢	-13.1395
俟	-13.1395
啰	-13.1395
骋	-13.1395
钵	-13.1395
骷	-13.1395
祟	-13.1395
唬	-13.1395
壹	-13.1395
嗝	-13.1395
妨	-13.1607
澄	-13.1649
傍	-13.165
掸	-13.1651
麸	-13.1651
獭	-13.1651
憬	-13.1651
铒	-13.1651
暧	-13.1651
樊	-13.1651
烩	-13.1651
悸	-13.1651
虞	-13.1651
闺	-13.1651
→	-13.1651
邃	-13.1651
鬃	-13.1651
蕃	-13.1651
惚	-13.1651
灸	-13.1914
祷	-13.1914
幌	-13.1914
汝	-13.1914
亵	-13.1914
聂	-13.1914
猥	-13.1914
璃	-13.1914
迸	-13.1914
馁	-13.1914
嬷	-13.1914
●	-13.1914
咋	-13.1914
洱	-13.1914
涟	-13.1914
茁	-13.1914
坷	-13.1914
恬	-13.1914
讹	-13.1914
沂	-13.1914
藩	-13.1914
诧	-13.1914
跛	-13.1914
吩	-13.1914
蟒	-13.1914
讬	-13.1914
剽	-13.2185
厩	-13.2185
俚	-13.2185
ú	-13.2185
[...]
